{
  "<pad>": 0,
  "<unk>": 1,
  "<s>": 2,
  "</s>": 3,
  " ": 4,
  "!": 5,
  "\"": 6,
  "#": 7,
  "$": 8,
  "%": 9,
  "&": 10,
  "'": 11,
  "(": 12,
  ")": 13,
  "*": 14,
  "+": 15,
  ",": 16,
  "-": 17,
  ".": 18,
  "/": 19,
  "0": 20,
  "1": 21,
  "2": 22,
  "3": 23,
  "4": 24,
  "5": 25,
  "6": 26,
  "7": 27,
  "8": 28,
  "9": 29,
  ":": 30,
  ";": 31,
  "<": 32,
  "=": 33,
  ">": 34,
  "?": 35,
  "@": 36,
  "A": 37,
  "B": 38,
  "C": 39,
  "D": 40,
  "E": 41,
  "F": 42,
  "G": 43,
  "H": 44,
  "I": 45,
  "J": 46,
  "K": 47,
  "L": 48,
  "M": 49,
  "N": 50,
  "O": 51,
  "P": 52,
  "Q": 53,
  "R": 54,
  "S": 55,
  "T": 56,
  "U": 57,
  "V": 58,
  "W": 59,
  "X": 60,
  "Y": 61,
  "Z": 62,
  "[": 63,
  "\\": 64,
  "]": 65,
  "^": 66,
  "_": 67,
  "`": 68,
  "a": 69,
  "b": 70,
  "c": 71,
  "d": 72,
  "e": 73,
  "f": 74,
  "g": 75,
  "h": 76,
  "i": 77,
  "j": 78,
  "k": 79,
  "l": 80,
  "m": 81,
  "n": 82,
  "o": 83,
  "p": 84,
  "q": 85,
  "r": 86,
  "s": 87,
  "t": 88,
  "u": 89,
  "v": 90,
  "w": 91,
  "x": 92,
  "y": 93,
  "z": 94,
  "{": 95,
  "|": 96,
  "}": 97,
  "~": 98,
  "▁": 99,
  "ng": 100,
  "ang": 101,
  "na": 102,
  "sa": 103,
  "an": 104,
  "ka": 105,
  "pa": 106,
  "la": 107,
  "ga": 108,
  "ma": 109,
  "ta": 110,
  "in": 111,
  "mga": 112,
  "it": 113,
  "ay": 114,
  "is": 115,
  "at": 116,
  "li": 117,
  "ba": 118,
  "on": 119,
  "ong": 120,
  "si": 121,
  "ra": 122,
  "pag": 123,
  "ya": 124,
  "il": 125,
  "ing": 126,
  "ina": 127,
  "da": 128,
  "er": 129,
  "ha": 130,
  "wa": 131,
  "tu": 132,
  "un": 133,
  "es": 134,
  "en": 135,
  "ri": 136,
  "ti": 137,
  "ro": 138,
  "pang": 139,
  "isang": 140,
  "di": 141,
  "lu": 142,
  "ito": 143,
  "lo": 144,
  "mu": 145,
  "ko": 146,
  "nag": 147,
  "to": 148,
  "ni": 149,
  "hi": 150,
  "ku": 151,
  "re": 152,
  "ilang": 153,
  "bu": 154,
  "os": 155,
  "bi": 156,
  "su": 157,
  "kan": 158,
  "yon": 159,
  "te": 160,
  "ki": 161,
  "yang": 162,
  "man": 163,
  "may": 164,
  "pu": 165,
  "or": 166,
  "mi": 167,
  "le": 168,
  "pina": 169,
  "no": 170,
  "lang": 171,
  "yo": 172,
  "mag": 173,
  "mo": 174,
  "pi": 175,
  "pan": 176,
  "hin": 177,
  "bilang": 178,
  "hu": 179,
  "han": 180,
  "de": 181,
  "so": 182,
  "do": 183,
  "lala": 184,
  "mang": 185,
  "se": 186,
  "pagka": 187,
  "  ": 188,
  "po": 189,
  "al": 190,
  "mula": 191,
  "ar": 192,
  "noong": 193,
  "san": 194,
  "bo": 195,
  "go": 196,
  "us": 197,
  "ran": 198,
  "he": 199,
  "19": 200,
  "pe": 201,
  "ini": 202,
  "bang": 203,
  "hindi": 204,
  "gu": 205,
  "yan": 206,
  "ban": 207,
  "siya": 208,
  "hang": 209,
  "as": 210,
  "gan": 211,
  "nan": 212,
  "syon": 213,
  "kasa": 214,
  "gang": 215,
  "lan": 216,
  "para": 217,
  "ika": 218,
  "du": 219,
  "yong": 220,
  "wang": 221,
  "naka": 222,
  "mit": 223,
  "me": 224,
  "iba": 225,
  "tang": 226,
  "papa": 227,
  "mala": 228,
  "sang": 229,
  "ter": 230,
  "mata": 231,
  "ling": 232,
  "ho": 233,
  "tan": 234,
  "gi": 235,
  "00": 236,
  "itan": 237,
  "pana": 238,
  "hay": 239,
  "wi": 240,
  "mba": 241,
  "inu": 242,
  "nang": 243,
  "wan": 244,
  "isa": 245,
  "lat": 246,
  "co": 247,
  "kung": 248,
  "kata": 249,
  "lit": 250,
  "pama": 251,
  "pin": 252,
  "ca": 253,
  "gay": 254,
  "bay": 255,
  "ara": 256,
  "kas": 257,
  "baba": 258,
  "hala": 259,
  "dala": 260,
  "ig": 261,
  "mp": 262,
  "hil": 263,
  "tao": 264,
  "maa": 265,
  "hat": 266,
  "pro": 267,
  "rin": 268,
  "nito": 269,
  "kon": 270,
  "ru": 271,
  "unang": 272,
  "lad": 273,
  "lik": 274,
  "el": 275,
  "sina": 276,
  "ye": 277,
  "mas": 278,
  "tina": 279,
  "gawa": 280,
  "upang": 281,
  "long": 282,
  "gamit": 283,
  "kala": 284,
  "les": 285,
  "dahil": 286,
  "dis": 287,
  "rang": 288,
  "katu": 289,
  "uno": 290,
  "kanyang": 291,
  "mb": 292,
  "kay": 293,
  "kal": 294,
  "ce": 295,
  "pam": 296,
  "pat": 297,
  "men": 298,
  "tra": 299,
  "res": 300,
  "gina": 301,
  "ak": 302,
  "tas": 303,
  "din": 304,
  "ana": 305,
  "ne": 306,
  "pili": 307,
  "pos": 308,
  "wag": 309,
  "una": 310,
  "maka": 311,
  "dad": 312,
  "per": 313,
  "min": 314,
  "mar": 315,
  "lung": 316,
  "mara": 317,
  "ris": 318,
  "tag": 319,
  "aring": 320,
  "ayon": 321,
  "ibang": 322,
  "nasa": 323,
  "kani": 324,
  "lay": 325,
  "ob": 326,
  "sis": 327,
  "ber": 328,
  "pinaka": 329,
  "lin": 330,
  "kara": 331,
  "ring": 332,
  "ag": 333,
  "ug": 334,
  "mun": 335,
  "itong": 336,
  "kang": 337,
  "kina": 338,
  "wal": 339,
  "ci": 340,
  "baha": 341,
  "kanilang": 342,
  "sasa": 343,
  "tong": 344,
  "pala": 345,
  "panah": 346,
  "tin": 347,
  "iti": 348,
  "be": 349,
  "vi": 350,
  "hing": 351,
  "ral": 352,
  "mon": 353,
  "lamang": 354,
  "par": 355,
  "maaaring": 356,
  "esta": 357,
  "pagta": 358,
  "pagpapa": 359,
  "tinata": 360,
  "gong": 361,
  "ch": 362,
  "ala": 363,
  "git": 364,
  "taga": 365,
  "ke": 366,
  "sin": 367,
  "the": 368,
  "th": 369,
  "roon": 370,
  "tro": 371,
  "uni": 372,
  "king": 373,
  "ingles": 374,
  "unit": 375,
  "walang": 376,
  "ismo": 377,
  "ser": 378,
  "tr": 379,
  "pinas": 380,
  "kong": 381,
  "big": 382,
  "ming": 383,
  "tal": 384,
  "op": 385,
  "ene": 386,
  "kat": 387,
  "niya": 388,
  "bas": 389,
  "mer": 390,
  "magitan": 391,
  "hanggang": 392,
  "sod": 393,
  "kilala": 394,
  "karan": 395,
  "pinag": 396,
  "pon": 397,
  "pilipinas": 398,
  "nila": 399,
  "dig": 400,
  "pamamagitan": 401,
  "lita": 402,
  "siyon": 403,
  "nay": 404,
  "lohi": 405,
  "loob": 406,
  "kaya": 407,
  "naging": 408,
  "pagkaka": 409,
  "dos": 410,
  "bansa": 411,
  "lar": 412,
  "lungsod": 413,
  "bahagi": 414,
  "yos": 415,
  "por": 416,
  "kaniyang": 417,
  "18": 418,
  "20": 419,
  "anak": 420,
  "ria": 421,
  "bis": 422,
  "ks": 423,
  "bat": 424,
  "yu": 425,
  "200": 426,
  "wala": 427,
  "mali": 428,
  "ari": 429,
  "karani": 430,
  "bong": 431,
  "hali": 432,
  "tinatawag": 433,
  "buhay": 434,
  "tung": 435,
  "lim": 436,
  "taong": 437,
  "taon": 438,
  "kita": 439,
  "ngunit": 440,
  "panahon": 441,
  "qu": 442,
  "sak": 443,
  "nap": 444,
  "saan": 445,
  "dalawang": 446,
  "nal": 447,
  "lahat": 448,
  "isi": 449,
  "ano": 450,
  "uri": 451,
  "pun": 452,
  "and": 453,
  "ting": 454,
  "ad": 455,
  "imp": 456,
  "buo": 457,
  "st": 458,
  "kapa": 459,
  "silang": 460,
  "ii": 461,
  "unod": 462,
  "bata": 463,
  "katulad": 464,
  "pas": 465,
  "maraming": 466,
  "tala": 467,
  "yal": 468,
  "ero": 469,
  "of": 470,
  "bayan": 471,
  "ia": 472,
  "kla": 473,
  "br": 474,
  "kto": 475,
  "sari": 476,
  "bansang": 477,
  "bagong": 478,
  "pit": 479,
  "eu": 480,
  "anga": 481,
  "bing": 482,
  "sila": 483,
  "diyos": 484,
  "naman": 485,
  "hina": 486,
  "bli": 487,
  "dong": 488,
  "ginagamit": 489,
  "bil": 490,
  "gat": 491,
  "rian": 492,
  "ve": 493,
  "tumu": 494,
  "kris": 495,
  "ila": 496,
  "kabilang": 497,
  "katawan": 498,
  "babae": 499,
  "kasama": 500,
  "wat": 501,
  "karaniwang": 502,
  "iging": 503,
  "dat": 504,
  "hulu": 505,
  "tapos": 506,
  "siyang": 507,
  "ipina": 508,
  "gra": 509,
  "guma": 510,
  "panana": 511,
  "tri": 512,
  "dina": 513,
  "con": 514,
  "nana": 515,
  "hen": 516,
  "sek": 517,
  "araw": 518,
  "ham": 519,
  "kol": 520,
  "koy": 521,
  "der": 522,
  "panguna": 523,
  "habang": 524,
  "den": 525,
  "ista": 526,
  "bigay": 527,
  "ok": 528,
  "kop": 529,
  "ori": 530,
  "hila": 531,
  "dito": 532,
  "hes": 533,
  "im": 534,
  "ul": 535,
  "nagpapa": 536,
  "sig": 537,
  "pangunahing": 538,
  "gal": 539,
  "rat": 540,
  "kaka": 541,
  "aral": 542,
  "timo": 543,
  "gar": 544,
  "15": 545,
  "tat": 546,
  "ver": 547,
  "ino": 548,
  "kali": 549,
  "mama": 550,
  "alan": 551,
  "ek": 552,
  "kap": 553,
  "wikang": 554,
  "bago": 555,
  "buong": 556,
  "kiki": 557,
  "sen": 558,
  "malaking": 559,
  "omi": 560,
  "ilan": 561,
  "pagitan": 562,
  "ib": 563,
  "ding": 564,
  "ton": 565,
  "tiyan": 566,
  "yari": 567,
  "ung": 568,
  "puan": 569,
  "simba": 570,
  "lasyon": 571,
  "ale": 572,
  "hit": 573,
  "roong": 574,
  "mus": 575,
  "mayroong": 576,
  "mil": 577,
  "tiko": 578,
  "mis": 579,
  "mpa": 580,
  "pagsasa": 581,
  "euro": 582,
  "dang": 583,
  "ksiyon": 584,
  "batas": 585,
  "10": 586,
  "asa": 587,
  "rus": 588,
  "ge": 589,
  "lia": 590,
  "siste": 591,
  "log": 592,
  "timog": 593,
  "don": 594,
  "wen": 595,
  "ut": 596,
  "kapag": 597,
  "198": 598,
  "nayan": 599,
  "masa": 600,
  "hesus": 601,
  "kristiyan": 602,
  "amer": 603,
  "ju": 604,
  "ilo": 605,
  "daig": 606,
  "itina": 607,
  "gaya": 608,
  "199": 609,
  "pagkatapos": 610,
  "halimba": 611,
  "loy": 612,
  "yemb": 613,
  "ganap": 614,
  "lumi": 615,
  "tulad": 616,
  "baga": 617,
  "ja": 618,
  "parti": 619,
  "yen": 620,
  "lis": 621,
  "dan": 622,
  "dor": 623,
  "kanlu": 624,
  "va": 625,
  "ses": 626,
  "bagay": 627,
  "inutu": 628,
  "kar": 629,
  "tor": 630,
  "tagpuan": 631,
  "lohiya": 632,
  "tura": 633,
  "kaha": 634,
  "litang": 635,
  "tak": 636,
  "halimbawa": 637,
  "12": 638,
  "pali": 639,
  "tay": 640,
  "suwal": 641,
  "bina": 642,
  "indi": 643,
  "aw": 644,
  "ble": 645,
  "simula": 646,
  "16": 647,
  "cha": 648,
  "lalaki": 649,
  "ur": 650,
  "say": 651,
  "pamahala": 652,
  "pres": 653,
  "rawan": 654,
  "pad": 655,
  "hati": 656,
  "fi": 657,
  "ras": 658,
  "popu": 659,
  "we": 660,
  "roman": 661,
  "binu": 662,
  "rap": 663,
  "hong": 664,
  "hapon": 665,
  "manta": 666,
  "isina": 667,
  "organ": 668,
  "her": 669,
  "maging": 670,
  "kit": 671,
  "lalawi": 672,
  "salitang": 673,
  "hiyon": 674,
  "pis": 675,
  "kasalu": 676,
  "gap": 677,
  "17": 678,
  "pinang": 679,
  "pri": 680,
  "usa": 681,
  "ele": 682,
  "ed": 683,
  "aklat": 684,
  "matay": 685,
  "nas": 686,
  "sik": 687,
  "las": 688,
  "mai": 689,
  "punan": 690,
  "napa": 691,
  "digma": 692,
  "lalawigan": 693,
  "rd": 694,
  "lupa": 695,
  "laban": 696,
  "kasaluku": 697,
  "mundo": 698,
  "karami": 699,
  "mos": 700,
  "pre": 701,
  "ab": 702,
  "kin": 703,
  "pagsu": 704,
  "14": 705,
  "ulo": 706,
  "mong": 707,
  "pagiging": 708,
  "ati": 709,
  "ilalim": 710,
  "kato": 711,
  "ly": 712,
  "gda": 713,
  "unidos": 714,
  "estados": 715,
  "pagbaba": 716,
  "inter": 717,
  "lidad": 718,
  "pakiki": 719,
  "jo": 720,
  "lyo": 721,
  "yembre": 722,
  "aaral": 723,
  "ryo": 724,
  "labas": 725,
  "los": 726,
  "lot": 727,
  "gil": 728,
  "reli": 729,
  "higit": 730,
  "tila": 731,
  "pangkat": 732,
  "bin": 733,
  "hulugan": 734,
  "bawat": 735,
  "wak": 736,
  "kul": 737,
  "sing": 738,
  "liko": 739,
  "stan": 740,
  "197": 741,
  "gayun": 742,
  "suba": 743,
  "ysa": 744,
  "tangi": 745,
  "et": 746,
  "lig": 747,
  "karamihan": 748,
  "mot": 749,
  "maga": 750,
  "law": 751,
  "ugnay": 752,
  "kasaysa": 753,
  "cas": 754,
  "titi": 755,
  "kapang": 756,
  "nagpa": 757,
  "za": 758,
  "likha": 759,
  "mal": 760,
  "dating": 761,
  "iniwala": 762,
  "nu": 763,
  "halaga": 764,
  "pil": 765,
  "car": 766,
  "wid": 767,
  "tatlong": 768,
  "pangalan": 769,
  "mataas": 770,
  "bel": 771,
  "pran": 772,
  "subalit": 773,
  "000": 774,
  "daan": 775,
  "ekon": 776,
  "for": 777,
  "tumutu": 778,
  "13": 779,
  "bre": 780,
  "bol": 781,
  "iko": 782,
  "sinasa": 783,
  "magka": 784,
  "inig": 785,
  "publi": 786,
  "pagha": 787,
  "chi": 788,
  "maha": 789,
  "ck": 790,
  "rra": 791,
  "panga": 792,
  "estado": 793,
  "pagtu": 794,
  "pagtata": 795,
  "natu": 796,
  "nor": 797,
  "mati": 798,
  "gri": 799,
  "sulat": 800,
  "matatagpuan": 801,
  "hayag": 802,
  "mate": 803,
  "ilangan": 804,
  "ten": 805,
  "naglala": 806,
  "um": 807,
  "nati": 808,
  "ibarra": 809,
  "nai": 810,
  "pare": 811,
  "sarili": 812,
  "nata": 813,
  "bar": 814,
  "ekonomi": 815,
  "bun": 816,
  "maynila": 817,
  "gas": 818,
  "maria": 819,
  "sala": 820,
  "itu": 821,
  "imper": 822,
  "yay": 823,
  "wika": 824,
  "bagaman": 825,
  "pino": 826,
  "lugar": 827,
  "wanag": 828,
  "daigdig": 829,
  "ol": 830,
  "pamahalaan": 831,
  "seksuwal": 832,
  "populasyon": 833,
  "gamot": 834,
  "io": 835,
  "paglala": 836,
  "pagpa": 837,
  "can": 838,
  "del": 839,
  "tuloy": 840,
  "fe": 841,
  "mda": 842,
  "nagta": 843,
  "bibigay": 844,
  "was": 845,
  "ugnayan": 846,
  "dyo": 847,
  "sal": 848,
  "panya": 849,
  "nagsasa": 850,
  "ot": 851,
  "his": 852,
  "land": 853,
  "bahay": 854,
  "bot": 855,
  "kahulugan": 856,
  "tis": 857,
  "fa": 858,
  "tanggap": 859,
  "put": 860,
  "pes": 861,
  "tes": 862,
  "apat": 863,
  "pagli": 864,
  "11": 865,
  "blo": 866,
  "ikala": 867,
  "kasaysayan": 868,
  "siglo": 869,
  "maba": 870,
  "kahi": 871,
  "bal": 872,
  "polit": 873,
  "kular": 874,
  "mento": 875,
  "sinaunang": 876,
  "pen": 877,
  "kastila": 878,
  "produ": 879,
  "sakit": 880,
  "uma": 881,
  "gen": 882,
  "cos": 883,
  "ir": 884,
  "binubuo": 885,
  "pagla": 886,
  "kasyon": 887,
  "tar": 888,
  "tiya": 889,
  "dok": 890,
  "hene": 891,
  "europa": 892,
  "tos": 893,
  "griye": 894,
  "ameri": 895,
  "yag": 896,
  "ph": 897,
  "nanganga": 898,
  "paraan": 899,
  "zo": 900,
  "hilagang": 901,
  "kanluran": 902,
  "mayroon": 903,
  "id": 904,
  "val": 905,
  "katangi": 906,
  "pagkat": 907,
  "hari": 908,
  "anu": 909,
  "dagat": 910,
  "fer": 911,
  "tungkol": 912,
  "agham": 913,
  "taas": 914,
  "silangan": 915,
  "sok": 916,
  "paggamit": 917,
  "duma": 918,
  "pak": 919,
  "pera": 920,
  "mina": 921,
  "romano": 922,
  "luma": 923,
  "sapagkat": 924,
  "ital": 925,
  "ose": 926,
  "lipunan": 927,
  "umi": 928,
  "panahong": 929,
  "kano": 930,
  "rea": 931,
  "nagka": 932,
  "sia": 933,
  "tion": 934,
  "mes": 935,
  "rito": 936,
  "sep": 937,
  "194": 938,
  "che": 939,
  "naki": 940,
  "maaari": 941,
  "pagsa": 942,
  "sil": 943,
  "niyang": 944,
  "pangkala": 945,
  "bag": 946,
  "ama": 947,
  "parehong": 948,
  "son": 949,
  "kahit": 950,
  "bibli": 951,
  "tubig": 952,
  "sanhi": 953,
  "mpu": 954,
  "kadala": 955,
  "dro": 956,
  "simbahan": 957,
  "wer": 958,
  "aleman": 959,
  "kod": 960,
  "kabu": 961,
  "mahala": 962,
  "ity": 963,
  "hiwa": 964,
  "huling": 965,
  "193": 966,
  "opis": 967,
  "oso": 968,
  "ts": 969,
  "gali": 970,
  "kasalukuyang": 971,
  "gol": 972,
  "asya": 973,
  "pagkakaroon": 974,
  "bibilang": 975,
  "ry": 976,
  "itinutu": 977,
  "tasyon": 978,
  "sinu": 979,
  "ikal": 980,
  "dapat": 981,
  "ron": 982,
  "cu": 983,
  "kada": 984,
  "ilya": 985,
  "cal": 986,
  "kristiyano": 987,
  "cen": 988,
  "hayop": 989,
  "sun": 990,
  "sistemang": 991,
  "unlad": 992,
  "sama": 993,
  "ging": 994,
  "piko": 995,
  "anyo": 996,
  "ine": 997,
  "ze": 998,
  "25": 999,
  "ulat": 1000,
  "mapa": 1001,
  "kapu": 1002,
  "uhan": 1003,
  "lub": 1004,
  "teng": 1005,
  "yonal": 1006,
  "aralan": 1007,
  "eks": 1008,
  "pek": 1009,
  "bor": 1010,
  "kaharian": 1011,
  "tid": 1012,
  "republi": 1013,
  "cor": 1014,
  "tron": 1015,
  "em": 1016,
  "pablo": 1017,
  "deg": 1018,
  "sy": 1019,
  "ben": 1020,
  "juan": 1021,
  "kha": 1022,
  "opisyal": 1023,
  "kapangyari": 1024,
  "muling": 1025,
  "nina": 1026,
  "gana": 1027,
  "teori": 1028,
  "partikular": 1029,
  "tran": 1030,
  "tanging": 1031,
  "ipinang": 1032,
  "que": 1033,
  "maliit": 1034,
  "ikalawang": 1035,
  "px": 1036,
  "kuha": 1037,
  "kalu": 1038,
  "lip": 1039,
  "tol": 1040,
  "win": 1041,
  "isyon": 1042,
  "kapatid": 1043,
  "galing": 1044,
  "196": 1045,
  "isip": 1046,
  "silangang": 1047,
  "mulang": 1048,
  "yer": 1049,
  "wor": 1050,
  "yano": 1051,
  "tele": 1052,
  "batay": 1053,
  "des": 1054,
  "marami": 1055,
  "sunod": 1056,
  "gon": 1057,
  "ros": 1058,
  "mumu": 1059,
  "malapit": 1060,
  "hip": 1061,
  "gad": 1062,
  "pook": 1063,
  "mahi": 1064,
  "tumutukoy": 1065,
  "ation": 1066,
  "zon": 1067,
  "espanya": 1068,
  "kati": 1069,
  "ex": 1070,
  "bak": 1071,
  "kot": 1072,
  "ngayon": 1073,
  "way": 1074,
  "jose": 1075,
  "vo": 1076,
  "nagmula": 1077,
  "kasapi": 1078,
  "kil": 1079,
  "mber": 1080,
  "hulugang": 1081,
  "nagkaka": 1082,
  "bon": 1083,
  "kinabibilang": 1084,
  "lak": 1085,
  "mat": 1086,
  "isla": 1087,
  "itinuturing": 1088,
  "maki": 1089,
  "komp": 1090,
  "pangkalahat": 1091,
  "kinabibilangan": 1092,
  "hiwalay": 1093,
  "ibaba": 1094,
  "simbahang": 1095,
  "halos": 1096,
  "katoliko": 1097,
  "hiya": 1098,
  "gin": 1099,
  "nga": 1100,
  "bibliya": 1101,
  "anti": 1102,
  "tunay": 1103,
  "kultura": 1104,
  "bolu": 1105,
  "mor": 1106,
  "uan": 1107,
  "bra": 1108,
  "constan": 1109,
  "30": 1110,
  "tuma": 1111,
  "relihiyon": 1112,
  "sili": 1113,
  "pilipino": 1114,
  "liku": 1115,
  "kom": 1116,
  "pamanta": 1117,
  "sumus": 1118,
  "anumang": 1119,
  "bur": 1120,
  "tur": 1121,
  "sumusunod": 1122,
  "awit": 1123,
  "syong": 1124,
  "piya": 1125,
  "suma": 1126,
  "50": 1127,
  "sta": 1128,
  "hal": 1129,
  "pambansang": 1130,
  "siko": 1131,
  "wing": 1132,
  "tsina": 1133,
  "plan": 1134,
  "lalaking": 1135,
  "sali": 1136,
  "est": 1137,
  "salita": 1138,
  "isra": 1139,
  "tradis": 1140,
  "paman": 1141,
  "larang": 1142,
  "tawag": 1143,
  "sisi": 1144,
  "tungo": 1145,
  "naga": 1146,
  "sistema": 1147,
  "kri": 1148,
  "tino": 1149,
  "hanan": 1150,
  "ginamit": 1151,
  "22": 1152,
  "xi": 1153,
  "kanya": 1154,
  "yayari": 1155,
  "pero": 1156,
  "pangulo": 1157,
  "mad": 1158,
  "od": 1159,
  "griyego": 1160,
  "pagkain": 1161,
  "mbas": 1162,
  "ere": 1163,
  "inang": 1164,
  "rehiyon": 1165,
  "proses": 1166,
  "pol": 1167,
  "set": 1168,
  "asi": 1169,
  "ebang": 1170,
  "piloso": 1171,
  "siyong": 1172,
  "naw": 1173,
  "pulo": 1174,
  "italya": 1175,
  "kadalasang": 1176,
  "out": 1177,
  "nagkaroon": 1178,
  "mantalang": 1179,
  "ebanghe": 1180,
  "nau": 1181,
  "batang": 1182,
  "samantalang": 1183,
  "tel": 1184,
  "pati": 1185,
  "mpala": 1186,
  "my": 1187,
  "tipan": 1188,
  "tera": 1189,
  "katangian": 1190,
  "nitong": 1191,
  "kro": 1192,
  "panganga": 1193,
  "mayan": 1194,
  "width": 1195,
  "dulot": 1196,
  "tek": 1197,
  "dugo": 1198,
  "metro": 1199,
  "bumu": 1200,
  "ipinanganak": 1201,
  "24": 1202,
  "kapangyarihan": 1203,
  "tika": 1204,
  "padre": 1205,
  "dia": 1206,
  "him": 1207,
  "aus": 1208,
  "pinuno": 1209,
  "naha": 1210,
  "nong": 1211,
  "pagtatalik": 1212,
  "21": 1213,
  "cle": 1214,
  "nin": 1215,
  "isinu": 1216,
  "pagda": 1217,
  "huli": 1218,
  "kila": 1219,
  "hilaga": 1220,
  "nakaka": 1221,
  "gitnang": 1222,
  "kun": 1223,
  "era": 1224,
  "selu": 1225,
  "mili": 1226,
  "spe": 1227,
  "kamata": 1228,
  "sinabi": 1229,
  "tus": 1230,
  "gawain": 1231,
  "lisa": 1232,
  "alam": 1233,
  "ste": 1234,
  "kasan": 1235,
  "kasu": 1236,
  "wil": 1237,
  "pari": 1238,
  "huda": 1239,
  "politika": 1240,
  "pangalang": 1241,
  "iyon": 1242,
  "ulta": 1243,
  "pransiya": 1244,
  "hudyo": 1245,
  "ht": 1246,
  "ugali": 1247,
  "marcos": 1248,
  "mpan": 1249,
  "one": 1250,
  "ray": 1251,
  "au": 1252,
  "kamatayan": 1253,
  "ani": 1254,
  "apri": 1255,
  "pamilya": 1256,
  "bisyon": 1257,
  "kakaya": 1258,
  "tagapag": 1259,
  "muno": 1260,
  "limang": 1261,
  "fran": 1262,
  "sukat": 1263,
  "mada": 1264,
  "gayunpaman": 1265,
  "lag": 1266,
  "liwanag": 1267,
  "digmaang": 1268,
  "uniber": 1269,
  "anong": 1270,
  "kulay": 1271,
  "gre": 1272,
  "magpa": 1273,
  "asawa": 1274,
  "prin": 1275,
  "ktor": 1276,
  "tanda": 1277,
  "karaniwan": 1278,
  "lungan": 1279,
  "namatay": 1280,
  "mabu": 1281,
  "nar": 1282,
  "espes": 1283,
  "ler": 1284,
  "katumbas": 1285,
  "digmaan": 1286,
  "lohikal": 1287,
  "tibong": 1288,
  "pinan": 1289,
  "tibo": 1290,
  "wensiya": 1291,
  "mbo": 1292,
  "pata": 1293,
  "hinal": 1294,
  "tahan": 1295,
  "sum": 1296,
  "sidad": 1297,
  "hinggil": 1298,
  "pekto": 1299,
  "ac": 1300,
  "dalawa": 1301,
  "malaki": 1302,
  "ipinag": 1303,
  "ita": 1304,
  "kailangan": 1305,
  "teks": 1306,
  "ginawa": 1307,
  "peliku": 1308,
  "iral": 1309,
  "ibig": 1310,
  "edu": 1311,
  "paniti": 1312,
  "trans": 1313,
  "punong": 1314,
  "kasarian": 1315,
  "shi": 1316,
  "eli": 1317,
  "bilis": 1318,
  "ganitong": 1319,
  "walan": 1320,
  "europe": 1321,
  "tia": 1322,
  "aa": 1323,
  "biyo": 1324,
  "traba": 1325,
  "halip": 1326,
  "ebanghelyo": 1327,
  "rahan": 1328,
  "26": 1329,
  "27": 1330,
  "paaralan": 1331,
  "wit": 1332,
  "kapitan": 1333,
  "mayo": 1334,
  "tikong": 1335,
  "dy": 1336,
  "cho": 1337,
  "tinutu": 1338,
  "gene": 1339,
  "pagbabago": 1340,
  "sub": 1341,
  "day": 1342,
  "indibi": 1343,
  "sob": 1344,
  "minis": 1345,
  "republika": 1346,
  "hun": 1347,
  "dal": 1348,
  "pinakama": 1349,
  "kaugnayan": 1350,
  "new": 1351,
  "roma": 1352,
  "humi": 1353,
  "28": 1354,
  "kasun": 1355,
  "orihinal": 1356,
  "output": 1357,
  "sabi": 1358,
  "ekonomiya": 1359,
  "nagbibigay": 1360,
  "milyong": 1361,
  "pal": 1362,
  "kabi": 1363,
  "lok": 1364,
  "dama": 1365,
  "tana": 1366,
  "ate": 1367,
  "implu": 1368,
  "manlala": 1369,
  "antas": 1370,
  "bini": 1371,
  "amerika": 1372,
  "paghi": 1373,
  "ment": 1374,
  "23": 1375,
  "kontro": 1376,
  "raan": 1377,
  "ji": 1378,
  "gdag": 1379,
  "moder": 1380,
  "pub": 1381,
  "phi": 1382,
  "mir": 1383,
  "ato": 1384,
  "kaysa": 1385,
  "ilog": 1386,
  "mulan": 1387,
  "gru": 1388,
  "kaugnay": 1389,
  "rit": 1390,
  "mpay": 1391,
  "kuwen": 1392,
  "bul": 1393,
  "nagsimula": 1394,
  "matapos": 1395,
  "landa": 1396,
  "kanlurang": 1397,
  "ven": 1398,
  "katutu": 1399,
  "van": 1400,
  "lupain": 1401,
  "sining": 1402,
  "int": 1403,
  "sariling": 1404,
  "malawak": 1405,
  "has": 1406,
  "itinatag": 1407,
  "huk": 1408,
  "gumagamit": 1409,
  "larangan": 1410,
  "init": 1411,
  "ide": 1412,
  "pinakamalaking": 1413,
  "bce": 1414,
  "gawaing": 1415,
  "milita": 1416,
  "layun": 1417,
  "trabaho": 1418,
  "usap": 1419,
  "mahalagang": 1420,
  "ap": 1421,
  "musi": 1422,
  "gis": 1423,
  "puma": 1424,
  "har": 1425,
  "palabas": 1426,
  "dire": 1427,
  "kolar": 1428,
  "yak": 1429,
  "homos": 1430,
  "komun": 1431,
  "ibabaw": 1432,
  "ces": 1433,
  "onal": 1434,
  "ehip": 1435,
  "tok": 1436,
  "tori": 1437,
  "laysay": 1438,
  "lumang": 1439,
  "mw": 1440,
  "matu": 1441,
  "unti": 1442,
  "naglalaman": 1443,
  "pangkalahatang": 1444,
  "dalas": 1445,
  "baybay": 1446,
  "pangala": 1447,
  "hon": 1448,
  "hel": 1449,
  "net": 1450,
  "til": 1451,
  "dd": 1452,
  "mpalata": 1453,
  "teo": 1454,
  "com": 1455,
  "ren": 1456,
  "sel": 1457,
  "ger": 1458,
  "mple": 1459,
  "ty": 1460,
  "punta": 1461,
  "osto": 1462,
  "siyen": 1463,
  "latin": 1464,
  "rasyon": 1465,
  "hok": 1466,
  "nayang": 1467,
  "fri": 1468,
  "imperyo": 1469,
  "santa": 1470,
  "teoriya": 1471,
  "195": 1472,
  "mababa": 1473,
  "presyon": 1474,
  "ue": 1475,
  "cto": 1476,
  "pangang": 1477,
  "dib": 1478,
  "kanila": 1479,
  "cy": 1480,
  "terya": 1481,
  "ther": 1482,
  "militar": 1483,
  "konse": 1484,
  "britan": 1485,
  "kini": 1486,
  "banal": 1487,
  "buwan": 1488,
  "gos": 1489,
  "pamamara": 1490,
  "publik": 1491,
  "wes": 1492,
  "gumpay": 1493,
  "dahilan": 1494,
  "mateo": 1495,
  "resulta": 1496,
  "kur": 1497,
  "hiyong": 1498,
  "lohiyang": 1499,
  "larawan": 1500,
  "190": 1501,
  "daang": 1502,
  "kimi": 1503,
  "muslim": 1504,
  "perador": 1505,
  "tili": 1506,
  "hanap": 1507,
  "hn": 1508,
  "bia": 1509,
  "bos": 1510,
  "apo": 1511,
  "kaso": 1512,
  "lina": 1513,
  "ese": 1514,
  "29": 1515,
  "dwal": 1516,
  "inst": 1517,
  "pra": 1518,
  "kababa": 1519,
  "babaeng": 1520,
  "yente": 1521,
  "rapan": 1522,
  "ley": 1523,
  "parser": 1524,
  "vil": 1525,
  "tic": 1526,
  "kai": 1527,
  "vene": 1528,
  "waan": 1529,
  "madalas": 1530,
  "mino": 1531,
  "nilala": 1532,
  "bril": 1533,
  "kristiyanismo": 1534,
  "liksik": 1535,
  "barang": 1536,
  "pananaw": 1537,
  "ind": 1538,
  "kulo": 1539,
  "mpo": 1540,
  "sya": 1541,
  "temp": 1542,
  "nais": 1543,
  "tandang": 1544,
  "banggit": 1545,
  "189": 1546,
  "emperador": 1547,
  "monte": 1548,
  "kaba": 1549,
  "basili": 1550,
  "matemati": 1551,
  "col": 1552,
  "elek": 1553,
  "bri": 1554,
  "manun": 1555,
  "anim": 1556,
  "pranses": 1557,
  "ip": 1558,
  "dra": 1559,
  "kasalukuyan": 1560,
  "ali": 1561,
  "taw": 1562,
  "ebolu": 1563,
  "sumasa": 1564,
  "serye": 1565,
  "nangangahulugang": 1566,
  "organismo": 1567,
  "mig": 1568,
  "gro": 1569,
  "iii": 1570,
  "puno": 1571,
  "dar": 1572,
  "likas": 1573,
  "magkaka": 1574,
  "anan": 1575,
  "marso": 1576,
  "itus": 1577,
  "telebisyon": 1578,
  "cana": 1579,
  "diya": 1580,
  "hini": 1581,
  "enero": 1582,
  "edad": 1583,
  "yet": 1584,
  "mababang": 1585,
  "tral": 1586,
  "anib": 1587,
  "dak": 1588,
  "manlalaro": 1589,
  "gor": 1590,
  "isinulat": 1591,
  "karagda": 1592,
  "impor": 1593,
  "abril": 1594,
  "laba": 1595,
  "pel": 1596,
  "bro": 1597,
  "tagalog": 1598,
  "hy": 1599,
  "base": 1600,
  "play": 1601,
  "akda": 1602,
  "gayan": 1603,
  "sino": 1604,
  "magu": 1605,
  "by": 1606,
  "tungku": 1607,
  "proseso": 1608,
  "wis": 1609,
  "kaniya": 1610,
  "fo": 1611,
  "nabu": 1612,
  "disyembre": 1613,
  "magmula": 1614,
  "isinasa": 1615,
  "amerikano": 1616,
  "pagkakata": 1617,
  "eo": 1618,
  "bukod": 1619,
  "gulang": 1620,
  "walidad": 1621,
  "alemanya": 1622,
  "gitna": 1623,
  "karapa": 1624,
  "supor": 1625,
  "distr": 1626,
  "kapwa": 1627,
  "aprika": 1628,
  "gayundin": 1629,
  "modernong": 1630,
  "barangay": 1631,
  "pinaniniwala": 1632,
  "cia": 1633,
  "chu": 1634,
  "ener": 1635,
  "pagsusu": 1636,
  "paggawa": 1637,
  "katao": 1638,
  "zzo": 1639,
  "ngkahi": 1640,
  "mben": 1641,
  "linya": 1642,
  "bato": 1643,
  "dumating": 1644,
  "nahahati": 1645,
  "kalusu": 1646,
  "hunyo": 1647,
  "oras": 1648,
  "indibidwal": 1649,
  "ilangang": 1650,
  "wasan": 1651,
  "impluwensiya": 1652,
  "damda": 1653,
  "bati": 1654,
  "imperyong": 1655,
  "ibini": 1656,
  "kh": 1657,
  "israel": 1658,
  "nagsa": 1659,
  "ulit": 1660,
  "kasang": 1661,
  "pagbu": 1662,
  "hangga": 1663,
  "kabis": 1664,
  "tsa": 1665,
  "kilalang": 1666,
  "sibil": 1667,
  "bit": 1668,
  "pakikipag": 1669,
  "alis": 1670,
  "hunan": 1671,
  "tiago": 1672,
  "lalo": 1673,
  "harap": 1674,
  "selula": 1675,
  "aang": 1676,
  "ensiya": 1677,
  "bok": 1678,
  "lili": 1679,
  "diri": 1680,
  "kre": 1681,
  "homosek": 1682,
  "pamba": 1683,
  "umiiral": 1684,
  "depen": 1685,
  "heneral": 1686,
  "ikong": 1687,
  "masyon": 1688,
  "kaa": 1689,
  "tubre": 1690,
  "ipa": 1691,
  "oktubre": 1692,
  "apos": 1693,
  "pananampalata": 1694,
  "minsan": 1695,
  "sumunod": 1696,
  "bigan": 1697,
  "daigdi": 1698,
  "galaw": 1699,
  "pagkakaiba": 1700,
  "40": 1701,
  "hulyo": 1702,
  "dya": 1703,
  "umaa": 1704,
  "agosto": 1705,
  "europeo": 1706,
  "nanini": 1707,
  "ebi": 1708,
  "dio": 1709,
  "bog": 1710,
  "bula": 1711,
  "zal": 1712,
  "john": 1713,
  "tumukoy": 1714,
  "turo": 1715,
  "malakas": 1716,
  "mok": 1717,
  "terito": 1718,
  "indus": 1719,
  "isipan": 1720,
  "pampolitika": 1721,
  "ukol": 1722,
  "art": 1723,
  "kor": 1724,
  "pansin": 1725,
  "pinapa": 1726,
  "setyembre": 1727,
  "rusa": 1728,
  "cla": 1729,
  "ismong": 1730,
  "kasal": 1731,
  "mari": 1732,
  "balat": 1733,
  "human": 1734,
  "nob": 1735,
  "og": 1736,
  "pla": 1737,
  "litaw": 1738,
  "ld": 1739,
  "pagbibigay": 1740,
  "sha": 1741,
  "ehipto": 1742,
  "kamay": 1743,
  "nagiging": 1744,
  "brero": 1745,
  "tinawag": 1746,
  "organisa": 1747,
  "umu": 1748,
  "ft": 1749,
  "tre": 1750,
  "fu": 1751,
  "bala": 1752,
  "pong": 1753,
  "pebrero": 1754,
  "mbag": 1755,
  "tawan": 1756,
  "tulong": 1757,
  "korea": 1758,
  "tinang": 1759,
  "dali": 1760,
  "kum": 1761,
  "ligi": 1762,
  "lakas": 1763,
  "bes": 1764,
  "manana": 1765,
  "pandaigdi": 1766,
  "sul": 1767,
  "layunin": 1768,
  "santo": 1769,
  "lem": 1770,
  "obis": 1771,
  "ms": 1772,
  "je": 1773,
  "kapulu": 1774,
  "kilos": 1775,
  "national": 1776,
  "katawa": 1777,
  "sinasabing": 1778,
  "kinu": 1779,
  "heo": 1780,
  "progra": 1781,
  "kasundu": 1782,
  "ayos": 1783,
  "turang": 1784,
  "pandaigdig": 1785,
  "fre": 1786,
  "nobyembre": 1787,
  "binig": 1788,
  "parang": 1789,
  "liit": 1790,
  "yug": 1791,
  "labis": 1792,
  "laman": 1793,
  "rong": 1794,
  "patuloy": 1795,
  "galang": 1796,
  "alang": 1797,
  "paglu": 1798,
  "proble": 1799,
  "muli": 1800,
  "gumawa": 1801,
  "panlipunan": 1802,
  "tad": 1803,
  "mangga": 1804,
  "war": 1805,
  "rol": 1806,
  "ikat": 1807,
  "kababai": 1808,
  "cer": 1809,
  "fili": 1810,
  "pelikula": 1811,
  "ic": 1812,
  "pamu": 1813,
  "rizal": 1814,
  "mode": 1815,
  "karamda": 1816,
  "gamitin": 1817,
  "orto": 1818,
  "mbing": 1819,
  "tug": 1820,
  "klase": 1821,
  "unan": 1822,
  "sip": 1823,
  "speci": 1824,
  "dna": 1825,
  "constantin": 1826,
  "hinang": 1827,
  "suwalidad": 1828,
  "haring": 1829,
  "dekada": 1830,
  "epi": 1831,
  "mentong": 1832,
  "nagkakaisang": 1833,
  "breo": 1834,
  "bio": 1835,
  "sho": 1836,
  "disyon": 1837,
  "rmir": 1838,
  "yaan": 1839,
  "kole": 1840,
  "lumitaw": 1841,
  "bumubuo": 1842,
  "wo": 1843,
  "enyo": 1844,
  "sur": 1845,
  "kalusugan": 1846,
  "pedro": 1847,
  "kulang": 1848,
  "hangin": 1849,
  "lumala": 1850,
  "triya": 1851,
  "mune": 1852,
  "pagba": 1853,
  "medi": 1854,
  "nagha": 1855,
  "philip": 1856,
  "mamamayan": 1857,
  "lagay": 1858,
  "yuna": 1859,
  "lon": 1860,
  "lungat": 1861,
  "homo": 1862,
  "eral": 1863,
  "mapag": 1864,
  "elias": 1865,
  "lucas": 1866,
  "mahigit": 1867,
  "dakilang": 1868,
  "makabagong": 1869,
  "posi": 1870,
  "sag": 1871,
  "grupo": 1872,
  "mito": 1873,
  "posisyon": 1874,
  "inilala": 1875,
  "libing": 1876,
  "tungkulin": 1877,
  "tuwing": 1878,
  "ligtas": 1879,
  "magkaroon": 1880,
  "wel": 1881,
  "tren": 1882,
  "paniniwala": 1883,
  "sangay": 1884,
  "unting": 1885,
  "unibersidad": 1886,
  "nes": 1887,
  "kawalan": 1888,
  "tha": 1889,
  "yaw": 1890,
  "lokal": 1891,
  "tinatayang": 1892,
  "univer": 1893,
  "kbay": 1894,
  "nilang": 1895,
  "pisikal": 1896,
  "nakara": 1897,
  "100": 1898,
  "usalem": 1899,
  "tahanan": 1900,
  "tru": 1901,
  "pangyayari": 1902,
  "teksto": 1903,
  "khang": 1904,
  "tumata": 1905,
  "konseho": 1906,
  "onya": 1907,
  "kabisera": 1908,
  "zi": 1909,
  "panganib": 1910,
  "papel": 1911,
  "gus": 1912,
  "diwa": 1913,
  "tog": 1914,
  "guni": 1915,
  "ida": 1916,
  "yor": 1917,
  "syo": 1918,
  "tanyag": 1919,
  "donya": 1920,
  "ril": 1921,
  "lubha": 1922,
  "islam": 1923,
  "maaring": 1924,
  "tayo": 1925,
  "let": 1926,
  "hangganan": 1927,
  "sian": 1928,
  "ebiden": 1929,
  "kalan": 1930,
  "kanon": 1931,
  "hugis": 1932,
  "kis": 1933,
  "talaan": 1934,
  "pagkaraan": 1935,
  "tini": 1936,
  "bundok": 1937,
  "hei": 1938,
  "arti": 1939,
  "pul": 1940,
  "uang": 1941,
  "comune": 1942,
  "nara": 1943,
  "neu": 1944,
  "bus": 1945,
  "halaman": 1946,
  "yuan": 1947,
  "kasala": 1948,
  "dantaon": 1949,
  "salaysay": 1950,
  "aqu": 1951,
  "berg": 1952,
  "kad": 1953,
  "espesye": 1954,
  "nagbaba": 1955,
  "tomas": 1956,
  "natural": 1957,
  "noon": 1958,
  "ima": 1959,
  "magulang": 1960,
  "gabi": 1961,
  "labanan": 1962,
  "rusya": 1963,
  "saku": 1964,
  "kuwento": 1965,
  "paano": 1966,
  "pagtalik": 1967,
  "bigyan": 1968,
  "tig": 1969,
  "cio": 1970,
  "rm": 1971,
  "ple": 1972,
  "ping": 1973,
  "pangalawang": 1974,
  "ente": 1975,
  "kuma": 1976,
  "leon": 1977,
  "kitang": 1978,
  "kontrol": 1979,
  "kapi": 1980,
  "logo": 1981,
  "pamumu": 1982,
  "yat": 1983,
  "33": 1984,
  "obispo": 1985,
  "malay": 1986,
  "kilo": 1987,
  "dom": 1988,
  "bukas": 1989,
  "sipi": 1990,
  "kahirapan": 1991,
  "bigkas": 1992,
  "60": 1993,
  "manunulat": 1994,
  "mpung": 1995,
  "sos": 1996,
  "ct": 1997,
  "boy": 1998,
  "yod": 1999,
  "nia": 2000,
  "80": 2001,
  "britanya": 2002,
  "kapana": 2003,
  "munuan": 2004,
  "sumu": 2005,
  "tamang": 2006,
  "manga": 2007,
  "kanong": 2008,
  "riang": 2009,
  "up": 2010,
  "naniniwala": 2011,
  "hapones": 2012,
  "gres": 2013,
  "edukasyon": 2014,
  "atu": 2015,
  "nagpapakita": 2016,
  "ugnayang": 2017,
  "handa": 2018,
  "rey": 2019,
  "konsep": 2020,
  "natili": 2021,
  "kasunod": 2022,
  "char": 2023,
  "ligiran": 2024,
  "simulang": 2025,
  "bir": 2026,
  "uli": 2027,
  "kti": 2028,
  "tiyak": 2029,
  "pini": 2030,
  "2000": 2031,
  "herusalem": 2032,
  "maliliit": 2033,
  "had": 2034,
  "latera": 2035,
  "mabilis": 2036,
  "malu": 2037,
  "gayon": 2038,
  "budd": 2039,
  "nakita": 2040,
  "eng": 2041,
  "kailangang": 2042,
  "cis": 2043,
  "mbak": 2044,
  "siyenti": 2045,
  "epekto": 2046,
  "katutubong": 2047,
  "ebolusyon": 2048,
  "perso": 2049,
  "kapan": 2050,
  "ako": 2051,
  "kalikasan": 2052,
  "wn": 2053,
  "produkto": 2054,
  "maagang": 2055,
  "sk": 2056,
  "teritoryo": 2057,
  "balik": 2058,
  "pandaigdigang": 2059,
  "soci": 2060,
  "am": 2061,
  "halagang": 2062,
  "song": 2063,
  "esti": 2064,
  "alaman": 2065,
  "hintu": 2066,
  "pir": 2067,
  "unyong": 2068,
  "dol": 2069,
  "yunal": 2070,
  "hiwat": 2071,
  "haha": 2072,
  "karaga": 2073,
  "toto": 2074,
  "enerhiya": 2075,
  "mole": 2076,
  "itim": 2077,
  "dami": 2078,
  "pamamaraan": 2079,
  "lalake": 2080,
  "damaso": 2081,
  "maling": 2082,
  "pananampalataya": 2083,
  "hus": 2084,
  "pilosopiya": 2085,
  "bla": 2086,
  "pagtatang": 2087,
  "panu": 2088,
  "nangyari": 2089,
  "ted": 2090,
  "nakatu": 2091,
  "negos": 2092,
  "wakan": 2093,
  "makikita": 2094,
  "pagpu": 2095,
  "alagad": 2096,
  "haba": 2097,
  "tho": 2098,
  "kabuuang": 2099,
  "hiwatig": 2100,
  "ating": 2101,
  "ite": 2102,
  "ary": 2103,
  "got": 2104,
  "nakasa": 2105,
  "tum": 2106,
  "sakop": 2107,
  "wiran": 2108,
  "kore": 2109,
  "lika": 2110,
  "sion": 2111,
  "2010": 2112,
  "nagbigay": 2113,
  "ner": 2114,
  "nakiki": 2115,
  "damdamin": 2116,
  "misyon": 2117,
  "pine": 2118,
  "tember": 2119,
  "mana": 2120,
  "ian": 2121,
  "kalagayan": 2122,
  "lipat": 2123,
  "paksa": 2124,
  "mono": 2125,
  "sau": 2126,
  "hukbong": 2127,
  "work": 2128,
  "bilidad": 2129,
  "distrito": 2130,
  "dinas": 2131,
  "husay": 2132,
  "buddha": 2133,
  "panitikan": 2134,
  "ast": 2135,
  "hanay": 2136,
  "napapa": 2137,
  "titik": 2138,
  "kau": 2139,
  "literal": 2140,
  "maliban": 2141,
  "diriwang": 2142,
  "mani": 2143,
  "laro": 2144,
  "panini": 2145,
  "bili": 2146,
  "dagdag": 2147,
  "kalaunang": 2148,
  "pitong": 2149,
  "ction": 2150,
  "bakterya": 2151,
  "sad": 2152,
  "data": 2153,
  "ikatlong": 2154,
  "siwa": 2155,
  "kapanahunan": 2156,
  "kababaihan": 2157,
  "wig": 2158,
  "bahaging": 2159,
  "lum": 2160,
  "ginagawa": 2161,
  "litan": 2162,
  "september": 2163,
  "matematika": 2164,
  "ff": 2165,
  "mater": 2166,
  "rating": 2167,
  "ls": 2168,
  "guyod": 2169,
  "uk": 2170,
  "leo": 2171,
  "malala": 2172,
  "tinu": 2173,
  "salin": 2174,
  "linggo": 2175,
  "ny": 2176,
  "patungo": 2177,
  "70": 2178,
  "cala": 2179,
  "cus": 2180,
  "namu": 2181,
  "serbis": 2182,
  "nagmu": 2183,
  "pho": 2184,
  "puso": 2185,
  "ugat": 2186,
  "halal": 2187,
  "sini": 2188,
  "ds": 2189,
  "posible": 2190,
  "mita": 2191,
  "deng": 2192,
  "sus": 2193,
  "world": 2194,
  "naunang": 2195,
  "gid": 2196,
  "pinagmulan": 2197,
  "apostol": 2198,
  "buma": 2199,
  "ibinigay": 2200,
  "katimu": 2201,
  "sapat": 2202,
  "katagang": 2203,
  "kakayahang": 2204,
  "kura": 2205,
  "plo": 2206,
  "siden": 2207,
  "hirap": 2208,
  "nakikilala": 2209,
  "iisang": 2210,
  "magiging": 2211,
  "lun": 2212,
  "ordina": 2213,
  "mak": 2214,
  "univers": 2215,
  "natatanging": 2216,
  "gma": 2217,
  "2008": 2218,
  "budis": 2219,
  "cre": 2220,
  "aug": 2221,
  "kabata": 2222,
  "maya": 2223,
  "cro": 2224,
  "katoto": 2225,
  "lingkod": 2226,
  "cris": 2227,
  "35": 2228,
  "nilalang": 2229,
  "km": 2230,
  "liran": 2231,
  "tun": 2232,
  "2007": 2233,
  "hod": 2234,
  "ket": 2235,
  "gh": 2236,
  "ktong": 2237,
  "itis": 2238,
  "latan": 2239,
  "demok": 2240,
  "esis": 2241,
  "oban": 2242,
  "bunga": 2243,
  "problema": 2244,
  "lus": 2245,
  "line": 2246,
  "pamahalaang": 2247,
  "alaga": 2248,
  "die": 2249,
  "ipinapa": 2250,
  "berna": 2251,
  "kalakhang": 2252,
  "vel": 2253,
  "ktura": 2254,
  "heno": 2255,
  "irlanda": 2256,
  "hol": 2257,
  "putbol": 2258,
  "napag": 2259,
  "tero": 2260,
  "dri": 2261,
  "karang": 2262,
  "gawin": 2263,
  "papunta": 2264,
  "griyegong": 2265,
  "tian": 2266,
  "glo": 2267,
  "manu": 2268,
  "pamumuno": 2269,
  "hor": 2270,
  "peri": 2271,
  "hika": 2272,
  "makapag": 2273,
  "maik": 2274,
  "kailan": 2275,
  "ander": 2276,
  "pangkaraniwang": 2277,
  "nao": 2278,
  "gala": 2279,
  "augus": 2280,
  "karamdaman": 2281,
  "dahan": 2282,
  "india": 2283,
  "musika": 2284,
  "species": 2285,
  "kalayaan": 2286,
  "tasan": 2287,
  "pagdating": 2288,
  "kasalanan": 2289,
  "ngo": 2290,
  "tiling": 2291,
  "liham": 2292,
  "lid": 2293,
  "med": 2294,
  "skolar": 2295,
  "kos": 2296,
  "mahalaga": 2297,
  "bidad": 2298,
  "guro": 2299,
  "var": 2300,
  "republik": 2301,
  "pasi": 2302,
  "kula": 2303,
  "milyon": 2304,
  "pot": 2305,
  "iv": 2306,
  "rino": 2307,
  "flo": 2308,
  "buto": 2309,
  "yoso": 2310,
  "dalubha": 2311,
  "mental": 2312,
  "teoriyang": 2313,
  "hudaismo": 2314,
  "2009": 2315,
  "kutan": 2316,
  "31": 2317,
  "wakang": 2318,
  "emi": 2319,
  "tasyong": 2320,
  "alin": 2321,
  "nakapag": 2322,
  "nog": 2323,
  "kundi": 2324,
  "pangu": 2325,
  "paa": 2326,
  "mbang": 2327,
  "pamili": 2328,
  "paris": 2329,
  "stra": 2330,
  "ortodok": 2331,
  "wiki": 2332,
  "bum": 2333,
  "nasan": 2334,
  "cel": 2335,
  "mbento": 2336,
  "tangga": 2337,
  "panlabas": 2338,
  "partido": 2339,
  "pakikipagtalik": 2340,
  "pinaniniwalaang": 2341,
  "ken": 2342,
  "sio": 2343,
  "bitu": 2344,
  "university": 2345,
  "paliwanag": 2346,
  "lipas": 2347,
  "heidel": 2348,
  "ea": 2349,
  "kaalaman": 2350,
  "mul": 2351,
  "republikang": 2352,
  "sentro": 2353,
  "naganap": 2354,
  "itusyon": 2355,
  "sty": 2356,
  "sar": 2357,
  "tumang": 2358,
  "gio": 2359,
  "90": 2360,
  "sasak": 2361,
  "sir": 2362,
  "pormal": 2363,
  "katulong": 2364,
  "hammad": 2365,
  "espan": 2366,
  "hid": 2367,
  "lima": 2368,
  "ungan": 2369,
  "ligu": 2370,
  "saklaw": 2371,
  "unong": 2372,
  "prope": 2373,
  "wersa": 2374,
  "kagu": 2375,
  "tinutukoy": 2376,
  "yuter": 2377,
  "sele": 2378,
  "ud": 2379,
  "gaw": 2380,
  "itaas": 2381,
  "bigat": 2382,
  "kakayahan": 2383,
  "sena": 2384,
  "45": 2385,
  "ninuno": 2386,
  "namang": 2387,
  "magna": 2388,
  "usang": 2389,
  "katangiang": 2390,
  "paki": 2391,
  "ward": 2392,
  "yar": 2393,
  "sisimula": 2394,
  "bisa": 2395,
  "isda": 2396,
  "naa": 2397,
  "eta": 2398,
  "phy": 2399,
  "quezon": 2400,
  "suliran": 2401,
  "zu": 2402,
  "pagpapala": 2403,
  "iya": 2404,
  "gresya": 2405,
  "impe": 2406,
  "simbo": 2407,
  "rato": 2408,
  "kasunduan": 2409,
  "sobyet": 2410,
  "panloob": 2411,
  "muhammad": 2412,
  "saring": 2413,
  "lio": 2414,
  "gawi": 2415,
  "kapare": 2416,
  "misa": 2417,
  "natagpuan": 2418,
  "madaling": 2419,
  "kalang": 2420,
  "sid": 2421,
  "pangangailangan": 2422,
  "suporta": 2423,
  "inte": 2424,
  "ruan": 2425,
  "38": 2426,
  "malalaking": 2427,
  "sor": 2428,
  "ryong": 2429,
  "itang": 2430,
  "biya": 2431,
  "malayang": 2432,
  "aya": 2433,
  "kompyuter": 2434,
  "wakas": 2435,
  "kus": 2436,
  "ministro": 2437,
  "lusyon": 2438,
  "baka": 2439,
  "ganak": 2440,
  "pahayag": 2441,
  "sanggol": 2442,
  "mukha": 2443,
  "castel": 2444,
  "ipinaganak": 2445,
  "impormasyon": 2446,
  "arke": 2447,
  "pulong": 2448,
  "nabubuhay": 2449,
  "coun": 2450,
  "pamantasan": 2451,
  "napaka": 2452,
  "huma": 2453,
  "heidelberg": 2454,
  "katimugang": 2455,
  "network": 2456,
  "lambak": 2457,
  "pagkakataon": 2458,
  "super": 2459,
  "diin": 2460,
  "tauhan": 2461,
  "baku": 2462,
  "lathala": 2463,
  "humantong": 2464,
  "relihi": 2465,
  "display": 2466,
  "klasan": 2467,
  "tanong": 2468,
  "damit": 2469,
  "artista": 2470,
  "kinatawan": 2471,
  "dulo": 2472,
  "bibig": 2473,
  "dog": 2474,
  "saligang": 2475,
  "bert": 2476,
  "sabihin": 2477,
  "kuku": 2478,
  "aben": 2479,
  "estasyon": 2480,
  "seryeng": 2481,
  "gawang": 2482,
  "pangga": 2483,
  "akit": 2484,
  "kapuluan": 2485,
  "patay": 2486,
  "kapaligiran": 2487,
  "normal": 2488,
  "elemento": 2489,
  "esko": 2490,
  "minsang": 2491,
  "bru": 2492,
  "mantala": 2493,
  "lasyong": 2494,
  "tupad": 2495,
  "bk": 2496,
  "klas": 2497,
  "paligid": 2498,
  "zan": 2499,
  "wirang": 2500,
  "obser": 2501,
  "usan": 2502,
  "undan": 2503,
  "cri": 2504,
  "kip": 2505,
  "ator": 2506,
  "eratu": 2507,
  "yum": 2508,
  "kristo": 2509,
  "nilikha": 2510,
  "pinakamataas": 2511,
  "diper": 2512,
  "kesa": 2513,
  "senso": 2514,
  "publiko": 2515,
  "disip": 2516,
  "sangguni": 2517,
  "god": 2518,
  "lumikha": 2519,
  "klak": 2520,
  "malawakang": 2521,
  "santiago": 2522,
  "uu": 2523,
  "himag": 2524,
  "hula": 2525,
  "tai": 2526,
  "2005": 2527,
  "pamaya": 2528,
  "nos": 2529,
  "nalala": 2530,
  "nib": 2531,
  "narara": 2532,
  "industriya": 2533,
  "39": 2534,
  "ctor": 2535,
  "hos": 2536,
  "ganti": 2537,
  "ef": 2538,
  "mahirap": 2539,
  "sisil": 2540,
  "talu": 2541,
  "utak": 2542,
  "chris": 2543,
  "materyal": 2544,
  "unawa": 2545,
  "kaibigan": 2546,
  "paglikha": 2547,
  "yol": 2548,
  "sunda": 2549,
  "nagdu": 2550,
  "zio": 2551,
  "itinu": 2552,
  "siyentipiko": 2553,
  "matin": 2554,
  "konst": 2555,
  "bahag": 2556,
  "ei": 2557,
  "sisa": 2558,
  "hiv": 2559,
  "siyal": 2560,
  "ata": 2561,
  "lumilitaw": 2562,
  "fos": 2563,
  "dibdib": 2564,
  "cca": 2565,
  "nakilala": 2566,
  "ikina": 2567,
  "paran": 2568,
  "gumagawa": 2569,
  "arkeo": 2570,
  "sintomas": 2571,
  "valen": 2572,
  "inam": 2573,
  "patakaran": 2574,
  "iso": 2575,
  "indon": 2576,
  "emonte": 2577,
  "1990": 2578,
  "positi": 2579,
  "octo": 2580,
  "kalinang": 2581,
  "miya": 2582,
  "luhan": 2583,
  "gusali": 2584,
  "huku": 2585,
  "makapang": 2586,
  "anyong": 2587,
  "pamamahala": 2588,
  "nanatiling": 2589,
  "paglalakbay": 2590,
  "asal": 2591,
  "kabuuan": 2592,
  "nat": 2593,
  "tsino": 2594,
  "katan": 2595,
  "kandi": 2596,
  "style": 2597,
  "tatak": 2598,
  "bene": 2599,
  "2011": 2600,
  "tikal": 2601,
  "len": 2602,
  "tekno": 2603,
  "libingan": 2604,
  "pikal": 2605,
  "sit": 2606,
  "binata": 2607,
  "rio": 2608,
  "36": 2609,
  "tunog": 2610,
  "repor": 2611,
  "impeksiyon": 2612,
  "inhin": 2613,
  "october": 2614,
  "suso": 2615,
  "mamatay": 2616,
  "produksiyon": 2617,
  "kuwa": 2618,
  "pani": 2619,
  "espanyol": 2620,
  "gumamit": 2621,
  "venez": 2622,
  "halamang": 2623,
  "negosyo": 2624,
  "hana": 2625,
  "aquino": 2626,
  "pumapa": 2627,
  "anato": 2628,
  "hinu": 2629,
  "hudas": 2630,
  "seks": 2631,
  "odo": 2632,
  "bya": 2633,
  "heng": 2634,
  "bayad": 2635,
  "halalan": 2636,
  "pagmama": 2637,
  "pantay": 2638,
  "pula": 2639,
  "nakata": 2640,
  "agu": 2641,
  "kautu": 2642,
  "nangyayari": 2643,
  "micha": 2644,
  "kumulang": 2645,
  "pay": 2646,
  "tiyang": 2647,
  "alex": 2648,
  "mabuting": 2649,
  "iisip": 2650,
  "likod": 2651,
  "austra": 2652,
  "isinasagawa": 2653,
  "bac": 2654,
  "yapa": 2655,
  "nagtatag": 2656,
  "natiti": 2657,
  "karagdagan": 2658,
  "lansang": 2659,
  "tuhan": 2660,
  "trong": 2661,
  "homoseksuwal": 2662,
  "michael": 2663,
  "scho": 2664,
  "tira": 2665,
  "eg": 2666,
  "hebreo": 2667,
  "direk": 2668,
  "payak": 2669,
  "sikat": 2670,
  "talaga": 2671,
  "rebolu": 2672,
  "bagsak": 2673,
  "bulu": 2674,
  "apu": 2675,
  "2006": 2676,
  "yugto": 2677,
  "kasing": 2678,
  "pangung": 2679,
  "hinga": 2680,
  "luzon": 2681,
  "hero": 2682,
  "bahayan": 2683,
  "usapan": 2684,
  "grapiya": 2685,
  "kalaunan": 2686,
  "miko": 2687,
  "tula": 2688,
  "amerikanong": 2689,
  "pagpi": 2690,
  "non": 2691,
  "pampa": 2692,
  "daantaon": 2693,
  "pumasok": 2694,
  "naninirahan": 2695,
  "37": 2696,
  "reso": 2697,
  "pangino": 2698,
  "pisika": 2699,
  "kilometro": 2700,
  "are": 2701,
  "abenida": 2702,
  "lapi": 2703,
  "siyam": 2704,
  "elektron": 2705,
  "francis": 2706,
  "mahal": 2707,
  "ebidensiya": 2708,
  "modelo": 2709,
  "cali": 2710,
  "kiya": 2711,
  "cilia": 2712,
  "katayuan": 2713,
  "bundu": 2714,
  "tradisyon": 2715,
  "constantine": 2716,
  "rate": 2717,
  "yagan": 2718,
  "kabataan": 2719,
  "basa": 2720,
  "opera": 2721,
  "marka": 2722,
  "chan": 2723,
  "hoy": 2724,
  "pinamu": 2725,
  "red": 2726,
  "ipin": 2727,
  "rela": 2728,
  "34": 2729,
  "karapatang": 2730,
  "iminu": 2731,
  "tribu": 2732,
  "katotohanan": 2733,
  "palo": 2734,
  "piyang": 2735,
  "colle": 2736,
  "sou": 2737,
  "kabahayan": 2738,
  "manila": 2739,
  "dati": 2740,
  "bug": 2741,
  "cat": 2742,
  "cata": 2743,
  "estadong": 2744,
  "lahi": 2745,
  "karagdagang": 2746,
  "pamayanan": 2747,
  "pangka": 2748,
  "lomba": 2749,
  "malamang": 2750,
  "kinikilala": 2751,
  "1981": 2752,
  "wasyon": 2753,
  "karapatan": 2754,
  "kapulungan": 2755,
  "rdy": 2756,
  "alto": 2757,
  "basyon": 2758,
  "mehi": 2759,
  "organisasyon": 2760,
  "mahabang": 2761,
  "pagsusuri": 2762,
  "nobe": 2763,
  "idad": 2764,
  "yas": 2765,
  "plu": 2766,
  "pig": 2767,
  "sinasabi": 2768,
  "jac": 2769,
  "mik": 2770,
  "pamumuhay": 2771,
  "panatili": 2772,
  "ves": 2773,
  "ople": 2774,
  "vin": 2775,
  "punda": 2776,
  "istan": 2777,
  "westo": 2778,
  "ideya": 2779,
  "puti": 2780,
  "city": 2781,
  "garya": 2782,
  "sira": 2783,
  "miyemb": 2784,
  "nagaganap": 2785,
  "samantala": 2786,
  "und": 2787,
  "baybayin": 2788,
  "itlog": 2789,
  "kahulugang": 2790,
  "pagtaas": 2791,
  "kabay": 2792,
  "mikro": 2793,
  "united": 2794,
  "via": 2795,
  "lands": 2796,
  "alpa": 2797,
  "displaystyle": 2798,
  "use": 2799,
  "mano": 2800,
  "krus": 2801,
  "konsepto": 2802,
  "pagsasanay": 2803,
  "pananaliksik": 2804,
  "pinamumunuan": 2805,
  "doon": 2806,
  "mora": 2807,
  "giu": 2808,
  "nega": 2809,
  "deo": 2810,
  "limbag": 2811,
  "nagtu": 2812,
  "nabi": 2813,
  "yin": 2814,
  "kain": 2815,
  "kam": 2816,
  "campan": 2817,
  "nakatuon": 2818,
  "plano": 2819,
  "utang": 2820,
  "dara": 2821,
  "sud": 2822,
  "top": 2823,
  "pede": 2824,
  "kinabang": 2825,
  "posibleng": 2826,
  "ingg": 2827,
  "album": 2828,
  "campania": 2829,
  "kalimit": 2830,
  "rok": 2831,
  "cher": 2832,
  "papawid": 2833,
  "kontra": 2834,
  "46": 2835,
  "eno": 2836,
  "disenyo": 2837,
  "haya": 2838,
  "makapangyari": 2839,
  "lie": 2840,
  "natuklasan": 2841,
  "takda": 2842,
  "dag": 2843,
  "kontin": 2844,
  "2004": 2845,
  "kabila": 2846,
  "pinsala": 2847,
  "adminis": 2848,
  "diego": 2849,
  "angkop": 2850,
  "ent": 2851,
  "tatag": 2852,
  "das": 2853,
  "tama": 2854,
  "epek": 2855,
  "kamatay": 2856,
  "kagawa": 2857,
  "lano": 2858,
  "pamilihan": 2859,
  "bakal": 2860,
  "anime": 2861,
  "kulong": 2862,
  "linyang": 2863,
  "ortodokso": 2864,
  "humigit": 2865,
  "daanan": 2866,
  "ilyang": 2867,
  "cs": 2868,
  "pru": 2869,
  "relasyon": 2870,
  "kumu": 2871,
  "sard": 2872,
  "75": 2873,
  "daloy": 2874,
  "hiyo": 2875,
  "asyon": 2876,
  "lam": 2877,
  "inglatera": 2878,
  "unog": 2879,
  "1980": 2880,
  "publikong": 2881,
  "lakay": 2882,
  "lawa": 2883,
  "termino": 2884,
  "katawagan": 2885,
  "paga": 2886,
  "sikong": 2887,
  "miyembro": 2888,
  "takot": 2889,
  "temperatu": 2890,
  "iyong": 2891,
  "iskolar": 2892,
  "himp": 2893,
  "filipino": 2894,
  "punto": 2895,
  "pagtiti": 2896,
  "suri": 2897,
  "umb": 2898,
  "butas": 2899,
  "lebel": 2900,
  "pangkalahatan": 2901,
  "moso": 2902,
  "istang": 2903,
  "simple": 2904,
  "siyo": 2905,
  "inilalarawan": 2906,
  "sardini": 2907,
  "utos": 2908,
  "120": 2909,
  "pangulong": 2910,
  "1991": 2911,
  "kle": 2912,
  "188": 2913,
  "buhat": 2914,
  "mel": 2915,
  "pamagat": 2916,
  "tit": 2917,
  "bs": 2918,
  "sam": 2919,
  "nagsasaad": 2920,
  "wersang": 2921,
  "balang": 2922,
  "huwag": 2923,
  "klaseng": 2924,
  "babil": 2925,
  "dr": 2926,
  "pha": 2927,
  "nagsisil": 2928,
  "pasa": 2929,
  "pantao": 2930,
  "depresyon": 2931,
  "piling": 2932,
  "tain": 2933,
  "mismong": 2934,
  "eksperi": 2935,
  "nakaraang": 2936,
  "tex": 2937,
  "bumaba": 2938,
  "naba": 2939,
  "tibay": 2940,
  "iz": 2941,
  "kauna": 2942,
  "norte": 2943,
  "nabuo": 2944,
  "wikipe": 2945,
  "lumabas": 2946,
  "aari": 2947,
  "osta": 2948,
  "aka": 2949,
  "kwan": 2950,
  "dato": 2951,
  "48": 2952,
  "eslo": 2953,
  "ingat": 2954,
  "paggamot": 2955,
  "samahan": 2956,
  "tria": 2957,
  "abru": 2958,
  "logos": 2959,
  "matagumpay": 2960,
  "32": 2961,
  "you": 2962,
  "beses": 2963,
  "kadalasan": 2964,
  "parami": 2965,
  "abruzzo": 2966,
  "pira": 2967,
  "kulturang": 2968,
  "adig": 2969,
  "trentino": 2970,
  "danao": 2971,
  "adige": 2972,
  "matinding": 2973,
  "pagdu": 2974,
  "186": 2975,
  "kaugali": 2976,
  "hanggan": 2977,
  "philippine": 2978,
  "tirol": 2979,
  "lino": 2980,
  "minal": 2981,
  "israe": 2982,
  "peto": 2983,
  "istahan": 2984,
  "ae": 2985,
  "presyo": 2986,
  "sudtirol": 2987,
  "gran": 2988,
  "hukuman": 2989,
  "ilu": 2990,
  "relihiyoso": 2991,
  "kson": 2992,
  "intsik": 2993,
  "binigyang": 2994,
  "salapi": 2995,
  "guhit": 2996,
  "panitikang": 2997,
  "nagsimulang": 2998,
  "cion": 2999,
  "priba": 3000,
  "500": 3001,
  "molis": 3002,
  "serbisyo": 3003,
  "karne": 3004,
  "teor": 3005,
  "sat": 3006,
  "fossil": 3007,
  "eri": 3008,
  "alpabe": 3009,
  "langit": 3010,
  "hintulot": 3011,
  "tesis": 3012,
  "tuli": 3013,
  "pananakop": 3014,
  "kamaka": 3015,
  "laan": 3016,
  "mangang": 3017,
  "veneto": 3018,
  "venezia": 3019,
  "walong": 3020,
  "ram": 3021,
  "lombardy": 3022,
  "himpapawid": 3023,
  "sex": 3024,
  "rehiyong": 3025,
  "pamp": 3026,
  "march": 3027,
  "colo": 3028,
  "ence": 3029,
  "yunit": 3030,
  "angkin": 3031,
  "international": 3032,
  "nam": 3033,
  "stansiya": 3034,
  "estra": 3035,
  "hawa": 3036,
  "pinong": 3037,
  "umbria": 3038,
  "aosta": 3039,
  "basilio": 3040,
  "bagu": 3041,
  "ref": 3042,
  "marche": 3043,
  "pinala": 3044,
  "kasaysayang": 3045,
  "matandang": 3046,
  "dinastiyang": 3047,
  "paglalarawan": 3048,
  "yelo": 3049,
  "nawa": 3050,
  "chni": 3051,
  "relihiyong": 3052,
  "sinasalita": 3053,
  "geor": 3054,
  "atomi": 3055,
  "nucle": 3056,
  "tural": 3057,
  "hinango": 3058,
  "lubhang": 3059,
  "suliranin": 3060,
  "dalubhasa": 3061,
  "komunika": 3062,
  "tuskanya": 3063,
  "yayaring": 3064,
  "sangkap": 3065,
  "pikong": 3066,
  "try": 3067,
  "esia": 3068,
  "lazio": 3069,
  "sh": 3070,
  "bria": 3071,
  "york": 3072,
  "isin": 3073,
  "kagamit": 3074,
  "air": 3075,
  "programa": 3076,
  "ksiyong": 3077,
  "kayat": 3078,
  "anakan": 3079,
  "pinu": 3080,
  "nagawa": 3081,
  "meta": 3082,
  "rer": 3083,
  "personal": 3084,
  "masel": 3085,
  "takbo": 3086,
  "ksi": 3087,
  "emilia": 3088,
  "into": 3089,
  "kbo": 3090,
  "birhen": 3091,
  "israelita": 3092,
  "ginto": 3093,
  "looban": 3094,
  "kumakatawan": 3095,
  "ee": 3096,
  "masu": 3097,
  "pagpili": 3098,
  "qui": 3099,
  "bung": 3100,
  "pur": 3101,
  "talagang": 3102,
  "paraang": 3103,
  "propes": 3104,
  "nangangailangan": 3105,
  "araling": 3106,
  "sahan": 3107,
  "kagana": 3108,
  "tagan": 3109,
  "bumalik": 3110,
  "eso": 3111,
  "canada": 3112,
  "giulia": 3113,
  "mulat": 3114,
  "neo": 3115,
  "manan": 3116,
  "pagtang": 3117,
  "romagna": 3118,
  "calabria": 3119,
  "liguria": 3120,
  "ono": 3121,
  "wad": 3122,
  "cra": 3123,
  "prosesong": 3124,
  "apulia": 3125,
  "bandang": 3126,
  "enos": 3127,
  "feli": 3128,
  "gayong": 3129,
  "tle": 3130,
  "isyong": 3131,
  "kahoy": 3132,
  "kasyong": 3133,
  "pagma": 3134,
  "basilicata": 3135,
  "friuli": 3136,
  "lian": 3137,
  "zz": 3138,
  "matagal": 3139,
  "espas": 3140,
  "likong": 3141,
  "gasyon": 3142,
  "hap": 3143,
  "kaagad": 3144,
  "menta": 3145,
  "parira": 3146,
  "hukbo": 3147,
  "lou": 3148,
  "uniberso": 3149,
  "mekan": 3150,
  "sasang": 3151,
  "kasamang": 3152,
  "lazioliguria": 3153,
  "lazioligurialombardy": 3154,
  "lazioligurialombardymarche": 3155,
  "tagapagta": 3156,
  "asicilia": 3157,
  "balita": 3158,
  "califor": 3159,
  "emontesardini": 3160,
  "emontesardiniasicilia": 3161,
  "epiemontesardiniasicilia": 3162,
  "molisepiemontesardiniasicilia": 3163,
  "table": 3164,
  "tingnan": 3165,
  "kalakal": 3166,
  "pangyayaring": 3167,
  "2003": 3168,
  "5px": 3169,
  "abruzzolambak": 3170,
  "aostaapulia": 3171,
  "aostaapuliabasilicata": 3172,
  "masasa": 3173,
  "sudtiroltuskanya": 3174,
  "sudtiroltuskanyaumbria": 3175,
  "sudtiroltuskanyaumbriaveneto": 3176,
  "kolon": 3177,
  "kaw": 3178,
  "medis": 3179,
  "inaasa": 3180,
  "california": 3181,
  "limu": 3182,
  "kimika": 3183,
  "goberna": 3184,
  "andang": 3185,
  "mehiko": 3186,
  "ture": 3187,
  "calabriacampania": 3188,
  "calabriacampaniaemilia": 3189,
  "pamin": 3190,
  "proye": 3191,
  "romagnafriuli": 3192,
  "bolb": 3193,
  "ngay": 3194,
  "gisag": 3195,
  "kondisyon": 3196,
  "kopya": 3197,
  "pelikulang": 3198,
  "oni": 3199,
  "anda": 3200,
  "tagal": 3201,
  "hango": 3202,
  "internas": 3203,
  "mero": 3204,
  "mura": 3205,
  "school": 3206,
  "dalaga": 3207,
  "saka": 3208,
  "yaya": 3209,
  "panun": 3210,
  "sahod": 3211,
  "olim": 3212,
  "afri": 3213,
  "katauhan": 3214,
  "diwang": 3215,
  "agri": 3216,
  "inea": 3217,
  "magda": 3218,
  "jor": 3219,
  "paglili": 3220,
  "panginoon": 3221,
  "biyolohiya": 3222,
  "labi": 3223,
  "py": 3224,
  "maikling": 3225,
  "star": 3226,
  "kinasasang": 3227,
  "nauugnay": 3228,
  "gilid": 3229,
  "yerno": 3230,
  "jus": 3231,
  "kataga": 3232,
  "histor": 3233,
  "pagkamatay": 3234,
  "yanong": 3235,
  "dres": 3236,
  "milya": 3237,
  "buti": 3238,
  "sup": 3239,
  "siyu": 3240,
  "mabuti": 3241,
  "malinaw": 3242,
  "banya": 3243,
  "monya": 3244,
  "hatid": 3245,
  "itinak": 3246,
  "landiya": 3247,
  "nakikita": 3248,
  "tagumpay": 3249,
  "regu": 3250,
  "bad": 3251,
  "histori": 3252,
  "palaio": 3253,
  "temperatura": 3254,
  "vis": 3255,
  "gia": 3256,
  "libe": 3257,
  "rac": 3258,
  "teknolohiya": 3259,
  "kasulatan": 3260,
  "saling": 3261,
  "abu": 3262,
  "kodi": 3263,
  "ibina": 3264,
  "langis": 3265,
  "pagbagsak": 3266,
  "aksiyon": 3267,
  "tingin": 3268,
  "metri": 3269,
  "unahang": 3270,
  "cc": 3271,
  "kapayapa": 3272,
  "magandang": 3273,
  "mesa": 3274,
  "tv": 3275,
  "napu": 3276,
  "pamilyang": 3277,
  "labing": 3278,
  "palaiologos": 3279,
  "kilusang": 3280,
  "turing": 3281,
  "bakit": 3282,
  "hipo": 3283,
  "56": 3284,
  "kawalang": 3285,
  "rere": 3286,
  "sas": 3287,
  "demokrat": 3288,
  "nakapagpapa": 3289,
  "pital": 3290,
  "haw": 3291,
  "siyahan": 3292,
  "madi": 3293,
  "ruso": 3294,
  "kalapit": 3295,
  "prinsip": 3296,
  "bituin": 3297,
  "homoseksuwalidad": 3298,
  "stu": 3299,
  "1992": 3300,
  "sasyon": 3301,
  "yante": 3302,
  "matanda": 3303,
  "nani": 3304,
  "ferrato": 3305,
  "panging": 3306,
  "2001": 3307,
  "pagbi": 3308,
  "sura": 3309,
  "monferrato": 3310,
  "nanais": 3311,
  "popular": 3312,
  "asawang": 3313,
  "nakuha": 3314,
  "1986": 3315,
  "sandata": 3316,
  "tema": 3317,
  "mahahalagang": 3318,
  "nakabatay": 3319,
  "respon": 3320,
  "naglalarawan": 3321,
  "portu": 3322,
  "luk": 3323,
  "1989": 3324,
  "gales": 3325,
  "gobernador": 3326,
  "mayanang": 3327,
  "lagu": 3328,
  "dae": 3329,
  "nasu": 3330,
  "uring": 3331,
  "langin": 3332,
  "ile": 3333,
  "tidad": 3334,
  "trono": 3335,
  "tulu": 3336,
  "kulan": 3337,
  "center": 3338,
  "kautusan": 3339,
  "nagmumula": 3340,
  "termin": 3341,
  "niko": 3342,
  "tumaas": 3343,
  "diperensiya": 3344,
  "kapayapaan": 3345,
  "landes": 3346,
  "pagtanggap": 3347,
  "palomar": 3348,
  "namumu": 3349,
  "idina": 3350,
  "pamamaraang": 3351,
  "reyna": 3352,
  "ebolb": 3353,
  "burg": 3354,
  "orien": 3355,
  "nabanggit": 3356,
  "ws": 3357,
  "baan": 3358,
  "union": 3359,
  "arabo": 3360,
  "james": 3361,
  "inilarawan": 3362,
  "pagbabagong": 3363,
  "bali": 3364,
  "kalakalan": 3365,
  "koreano": 3366,
  "legal": 3367,
  "mahusay": 3368,
  "makata": 3369,
  "aso": 3370,
  "davi": 3371,
  "paghaha": 3372,
  "arian": 3373,
  "kromoso": 3374,
  "labin": 3375,
  "uhang": 3376,
  "lisis": 3377,
  "plas": 3378,
  "hangul": 3379,
  "kinuha": 3380,
  "mona": 3381,
  "inhinyer": 3382,
  "karanasan": 3383,
  "kinasasangkutan": 3384,
  "nangung": 3385,
  "prote": 3386,
  "kompanya": 3387,
  "nama": 3388,
  "tive": 3389,
  "guinea": 3390,
  "kapanganakan": 3391,
  "nababa": 3392,
  "totoo": 3393,
  "templo": 3394,
  "villa": 3395,
  "tangway": 3396,
  "salvi": 3397,
  "jes": 3398,
  "pamayanang": 3399,
  "inom": 3400,
  "order": 3401,
  "siwaan": 3402,
  "kalulu": 3403,
  "natutu": 3404,
  "patri": 3405,
  "kalimitang": 3406,
  "enteng": 3407,
  "parte": 3408,
  "mont": 3409,
  "ers": 3410,
  "gtong": 3411,
  "piritu": 3412,
  "pampublikong": 3413,
  "siyudad": 3414,
  "matatag": 3415,
  "kamag": 3416,
  "pangkasarian": 3417,
  "sampung": 3418,
  "ard": 3419,
  "estadis": 3420,
  "gyan": 3421,
  "katawagang": 3422,
  "bc": 3423,
  "binigyan": 3424,
  "espesyal": 3425,
  "instru": 3426,
  "ght": 3427,
  "lya": 3428,
  "mamahala": 3429,
  "atake": 3430,
  "mase": 3431,
  "constantino": 3432,
  "indonesia": 3433,
  "kanan": 3434,
  "galit": 3435,
  "ins": 3436,
  "jer": 3437,
  "suot": 3438,
  "katutubo": 3439,
  "disiplina": 3440,
  "dalu": 3441,
  "nagpapahiwatig": 3442,
  "bulaklak": 3443,
  "inan": 3444,
  "cong": 3445,
  "ksan": 3446,
  "patung": 3447,
  "sero": 3448,
  "mikal": 3449,
  "ngka": 3450,
  "pamantayan": 3451,
  "yenteng": 3452,
  "44": 3453,
  "abo": 3454,
  "seksuwalidad": 3455,
  "reko": 3456,
  "halagahan": 3457,
  "ning": 3458,
  "trasyon": 3459,
  "stein": 3460,
  "karagatang": 3461,
  "tagasunod": 3462,
  "binang": 3463,
  "tibidad": 3464,
  "viet": 3465,
  "doku": 3466,
  "ahen": 3467,
  "laga": 3468,
  "guan": 3469,
  "kid": 3470,
  "pagsisi": 3471,
  "kumi": 3472,
  "sabay": 3473,
  "paniniwalang": 3474,
  "polonya": 3475,
  "gun": 3476,
  "ises": 3477,
  "59": 3478,
  "aawit": 3479,
  "sosyo": 3480,
  "medisina": 3481,
  "pilipinong": 3482,
  "sara": 3483,
  "ulan": 3484,
  "ekonomika": 3485,
  "interpre": 3486,
  "kast": 3487,
  "cebu": 3488,
  "peres": 3489,
  "benta": 3490,
  "pto": 3491,
  "sumi": 3492,
  "kta": 3493,
  "pinaniniwalaan": 3494,
  "lope": 3495,
  "nagda": 3496,
  "kinakailangan": 3497,
  "1978": 3498,
  "bumuo": 3499,
  "that": 3500,
  "lop": 3501,
  "elec": 3502,
  "lipunang": 3503,
  "tsi": 3504,
  "willia": 3505,
  "lisasyon": 3506,
  "she": 3507,
  "francisco": 3508,
  "iland": 3509,
  "mismo": 3510,
  "presen": 3511,
  "bihi": 3512,
  "alakal": 3513,
  "pagdiriwang": 3514,
  "krimen": 3515,
  "sto": 3516,
  "sidente": 3517,
  "hating": 3518,
  "malaman": 3519,
  "78": 3520,
  "aking": 3521,
  "umalis": 3522,
  "bangko": 3523,
  "hak": 3524,
  "bakuna": 3525,
  "huhu": 3526,
  "valley": 3527,
  "tradisyonal": 3528,
  "kapangyarihang": 3529,
  "aasal": 3530,
  "kalinangan": 3531,
  "sentral": 3532,
  "lg": 3533,
  "2013": 3534,
  "baboy": 3535,
  "kasin": 3536,
  "nagdulot": 3537,
  "protes": 3538,
  "hersis": 3539,
  "kasanayan": 3540,
  "marin": 3541,
  "alak": 3542,
  "malaya": 3543,
  "ik": 3544,
  "terminong": 3545,
  "eskosya": 3546,
  "august": 3547,
  "unawaan": 3548,
  "pagtuturo": 3549,
  "taran": 3550,
  "nel": 3551,
  "aangkin": 3552,
  "key": 3553,
  "300": 3554,
  "kumaka": 3555,
  "1960": 3556,
  "pulang": 3557,
  "iwas": 3558,
  "af": 3559,
  "palaging": 3560,
  "theodo": 3561,
  "makita": 3562,
  "pagsubok": 3563,
  "ginawang": 3564,
  "tumi": 3565,
  "mini": 3566,
  "sundalo": 3567,
  "isyu": 3568,
  "nararapat": 3569,
  "gpit": 3570,
  "handog": 3571,
  "pia": 3572,
  "yaman": 3573,
  "aralang": 3574,
  "real": 3575,
  "seleksiyon": 3576,
  "kagan": 3577,
  "lilikha": 3578,
  "sr": 3579,
  "vera": 3580,
  "ingin": 3581,
  "kate": 3582,
  "puting": 3583,
  "ekonomiko": 3584,
  "pagkaing": 3585,
  "tradisyong": 3586,
  "urban": 3587,
  "katalik": 3588,
  "kolehiyo": 3589,
  "batong": 3590,
  "ibon": 3591,
  "sayaw": 3592,
  "ons": 3593,
  "kakulang": 3594,
  "chur": 3595,
  "sanggunian": 3596,
  "2012": 3597,
  "nk": 3598,
  "alperes": 3599,
  "dulang": 3600,
  "ganito": 3601,
  "atomo": 3602,
  "hihi": 3603,
  "kalahati": 3604,
  "kasalan": 3605,
  "tuwal": 3606,
  "isinaad": 3607,
  "panda": 3608,
  "area": 3609,
  "materya": 3610,
  "petsa": 3611,
  "espiritu": 3612,
  "ngkahing": 3613,
  "ritwal": 3614,
  "eld": 3615,
  "iyang": 3616,
  "natatangi": 3617,
  "alba": 3618,
  "pagku": 3619,
  "simpleng": 3620,
  "dp": 3621,
  "alkal": 3622,
  "ice": 3623,
  "om": 3624,
  "epis": 3625,
  "lahok": 3626,
  "sp": 3627,
  "hitler": 3628,
  "tinatanggap": 3629,
  "transpor": 3630,
  "henetiko": 3631,
  "siyas": 3632,
  "portugal": 3633,
  "1945": 3634,
  "58": 3635,
  "dayuhan": 3636,
  "ens": 3637,
  "manggagawa": 3638,
  "paglago": 3639,
  "rasyong": 3640,
  "ngipin": 3641,
  "metal": 3642,
  "chnij": 3643,
  "nauchnij": 3644,
  "kabihas": 3645,
  "malaysia": 3646,
  "mainit": 3647,
  "uugnay": 3648,
  "american": 3649,
  "pista": 3650,
  "munisi": 3651,
  "himagsi": 3652,
  "47": 3653,
  "nanatili": 3654,
  "moises": 3655,
  "aspeto": 3656,
  "fernan": 3657,
  "igle": 3658,
  "sana": 3659,
  "ah": 3660,
  "hara": 3661,
  "kanta": 3662,
  "iminungkahi": 3663,
  "maxi": 3664,
  "makin": 3665,
  "manuel": 3666,
  "kanluranin": 3667,
  "nasabing": 3668,
  "laki": 3669,
  "pariralang": 3670,
  "mbia": 3671,
  "sekswal": 3672,
  "ight": 3673,
  "associ": 3674,
  "komunikasyon": 3675,
  "aangkop": 3676,
  "karagatan": 3677,
  "depende": 3678,
  "away": 3679,
  "cur": 3680,
  "ikot": 3681,
  "kakulangan": 3682,
  "lulu": 3683,
  "unahan": 3684,
  "pasipiko": 3685,
  "kimikal": 3686,
  "guel": 3687,
  "kaiba": 3688,
  "minasyon": 3689,
  "mitolohiyang": 3690,
  "oc": 3691,
  "lansangan": 3692,
  "nawala": 3693,
  "nagsisimula": 3694,
  "magsasa": 3695,
  "paghahari": 3696,
  "david": 3697,
  "boto": 3698,
  "apar": 3699,
  "panig": 3700,
  "banda": 3701,
  "trina": 3702,
  "mbina": 3703,
  "mol": 3704,
  "sangkot": 3705,
  "west": 3706,
  "bersiyon": 3707,
  "maliwanag": 3708,
  "college": 3709,
  "pigil": 3710,
  "ire": 3711,
  "molekula": 3712,
  "iter": 3713,
  "kump": 3714,
  "lupang": 3715,
  "anton": 3716,
  "iran": 3717,
  "tante": 3718,
  "kaluluwa": 3719,
  "akade": 3720,
  "kalagitna": 3721,
  "birus": 3722,
  "linang": 3723,
  "atlan": 3724,
  "kaunting": 3725,
  "uten": 3726,
  "aga": 3727,
  "dinala": 3728,
  "aran": 3729,
  "programang": 3730,
  "wol": 3731,
  "kalye": 3732,
  "north": 3733,
  "sch": 3734,
  "biyet": 3735,
  "dian": 3736,
  "bilanggo": 3737,
  "patakarang": 3738,
  "kandidato": 3739,
  "mindanao": 3740,
  "naniniwalang": 3741,
  "buhok": 3742,
  "ebreo": 3743,
  "ker": 3744,
  "armen": 3745,
  "ridad": 3746,
  "nagla": 3747,
  "limita": 3748,
  "nagpatuloy": 3749,
  "jr": 3750,
  "dinal": 3751,
  "tsang": 3752,
  "likasyon": 3753,
  "gusto": 3754,
  "republic": 3755,
  "direktang": 3756,
  "nada": 3757,
  "natin": 3758,
  "virus": 3759,
  "moro": 3760,
  "nangangahulugan": 3761,
  "jun": 3762,
  "nakapa": 3763,
  "suk": 3764,
  "bn": 3765,
  "tekstong": 3766,
  "libong": 3767,
  "wikipedia": 3768,
  "66": 3769,
  "ai": 3770,
  "halili": 3771,
  "inilabas": 3772,
  "operasyon": 3773,
  "dula": 3774,
  "salungat": 3775,
  "gastos": 3776,
  "hindu": 3777,
  "nagsasalita": 3778,
  "palidad": 3779,
  "nanalo": 3780,
  "analisis": 3781,
  "apoy": 3782,
  "paminsan": 3783,
  "umabot": 3784,
  "jing": 3785,
  "ngan": 3786,
  "patungong": 3787,
  "binuo": 3788,
  "gulo": 3789,
  "isasyon": 3790,
  "linis": 3791,
  "pasyente": 3792,
  "katuruan": 3793,
  "1995": 3794,
  "jackson": 3795,
  "kompu": 3796,
  "pangkaraniwan": 3797,
  "code": 3798,
  "kalalaki": 3799,
  "rt": 3800,
  "gawing": 3801,
  "pagpapahalaga": 3802,
  "aan": 3803,
  "media": 3804,
  "ps": 3805,
  "sci": 3806,
  "simbolo": 3807,
  "tubo": 3808,
  "alkalde": 3809,
  "ish": 3810,
  "nagu": 3811,
  "liano": 3812,
  "partidong": 3813,
  "kahabaan": 3814,
  "kasabay": 3815,
  "vie": 3816,
  "ences": 3817,
  "mbal": 3818,
  "umaabot": 3819,
  "ona": 3820,
  "2002": 3821,
  "tanggapan": 3822,
  "dahon": 3823,
  "logy": 3824,
  "angel": 3825,
  "lini": 3826,
  "pamantayang": 3827,
  "mainam": 3828,
  "kaisipan": 3829,
  "istra": 3830,
  "teros": 3831,
  "intera": 3832,
  "katuparan": 3833,
  "manggagamot": 3834,
  "pisi": 3835,
  "recor": 3836,
  "oksi": 3837,
  "kristiyanong": 3838,
  "prinsi": 3839,
  "sius": 3840,
  "deu": 3841,
  "magne": 3842,
  "italyano": 3843,
  "lipi": 3844,
  "bacter": 3845,
  "hiyang": 3846,
  "propeta": 3847,
  "lumilikha": 3848,
  "pagkilala": 3849,
  "liga": 3850,
  "ase": 3851,
  "kumple": 3852,
  "pagsasagawa": 3853,
  "coordina": 3854,
  "nagbabago": 3855,
  "serdo": 3856,
  "alitan": 3857,
  "kr": 3858,
  "stru": 3859,
  "vir": 3860,
  "yah": 3861,
  "ira": 3862,
  "lic": 3863,
  "hag": 3864,
  "manus": 3865,
  "tunayan": 3866,
  "1993": 3867,
  "kukunan": 3868,
  "monar": 3869,
  "sinundan": 3870,
  "tern": 3871,
  "saserdo": 3872,
  "99": 3873,
  "himpilan": 3874,
  "kuwentong": 3875,
  "hayan": 3876,
  "liki": 3877,
  "ual": 3878,
  "itinayo": 3879,
  "nasasaku": 3880,
  "gampan": 3881,
  "sumulat": 3882,
  "church": 3883,
  "layo": 3884,
  "ret": 3885,
  "54": 3886,
  "paaralang": 3887,
  "pisyo": 3888,
  "nakatira": 3889,
  "saba": 3890,
  "field": 3891,
  "tinanggap": 3892,
  "tuku": 3893,
  "lubos": 3894,
  "syste": 3895,
  "gy": 3896,
  "ius": 3897,
  "kapuluang": 3898,
  "angat": 3899,
  "mpi": 3900,
  "pamamaga": 3901,
  "poly": 3902,
  "mikong": 3903,
  "hinaharap": 3904,
  "magpapa": 3905,
  "central": 3906,
  "tumungo": 3907,
  "modelong": 3908,
  "seo": 3909,
  "hur": 3910,
  "kasangkapan": 3911,
  "nukle": 3912,
  "pilosopiyang": 3913,
  "robert": 3914,
  "wasak": 3915,
  "pananalapi": 3916,
  "bayang": 3917,
  "kalagitnaan": 3918,
  "mahihirap": 3919,
  "munisipalidad": 3920,
  "binanggit": 3921,
  "mann": 3922,
  "japan": 3923,
  "luto": 3924,
  "artikulo": 3925,
  "charles": 3926,
  "isabel": 3927,
  "kagawaran": 3928,
  "kawa": 3929,
  "katung": 3930,
  "bara": 3931,
  "tugon": 3932,
  "samar": 3933,
  "chil": 3934,
  "cru": 3935,
  "kongreso": 3936,
  "high": 3937,
  "punsiyon": 3938,
  "1984": 3939,
  "fro": 3940,
  "mid": 3941,
  "turkiya": 3942,
  "kemikal": 3943,
  "magkatulad": 3944,
  "muna": 3945,
  "bantog": 3946,
  "masamang": 3947,
  "refer": 3948,
  "selulang": 3949,
  "tugtu": 3950,
  "gaanong": 3951,
  "labor": 3952,
  "nami": 3953,
  "matiko": 3954,
  "tagapagpa": 3955,
  "tali": 3956,
  "wasyong": 3957,
  "pasya": 3958,
  "tatlo": 3959,
  "55": 3960,
  "kumbento": 3961,
  "sere": 3962,
  "kukuha": 3963,
  "makina": 3964,
  "187": 3965,
  "nove": 3966,
  "kasangkapang": 3967,
  "psiyon": 3968,
  "tuwirang": 3969,
  "ella": 3970,
  "inaa": 3971,
  "interes": 3972,
  "pilosopo": 3973,
  "brun": 3974,
  "ehersis": 3975,
  "segu": 3976,
  "bilog": 3977,
  "diplo": 3978,
  "tud": 3979,
  "palitan": 3980,
  "istru": 3981,
  "tekni": 3982,
  "award": 3983,
  "korte": 3984,
  "martin": 3985,
  "silbi": 3986,
  "timbang": 3987,
  "ikaapat": 3988,
  "isinagawa": 3989,
  "maca": 3990,
  "alexand": 3991,
  "polo": 3992,
  "ep": 3993,
  "buwis": 3994,
  "umang": 3995,
  "nanana": 3996,
  "pagnanais": 3997,
  "palagay": 3998,
  "william": 3999,
  "inga": 4000,
  "dena": 4001,
  "institusyon": 4002,
  "suportahan": 4003,
  "bilyong": 4004,
  "kastilang": 4005,
  "lawak": 4006,
  "gob": 4007,
  "klasikong": 4008,
  "proto": 4009,
  "1970": 4010,
  "liberal": 4011,
  "politiko": 4012,
  "kaganapan": 4013,
  "pt": 4014,
  "demokratikong": 4015,
  "olo": 4016,
  "balangkas": 4017,
  "dalang": 4018,
  "posisyong": 4019,
  "silid": 4020,
  "sagisag": 4021,
  "ez": 4022,
  "beth": 4023,
  "paglipas": 4024,
  "south": 4025,
  "ipinakilala": 4026,
  "lumu": 4027,
  "tanakh": 4028,
  "katinig": 4029,
  "batayan": 4030,
  "panggagamot": 4031,
  "puwesto": 4032,
  "dinamarka": 4033,
  "indepen": 4034,
  "tinian": 4035,
  "ipinahayag": 4036,
  "kaunti": 4037,
  "larong": 4038,
  "0px": 4039,
  "febru": 4040,
  "paghahanap": 4041,
  "mediter": 4042,
  "ford": 4043,
  "kategor": 4044,
  "february": 4045,
  "kapital": 4046,
  "butan": 4047,
  "sanga": 4048,
  "sumer": 4049,
  "tono": 4050,
  "lalong": 4051,
  "magta": 4052,
  "miguel": 4053,
  "pagdara": 4054,
  "diko": 4055,
  "pareho": 4056,
  "kado": 4057,
  "sinag": 4058,
  "pagpapakamatay": 4059,
  "grupong": 4060,
  "rasya": 4061,
  "ear": 4062,
  "rehi": 4063,
  "ora": 4064,
  "prepek": 4065,
  "vol": 4066,
  "pangungusap": 4067,
  "persona": 4068,
  "probin": 4069,
  "doktrina": 4070,
  "magbigay": 4071,
  "mahigpit": 4072,
  "ola": 4073,
  "cd": 4074,
  "bangkay": 4075,
  "nananatiling": 4076,
  "1997": 4077,
  "distritong": 4078,
  "mahar": 4079,
  "nagkakaroon": 4080,
  "reres": 4081,
  "mayor": 4082,
  "toridad": 4083,
  "moto": 4084,
  "well": 4085,
  "1979": 4086,
  "puwersa": 4087,
  "bulubundu": 4088,
  "kalihim": 4089,
  "kanluraning": 4090,
  "nilalaman": 4091,
  "65": 4092,
  "alta": 4093,
  "pus": 4094,
  "cedon": 4095,
  "kalooban": 4096,
  "muni": 4097,
  "negatibong": 4098,
  "wagi": 4099,
  "clara": 4100,
  "diyo": 4101,
  "kahalagahan": 4102,
  "1973": 4103,
  "samang": 4104,
  "mei": 4105,
  "beria": 4106,
  "rel": 4107,
  "dino": 4108,
  "ilarawan": 4109,
  "mentar": 4110,
  "dah": 4111,
  "dora": 4112,
  "kataas": 4113,
  "nakaugali": 4114,
  "sigla": 4115,
  "solo": 4116,
  "yero": 4117,
  "prus": 4118,
  "zambo": 4119,
  "lutan": 4120,
  "cav": 4121,
  "australia": 4122,
  "produktong": 4123,
  "tagu": 4124,
  "komisyon": 4125,
  "wasang": 4126,
  "arabe": 4127,
  "coordinates": 4128,
  "lohika": 4129,
  "odis": 4130,
  "pinalitan": 4131,
  "inc": 4132,
  "nd": 4133,
  "ilong": 4134,
  "jan": 4135,
  "teryo": 4136,
  "november": 4137,
  "trate": 4138,
  "papu": 4139,
  "pambansa": 4140,
  "patong": 4141,
  "yadong": 4142,
  "kayarian": 4143,
  "turis": 4144,
  "amo": 4145,
  "tom": 4146,
  "koro": 4147,
  "wensiyang": 4148,
  "1988": 4149,
  "prinsipyo": 4150,
  "dila": 4151,
  "saserdote": 4152,
  "banta": 4153,
  "tulay": 4154,
  "naryo": 4155,
  "pagpapahayag": 4156,
  "palibot": 4157,
  "1950": 4158,
  "kabuti": 4159,
  "kalalakihan": 4160,
  "hahambing": 4161,
  "tir": 4162,
  "49": 4163,
  "katawang": 4164,
  "press": 4165,
  "sikolohiya": 4166,
  "lintulad": 4167,
  "austria": 4168,
  "proba": 4169,
  "kter": 4170,
  "oriental": 4171,
  "tandaan": 4172,
  "1982": 4173,
  "bumag": 4174,
  "kasi": 4175,
  "nagsasagawa": 4176,
  "tinagu": 4177,
  "1975": 4178,
  "binago": 4179,
  "moral": 4180,
  "sasakyang": 4181,
  "payo": 4182,
  "raang": 4183,
  "tukuyin": 4184,
  "espasyo": 4185,
  "hud": 4186,
  "1998": 4187,
  "kalaban": 4188,
  "pangkatawan": 4189,
  "gdp": 4190,
  "organismong": 4191,
  "ido": 4192,
  "paring": 4193,
  "espi": 4194,
  "kikita": 4195,
  "km2": 4196,
  "late": 4197,
  "tinig": 4198,
  "pederal": 4199,
  "85": 4200,
  "tuber": 4201,
  "joseph": 4202,
  "karun": 4203,
  "kawal": 4204,
  "lakbay": 4205,
  "pagkakatu": 4206,
  "wolf": 4207,
  "magsa": 4208,
  "port": 4209,
  "olimpiko": 4210,
  "pinakamatandang": 4211,
  "abs": 4212,
  "association": 4213,
  "buntis": 4214,
  "kaay": 4215,
  "alon": 4216,
  "tik": 4217,
  "mekani": 4218,
  "mensa": 4219,
  "1987": 4220,
  "matematikal": 4221,
  "budismo": 4222,
  "zamboanga": 4223,
  "minu": 4224,
  "esa": 4225,
  "1977": 4226,
  "layuning": 4227,
  "radyo": 4228,
  "laguna": 4229,
  "nis": 4230,
  "pinta": 4231,
  "tiyago": 4232,
  "medikal": 4233,
  "sanda": 4234,
  "umun": 4235,
  "isagawa": 4236,
  "iniha": 4237,
  "naghi": 4238,
  "ney": 4239,
  "paghihiwalay": 4240,
  "kilan": 4241,
  "lutu": 4242,
  "mapapa": 4243,
  "ipinapakita": 4244,
  "umunlad": 4245,
  "kabalig": 4246,
  "hita": 4247,
  "sanan": 4248,
  "bumagsak": 4249,
  "karakter": 4250,
  "sosyal": 4251,
  "cil": 4252,
  "kalen": 4253,
  "tius": 4254,
  "fin": 4255,
  "rot": 4256,
  "fil": 4257,
  "aris": 4258,
  "great": 4259,
  "pasig": 4260,
  "pagkatu": 4261,
  "pagtukoy": 4262,
  "detal": 4263,
  "kumpara": 4264,
  "low": 4265,
  "ters": 4266,
  "panan": 4267,
  "porsiyen": 4268,
  "neg": 4269,
  "pagbabalik": 4270,
  "pagpapaunlad": 4271,
  "kodigo": 4272,
  "palaran": 4273,
  "tawagin": 4274,
  "umaga": 4275,
  "houten": 4276,
  "daw": 4277,
  "mutasyon": 4278,
  "pagkabuhay": 4279,
  "rna": 4280,
  "67": 4281,
  "taba": 4282,
  "mpok": 4283,
  "pagsulat": 4284,
  "hr": 4285,
  "pinunong": 4286,
  "rein": 4287,
  "sol": 4288,
  "ikos": 4289,
  "matikong": 4290,
  "yasat": 4291,
  "mbi": 4292,
  "dul": 4293,
  "espe": 4294,
  "lap": 4295,
  "nagmumu": 4296,
  "iisa": 4297,
  "imb": 4298,
  "indiya": 4299,
  "jesus": 4300,
  "malalim": 4301,
  "masedonya": 4302,
  "babilon": 4303,
  "ky": 4304,
  "pagkawala": 4305,
  "paglaki": 4306,
  "aaralan": 4307,
  "katam": 4308,
  "inal": 4309,
  "ugh": 4310,
  "cun": 4311,
  "kapistahan": 4312,
  "lumipat": 4313,
  "pangkasalukuyang": 4314,
  "cti": 4315,
  "pundamental": 4316,
  "nagtata": 4317,
  "pamantasang": 4318,
  "tempo": 4319,
  "pribadong": 4320,
  "represen": 4321,
  "rosa": 4322,
  "kultural": 4323,
  "paghahanda": 4324,
  "thailand": 4325,
  "darwin": 4326,
  "janu": 4327,
  "lantad": 4328,
  "yado": 4329,
  "kalam": 4330,
  "walay": 4331,
  "puwersang": 4332,
  "nasyon": 4333,
  "tirahan": 4334,
  "asu": 4335,
  "vese": 4336,
  "sibong": 4337,
  "mamalya": 4338,
  "panta": 4339,
  "sinimulan": 4340,
  "hine": 4341,
  "mentaryo": 4342,
  "not": 4343,
  "populasyong": 4344,
  "ingglatera": 4345,
  "pagkaba": 4346,
  "partikulo": 4347,
  "sumali": 4348,
  "nakatanggap": 4349,
  "january": 4350,
  "katipunan": 4351,
  "bangka": 4352,
  "hinto": 4353,
  "tot": 4354,
  "rawang": 4355,
  "tagapagtatag": 4356,
  "lunas": 4357,
  "tisyu": 4358,
  "asido": 4359,
  "humaha": 4360,
  "napo": 4361,
  "duwal": 4362,
  "ponan": 4363,
  "agad": 4364,
  "gobyerno": 4365,
  "katapu": 4366,
  "kontinente": 4367,
  "vati": 4368,
  "kaugalian": 4369,
  "andro": 4370,
  "dios": 4371,
  "sco": 4372,
  "canavese": 4373,
  "krit": 4374,
  "mic": 4375,
  "ape": 4376,
  "lamig": 4377,
  "tradisyunal": 4378,
  "mamama": 4379,
  "constantinople": 4380,
  "internet": 4381,
  "sultan": 4382,
  "gn": 4383,
  "pangangalaga": 4384,
  "42": 4385,
  "nakakara": 4386,
  "nobela": 4387,
  "tikang": 4388,
  "belhika": 4389,
  "persian": 4390,
  "pagpatay": 4391,
  "antro": 4392,
  "hantong": 4393,
  "grego": 4394,
  "bayani": 4395,
  "pagsis": 4396,
  "tumanggap": 4397,
  "unla": 4398,
  "kasong": 4399,
  "lehis": 4400,
  "santos": 4401,
  "diksiyon": 4402,
  "nakalili": 4403,
  "barko": 4404,
  "pagpasok": 4405,
  "quia": 4406,
  "victor": 4407,
  "rafa": 4408,
  "akdang": 4409,
  "porsiyento": 4410,
  "57": 4411,
  "proyekto": 4412,
  "samahang": 4413,
  "alamat": 4414,
  "katunayan": 4415,
  "kontrober": 4416,
  "dine": 4417,
  "monas": 4418,
  "nagdudulot": 4419,
  "kasunduang": 4420,
  "arkit": 4421,
  "edukasyong": 4422,
  "nagsu": 4423,
  "mdam": 4424,
  "olanda": 4425,
  "boni": 4426,
  "ist": 4427,
  "nagsisilbing": 4428,
  "stat": 4429,
  "sapi": 4430,
  "umuunlad": 4431,
  "interpretasyon": 4432,
  "sey": 4433,
  "marahil": 4434,
  "rafael": 4435,
  "references": 4436,
  "fic": 4437,
  "kolonya": 4438,
  "nasasakupan": 4439,
  "unggarya": 4440,
  "olohiya": 4441,
  "solu": 4442,
  "hangad": 4443,
  "intra": 4444,
  "east": 4445,
  "kitung": 4446,
  "rou": 4447,
  "lalay": 4448,
  "moralidad": 4449,
  "rekord": 4450,
  "1994": 4451,
  "time": 4452,
  "congo": 4453,
  "edsa": 4454,
  "kagamitan": 4455,
  "naryong": 4456,
  "pwersa": 4457,
  "side": 4458,
  "eston": 4459,
  "lac": 4460,
  "rado": 4461,
  "takdang": 4462,
  "ey": 4463,
  "hintay": 4464,
  "pines": 4465,
  "mago": 4466,
  "ason": 4467,
  "hakbang": 4468,
  "rebel": 4469,
  "hawak": 4470,
  "lea": 4471,
  "krusa": 4472,
  "pahaya": 4473,
  "britis": 4474,
  "british": 4475,
  "desisyon": 4476,
  "istiko": 4477,
  "bate": 4478,
  "kasuo": 4479,
  "az": 4480,
  "ibong": 4481,
  "batan": 4482,
  "kumala": 4483,
  "1976": 4484,
  "fernando": 4485,
  "dam": 4486,
  "mau": 4487,
  "kalig": 4488,
  "manya": 4489,
  "palasyo": 4490,
  "kalawakan": 4491,
  "planeta": 4492,
  "rusahan": 4493,
  "sigan": 4494,
  "anghel": 4495,
  "nagreres": 4496,
  "pinamunuan": 4497,
  "cagayan": 4498,
  "demon": 4499,
  "pandagat": 4500,
  "pigu": 4501,
  "senado": 4502,
  "eksperimento": 4503,
  "kompos": 4504,
  "pagsasalin": 4505,
  "bawal": 4506,
  "ion": 4507,
  "pinili": 4508,
  "portug": 4509,
  "pulis": 4510,
  "malamig": 4511,
  "mc": 4512,
  "portuges": 4513,
  "bei": 4514,
  "dou": 4515,
  "mesiyas": 4516,
  "disyong": 4517,
  "kana": 4518,
  "bigyang": 4519,
  "ome": 4520,
  "kare": 4521,
  "pagsasaliksik": 4522,
  "kron": 4523,
  "1983": 4524,
  "69": 4525,
  "lokasyon": 4526,
  "musikang": 4527,
  "pangangasiwa": 4528,
  "ches": 4529,
  "supling": 4530,
  "lish": 4531,
  "cir": 4532,
  "poten": 4533,
  "pampagtatalik": 4534,
  "prinsipe": 4535,
  "with": 4536,
  "poli": 4537,
  "state": 4538,
  "administr": 4539,
  "karunungan": 4540,
  "umpi": 4541,
  "pangkultura": 4542,
  "sugat": 4543,
  "cruz": 4544,
  "pami": 4545,
  "pagkakakilan": 4546,
  "thi": 4547,
  "sektang": 4548,
  "petis": 4549,
  "sitwasyon": 4550,
  "galingan": 4551,
  "here": 4552,
  "karyo": 4553,
  "auto": 4554,
  "tapat": 4555,
  "yosong": 4556,
  "nabuhay": 4557,
  "corinto": 4558,
  "dea": 4559,
  "mao": 4560,
  "oli": 4561,
  "sunog": 4562,
  "kino": 4563,
  "89": 4564,
  "swa": 4565,
  "septu": 4566,
  "estud": 4567,
  "pangkalusugan": 4568,
  "piraso": 4569,
  "bian": 4570,
  "makinang": 4571,
  "agrikultura": 4572,
  "pagsusulat": 4573,
  "von": 4574,
  "from": 4575,
  "natitirang": 4576,
  "eksuwal": 4577,
  "tado": 4578,
  "bet": 4579,
  "hanapbuhay": 4580,
  "kwe": 4581,
  "mpon": 4582,
  "samu": 4583,
  "tam": 4584,
  "taiwan": 4585,
  "palig": 4586,
  "rid": 4587,
  "siti": 4588,
  "tial": 4589,
  "geria": 4590,
  "ambag": 4591,
  "septuag": 4592,
  "sumapit": 4593,
  "kagandahan": 4594,
  "komunista": 4595,
  "sagot": 4596,
  "bubu": 4597,
  "komunidad": 4598,
  "dent": 4599,
  "leng": 4600,
  "mato": 4601,
  "dava": 4602,
  "ikalawa": 4603,
  "kasiyahan": 4604,
  "ura": 4605,
  "industri": 4606,
  "swe": 4607,
  "general": 4608,
  "tutu": 4609,
  "vig": 4610,
  "nae": 4611,
  "tanggal": 4612,
  "susunod": 4613,
  "kturang": 4614,
  "cep": 4615,
  "nilu": 4616,
  "pader": 4617,
  "alth": 4618,
  "gayunman": 4619,
  "lingan": 4620,
  "eva": 4621,
  "inilagay": 4622,
  "tumatanggap": 4623,
  "inf": 4624,
  "pio": 4625,
  "anatomiya": 4626,
  "magagamit": 4627,
  "septuagint": 4628,
  "kahariang": 4629,
  "sipikong": 4630,
  "radi": 4631,
  "thro": 4632,
  "main": 4633,
  "erto": 4634,
  "amang": 4635,
  "krito": 4636,
  "saw": 4637,
  "bikti": 4638,
  "nasi": 4639,
  "raw": 4640,
  "pagsamba": 4641,
  "light": 4642,
  "43": 4643,
  "but": 4644,
  "mbong": 4645,
  "protestante": 4646,
  "brunei": 4647,
  "pasu": 4648,
  "dalampa": 4649,
  "kilik": 4650,
  "sobrang": 4651,
  "bakya": 4652,
  "likhang": 4653,
  "love": 4654,
  "paningin": 4655,
  "panrelihiyon": 4656,
  "philippines": 4657,
  "daliri": 4658,
  "hanga": 4659,
  "moun": 4660,
  "mungkahi": 4661,
  "namuno": 4662,
  "pagsasama": 4663,
  "ange": 4664,
  "kardinal": 4665,
  "pagbigkas": 4666,
  "titu": 4667,
  "nakalilipas": 4668,
  "teorya": 4669,
  "umiral": 4670,
  "1985": 4671,
  "pagganap": 4672,
  "burgo": 4673,
  "datos": 4674,
  "islands": 4675,
  "davao": 4676,
  "mera": 4677,
  "neuro": 4678,
  "pagpapanatili": 4679,
  "silbing": 4680,
  "free": 4681,
  "henry": 4682,
  "polohiya": 4683,
  "sant": 4684,
  "ipinangalan": 4685,
  "kanang": 4686,
  "pray": 4687,
  "dako": 4688,
  "hra": 4689,
  "estimula": 4690,
  "kuryente": 4691,
  "pananalita": 4692,
  "bababa": 4693,
  "pasko": 4694,
  "sky": 4695,
  "41": 4696,
  "indibiduwal": 4697,
  "kayamanan": 4698,
  "makaka": 4699,
  "protina": 4700,
  "bagkus": 4701,
  "mia": 4702,
  "paghahati": 4703,
  "sinus": 4704,
  "system": 4705,
  "121": 4706,
  "nino": 4707,
  "ety": 4708,
  "house": 4709,
  "komple": 4710,
  "atlantiko": 4711,
  "iglesia": 4712,
  "onan": 4713,
  "kalidad": 4714,
  "tuan": 4715,
  "konek": 4716,
  "louis": 4717,
  "etniko": 4718,
  "itinuring": 4719,
  "nagtapos": 4720,
  "pagkilos": 4721,
  "kapalit": 4722,
  "masid": 4723,
  "puwit": 4724,
  "tasyo": 4725,
  "lah": 4726,
  "imben": 4727,
  "manuskrito": 4728,
  "ism": 4729,
  "maitu": 4730,
  "ngang": 4731,
  "russia": 4732,
  "cbn": 4733,
  "insu": 4734,
  "ospital": 4735,
  "perman": 4736,
  "tul": 4737,
  "bomba": 4738,
  "ferdina": 4739,
  "makapangyarihang": 4740,
  "ress": 4741,
  "gua": 4742,
  "pagbuo": 4743,
  "alanan": 4744,
  "antonio": 4745,
  "dovi": 4746,
  "kinabu": 4747,
  "konser": 4748,
  "pabalik": 4749,
  "sober": 4750,
  "kim": 4751,
  "aktibong": 4752,
  "sekta": 4753,
  "sudan": 4754,
  "omiya": 4755,
  "kumalat": 4756,
  "pilak": 4757,
  "konsu": 4758,
  "nakikipag": 4759,
  "150": 4760,
  "suntok": 4761,
  "tulang": 4762,
  "ensiyang": 4763,
  "pangunahin": 4764,
  "shu": 4765,
  "tenyente": 4766,
  "ded": 4767,
  "historikal": 4768,
  "impluwensiyahan": 4769,
  "paksang": 4770,
  "masama": 4771,
  "pahina": 4772,
  "pagkaraang": 4773,
  "ferdinand": 4774,
  "george": 4775,
  "likido": 4776,
  "amino": 4777,
  "biko": 4778,
  "mangyari": 4779,
  "1996": 4780,
  "iton": 4781,
  "klima": 4782,
  "nagsasabing": 4783,
  "pumapayag": 4784,
  "umaayon": 4785,
  "volu": 4786,
  "cul": 4787,
  "inil": 4788,
  "plat": 4789,
  "saint": 4790,
  "natapos": 4791,
  "dilaw": 4792,
  "linares": 4793,
  "konsehong": 4794,
  "visi": 4795,
  "angeles": 4796,
  "vas": 4797,
  "zoro": 4798,
  "all": 4799,
  "anya": 4800,
  "april": 4801,
  "mananaliksik": 4802,
  "oper": 4803,
  "sinan": 4804,
  "ebolusyo": 4805,
  "ilocos": 4806,
  "nykh": 4807,
  "quar": 4808,
  "weh": 4809,
  "wood": 4810,
  "direksiyon": 4811,
  "elementong": 4812,
  "doro": 4813,
  "soft": 4814,
  "teore": 4815,
  "litwan": 4816,
  "meto": 4817,
  "montene": 4818,
  "nakamit": 4819,
  "binabaybay": 4820,
  "meng": 4821,
  "suplay": 4822,
  "mac": 4823,
  "nano": 4824,
  "kalipunan": 4825,
  "pagpupulong": 4826,
  "pinangalan": 4827,
  "tagapanga": 4828,
  "ball": 4829,
  "dikit": 4830,
  "lee": 4831,
  "1935": 4832,
  "arro": 4833,
  "erop": 4834,
  "ikap": 4835,
  "kaayusan": 4836,
  "sasakyan": 4837,
  "inaasahang": 4838,
  "68": 4839,
  "biktima": 4840,
  "ktok": 4841,
  "bank": 4842,
  "hasa": 4843,
  "nakaba": 4844,
  "51": 4845,
  "stre": 4846,
  "klara": 4847,
  "ville": 4848,
  "carlos": 4849,
  "paulit": 4850,
  "testa": 4851,
  "masi": 4852,
  "back": 4853,
  "look": 4854,
  "maru": 4855,
  "pinamaga": 4856,
  "tb": 4857,
  "glan": 4858,
  "isinama": 4859,
  "pr": 4860,
  "syria": 4861,
  "tabi": 4862,
  "chernykh": 4863,
  "kabuo": 4864,
  "mpanan": 4865,
  "prepektura": 4866,
  "pumu": 4867,
  "kingdom": 4868,
  "suwes": 4869,
  "ox": 4870,
  "talsik": 4871,
  "hasan": 4872,
  "tribo": 4873,
  "tora": 4874,
  "camb": 4875,
  "eslobakya": 4876,
  "gao": 4877,
  "pilo": 4878,
  "bulacan": 4879,
  "chard": 4880,
  "height": 4881,
  "nalalaman": 4882,
  "anderson": 4883,
  "ipinagdiriwang": 4884,
  "pitan": 4885,
  "tanghal": 4886,
  "pulit": 4887,
  "reprodu": 4888,
  "nagreresulta": 4889,
  "tigil": 4890,
  "pampang": 4891,
  "pisyal": 4892,
  "rod": 4893,
  "thomas": 4894,
  "heteros": 4895,
  "trang": 4896,
  "uwe": 4897,
  "dimen": 4898,
  "misyong": 4899,
  "nobel": 4900,
  "aca": 4901,
  "haligi": 4902,
  "nakalipas": 4903,
  "ids": 4904,
  "letto": 4905,
  "1972": 4906,
  "bantay": 4907,
  "cial": 4908,
  "spa": 4909,
  "sulok": 4910,
  "alter": 4911,
  "isdang": 4912,
  "krusada": 4913,
  "vina": 4914,
  "mekaniks": 4915,
  "tinuturing": 4916,
  "79": 4917,
  "lunsad": 4918,
  "maur": 4919,
  "mundong": 4920,
  "pares": 4921,
  "abot": 4922,
  "ekwasyong": 4923,
  "montenegro": 4924,
  "tsipre": 4925,
  "1930": 4926,
  "paanong": 4927,
  "sinumang": 4928,
  "jin": 4929,
  "paktor": 4930,
  "mpak": 4931,
  "nakakali": 4932,
  "nangang": 4933,
  "kinabukasan": 4934,
  "tumagal": 4935,
  "kabayo": 4936,
  "makamit": 4937,
  "paglalagay": 4938,
  "paglipat": 4939,
  "sable": 4940,
  "solusyon": 4941,
  "umpa": 4942,
  "53": 4943,
  "lalagyan": 4944,
  "depres": 4945,
  "naisa": 4946,
  "itor": 4947,
  "parta": 4948,
  "tsu": 4949,
  "yahweh": 4950,
  "imahe": 4951,
  "suwesya": 4952,
  "tical": 4953,
  "porma": 4954,
  "gdagan": 4955,
  "antio": 4956,
  "bae": 4957,
  "hio": 4958,
  "internasyonal": 4959,
  "kategorya": 4960,
  "mahina": 4961,
  "pananakit": 4962,
  "sinulat": 4963,
  "ramdam": 4964,
  "atory": 4965,
  "dugtong": 4966,
  "kaaway": 4967,
  "noruwe": 4968,
  "makapangyarihan": 4969,
  "power": 4970,
  "bahagyang": 4971,
  "katapusan": 4972,
  "kumakain": 4973,
  "market": 4974,
  "regular": 4975,
  "kamakailang": 4976,
  "meso": 4977,
  "pangat": 4978,
  "tinapay": 4979,
  "hudyong": 4980,
  "pinagta": 4981,
  "alpabetong": 4982,
  "dinis": 4983,
  "maii": 4984,
  "pumun": 4985,
  "pampala": 4986,
  "uz": 4987,
  "yi": 4988,
  "limuot": 4989,
  "elektro": 4990,
  "lunti": 4991,
  "pano": 4992,
  "apekto": 4993,
  "henerasyon": 4994,
  "nut": 4995,
  "etika": 4996,
  "johan": 4997,
  "linggu": 4998,
  "zar": 4999,
  "sinakop": 5000,
  "gumaganap": 5001,
  "komn": 5002,
  "pales": 5003,
  "positibong": 5004,
  "domes": 5005,
  "lehisla": 5006,
  "magpahanggang": 5007,
  "domini": 5008,
  "kono": 5009,
  "under": 5010,
  "ela": 5011,
  "humiwalay": 5012,
  "kwa": 5013,
  "nanirahan": 5014,
  "emp": 5015,
  "kaguluhan": 5016,
  "larangang": 5017,
  "budista": 5018,
  "pananampalatayang": 5019,
  "direktor": 5020,
  "gatas": 5021,
  "kinakailangang": 5022,
  "kinilala": 5023,
  "micro": 5024,
  "pagsapit": 5025,
  "green": 5026,
  "pampanga": 5027,
  "sibo": 5028,
  "felipe": 5029,
  "bayag": 5030,
  "pagkatao": 5031,
  "pangangatawan": 5032,
  "oy": 5033,
  "sumasakop": 5034,
  "bour": 5035,
  "ibay": 5036,
  "kaligtasan": 5037,
  "mr": 5038,
  "makuha": 5039,
  "dalampasigan": 5040,
  "klasipi": 5041,
  "indo": 5042,
  "mahan": 5043,
  "text": 5044,
  "inihayag": 5045,
  "odiseo": 5046,
  "monote": 5047,
  "taasang": 5048,
  "rungan": 5049,
  "gulay": 5050,
  "mbinasyon": 5051,
  "nahu": 5052,
  "alig": 5053,
  "chang": 5054,
  "estrada": 5055,
  "dakila": 5056,
  "daryong": 5057,
  "ginagamitan": 5058,
  "nahalal": 5059,
  "alle": 5060,
  "mpakan": 5061,
  "ngayong": 5062,
  "pagpapalit": 5063,
  "sano": 5064,
  "uran": 5065,
  "black": 5066,
  "ento": 5067,
  "likadong": 5068,
  "rates": 5069,
  "sumasaklaw": 5070,
  "koponan": 5071,
  "nakaw": 5072,
  "talo": 5073,
  "ebidensiyang": 5074,
  "hilagaang": 5075,
  "pinakamalaki": 5076,
  "kagus": 5077,
  "awiting": 5078,
  "halan": 5079,
  "komnenos": 5080,
  "parla": 5081,
  "max": 5082,
  "lisan": 5083,
  "stri": 5084,
  "web": 5085,
  "chel": 5086,
  "pakinabang": 5087,
  "yule": 5088,
  "natalo": 5089,
  "persa": 5090,
  "puang": 5091,
  "cano": 5092,
  "nakasulat": 5093,
  "aposto": 5094,
  "bisita": 5095,
  "muth": 5096,
  "ition": 5097,
  "lumalabas": 5098,
  "mayaman": 5099,
  "pumunta": 5100,
  "galak": 5101,
  "kabaligtaran": 5102,
  "nagmungkahi": 5103,
  "pinlandiya": 5104,
  "baryo": 5105,
  "gumagalaw": 5106,
  "lumaki": 5107,
  "pene": 5108,
  "maunlad": 5109,
  "tondo": 5110,
  "kari": 5111,
  "lor": 5112,
  "nagsagawa": 5113,
  "alternati": 5114,
  "lius": 5115,
  "albanya": 5116,
  "halo": 5117,
  "lao": 5118,
  "richard": 5119,
  "panag": 5120,
  "patriar": 5121,
  "duktor": 5122,
  "tunan": 5123,
  "alipin": 5124,
  "gabay": 5125,
  "kwantum": 5126,
  "mangangalakal": 5127,
  "pinangalanan": 5128,
  "1939": 5129,
  "bron": 5130,
  "hesu": 5131,
  "ith": 5132,
  "pagsasanib": 5133,
  "thy": 5134,
  "crispin": 5135,
  "hagi": 5136,
  "dumi": 5137,
  "maiwasan": 5138,
  "phil": 5139,
  "itiko": 5140,
  "latang": 5141,
  "paglitaw": 5142,
  "pinamagatang": 5143,
  "2014": 5144,
  "enta": 5145,
  "kinakatawan": 5146,
  "pagtatayo": 5147,
  "tagapangasiwa": 5148,
  "arabia": 5149,
  "bagama": 5150,
  "kamali": 5151,
  "makipag": 5152,
  "pinakamata": 5153,
  "serbisyong": 5154,
  "400": 5155,
  "dinastiya": 5156,
  "kanser": 5157,
  "malta": 5158,
  "palarong": 5159,
  "labindalawang": 5160,
  "pansamantalang": 5161,
  "gla": 5162,
  "glu": 5163,
  "kumuha": 5164,
  "milag": 5165,
  "pandama": 5166,
  "silla": 5167,
  "unsad": 5168,
  "whit": 5169,
  "interaksiyon": 5170,
  "mbat": 5171,
  "pagkuha": 5172,
  "pagpapakita": 5173,
  "karu": 5174,
  "masyong": 5175,
  "osop": 5176,
  "kapakanan": 5177,
  "kolonyal": 5178,
  "pagkakaisa": 5179,
  "pagkakatuklas": 5180,
  "rega": 5181,
  "cian": 5182,
  "institu": 5183,
  "samba": 5184,
  "bilisang": 5185,
  "pp": 5186,
  "pananagu": 5187,
  "katolis": 5188,
  "benedi": 5189,
  "islamiko": 5190,
  "laang": 5191,
  "marunong": 5192,
  "mam": 5193,
  "nakipag": 5194,
  "pabor": 5195,
  "kabihasnan": 5196,
  "konseptong": 5197,
  "rulot": 5198,
  "syn": 5199,
  "benya": 5200,
  "salakay": 5201,
  "180": 5202,
  "buhayan": 5203,
  "ipinadala": 5204,
  "tela": 5205,
  "romanong": 5206,
  "98": 5207,
  "astron": 5208,
  "pagsulong": 5209,
  "patungkol": 5210,
  "ruta": 5211,
  "scri": 5212,
  "1971": 5213,
  "mabilisang": 5214,
  "cap": 5215,
  "petisyon": 5216,
  "1941": 5217,
  "angalang": 5218,
  "bersyon": 5219,
  "radio": 5220,
  "right": 5221,
  "tunin": 5222,
  "mod": 5223,
  "mum": 5224,
  "tumpak": 5225,
  "dai": 5226,
  "toku": 5227,
  "rumanya": 5228,
  "blg": 5229,
  "nanging": 5230,
  "tipon": 5231,
  "tumataas": 5232,
  "2015": 5233,
  "aktibidad": 5234,
  "nagba": 5235,
  "reporma": 5236,
  "dolyar": 5237,
  "puerto": 5238,
  "vic": 5239,
  "nico": 5240,
  "ster": 5241,
  "gulong": 5242,
  "pagsisimula": 5243,
  "kamakailan": 5244,
  "responsable": 5245,
  "1920": 5246,
  "impek": 5247,
  "sentrong": 5248,
  "62": 5249,
  "arso": 5250,
  "sinabing": 5251,
  "pau": 5252,
  "pikasyon": 5253,
  "tris": 5254,
  "tine": 5255,
  "vii": 5256,
  "age": 5257,
  "asin": 5258,
  "cau": 5259,
  "ktibo": 5260,
  "magkapatid": 5261,
  "mpong": 5262,
  "chal": 5263,
  "gam": 5264,
  "hingi": 5265,
  "rad": 5266,
  "talata": 5267,
  "kinalaman": 5268,
  "nagpakita": 5269,
  "pampubliko": 5270,
  "trin": 5271,
  "teolohiya": 5272,
  "huming": 5273,
  "lena": 5274,
  "observ": 5275,
  "zeus": 5276,
  "ix": 5277,
  "lahing": 5278,
  "bonifa": 5279,
  "bulgarya": 5280,
  "distan": 5281,
  "inilipat": 5282,
  "liwasan": 5283,
  "fal": 5284,
  "hikayat": 5285,
  "pakikipagka": 5286,
  "ony": 5287,
  "estudyante": 5288,
  "kailanman": 5289,
  "bosnia": 5290,
  "pinakaunang": 5291,
  "himagsik": 5292,
  "ibinibigay": 5293,
  "kasarin": 5294,
  "mary": 5295,
  "nagbu": 5296,
  "palagi": 5297,
  "pumayag": 5298,
  "asidong": 5299,
  "henesis": 5300,
  "alala": 5301,
  "atong": 5302,
  "mahaba": 5303,
  "pila": 5304,
  "inila": 5305,
  "kami": 5306,
  "proton": 5307,
  "totoong": 5308,
  "awitin": 5309,
  "laganap": 5310,
  "loo": 5311,
  "manok": 5312,
  "naiiba": 5313,
  "nanggaling": 5314,
  "paghuhu": 5315,
  "bibi": 5316,
  "klu": 5317,
  "salang": 5318,
  "sulu": 5319,
  "bonifacio": 5320,
  "konstru": 5321,
  "khan": 5322,
  "logong": 5323,
  "paul": 5324,
  "batikano": 5325,
  "deri": 5326,
  "kahalili": 5327,
  "menor": 5328,
  "pagkakasun": 5329,
  "pagtutu": 5330,
  "sandatahang": 5331,
  "emos": 5332,
  "isinilang": 5333,
  "korpo": 5334,
  "malubhang": 5335,
  "blu": 5336,
  "iro": 5337,
  "ium": 5338,
  "kabanata": 5339,
  "liman": 5340,
  "paghahambing": 5341,
  "ayaw": 5342,
  "nari": 5343,
  "pagkakakilanlan": 5344,
  "probabilidad": 5345,
  "zy": 5346,
  "galacia": 5347,
  "pagkalipas": 5348,
  "damdaming": 5349,
  "enna": 5350,
  "bacteria": 5351,
  "paligsahan": 5352,
  "hatol": 5353,
  "prutas": 5354,
  "grapo": 5355,
  "kabahagi": 5356,
  "nangungunang": 5357,
  "1948": 5358,
  "alehan": 5359,
  "ceae": 5360,
  "gumanap": 5361,
  "mabuhay": 5362,
  "makapagpa": 5363,
  "sexual": 5364,
  "litis": 5365,
  "rebolusyong": 5366,
  "karbon": 5367,
  "siyonal": 5368,
  "kasintahan": 5369,
  "matibay": 5370,
  "fla": 5371,
  "1940": 5372,
  "empi": 5373,
  "fut": 5374,
  "iniulat": 5375,
  "lega": 5376,
  "luhang": 5377,
  "align": 5378,
  "64": 5379,
  "erang": 5380,
  "hintulutan": 5381,
  "mori": 5382,
  "yama": 5383,
  "paskuwa": 5384,
  "mbot": 5385,
  "tugtugin": 5386,
  "abra": 5387,
  "arkitek": 5388,
  "edisyon": 5389,
  "lasa": 5390,
  "nagsisi": 5391,
  "patan": 5392,
  "puwang": 5393,
  "sabihing": 5394,
  "shia": 5395,
  "kasarinlan": 5396,
  "katolikong": 5397,
  "gatan": 5398,
  "hentil": 5399,
  "hera": 5400,
  "karangalan": 5401,
  "bp": 5402,
  "board": 5403,
  "ikaw": 5404,
  "mpas": 5405,
  "mena": 5406,
  "kagubatan": 5407,
  "tsek": 5408,
  "1949": 5409,
  "botan": 5410,
  "nit": 5411,
  "pambatas": 5412,
  "verde": 5413,
  "magsasaka": 5414,
  "panlaban": 5415,
  "reinmuth": 5416,
  "senador": 5417,
  "independi": 5418,
  "inip": 5419,
  "katuwid": 5420,
  "mamamayang": 5421,
  "manang": 5422,
  "mexi": 5423,
  "spi": 5424,
  "tebra": 5425,
  "beijing": 5426,
  "pinakamahusay": 5427,
  "who": 5428,
  "kaparehong": 5429,
  "people": 5430,
  "gue": 5431,
  "nini": 5432,
  "singapo": 5433,
  "tokyo": 5434,
  "1999": 5435,
  "ilaw": 5436,
  "palad": 5437,
  "pahayagan": 5438,
  "singapore": 5439,
  "makati": 5440,
  "paggalaw": 5441,
  "kayang": 5442,
  "malayan": 5443,
  "nakasalalay": 5444,
  "kel": 5445,
  "lihim": 5446,
  "eslobenya": 5447,
  "osla": 5448,
  "sop": 5449,
  "cavite": 5450,
  "mamas": 5451,
  "pic": 5452,
  "sumailalim": 5453,
  "cean": 5454,
  "karamdamang": 5455,
  "book": 5456,
  "inalis": 5457,
  "kalendaryong": 5458,
  "estadistika": 5459,
  "hall": 5460,
  "lalang": 5461,
  "alehandri": 5462,
  "erra": 5463,
  "mpus": 5464,
  "ngu": 5465,
  "observatory": 5466,
  "humahantong": 5467,
  "sim": 5468,
  "ili": 5469,
  "aprikano": 5470,
  "dinisenyo": 5471,
  "mapu": 5472,
  "mensahe": 5473,
  "parok": 5474,
  "binibigyan": 5475,
  "gubat": 5476,
  "ev": 5477,
  "tiwala": 5478,
  "1938": 5479,
  "hima": 5480,
  "leeg": 5481,
  "dokumento": 5482,
  "madre": 5483,
  "nobelang": 5484,
  "carbon": 5485,
  "erba": 5486,
  "0000": 5487,
  "africa": 5488,
  "drama": 5489,
  "iel": 5490,
  "paglusob": 5491,
  "ful": 5492,
  "gahan": 5493,
  "paggalang": 5494,
  "problemang": 5495,
  "aktor": 5496,
  "britaniko": 5497,
  "dalisay": 5498,
  "estonya": 5499,
  "heli": 5500,
  "karis": 5501,
  "kantidad": 5502,
  "noruwega": 5503,
  "pinagsasa": 5504,
  "cin": 5505,
  "memor": 5506,
  "tubong": 5507,
  "52": 5508,
  "atra": 5509,
  "bulok": 5510,
  "heograpiya": 5511,
  "mamu": 5512,
  "pakikitung": 5513,
  "pilit": 5514,
  "atwiran": 5515,
  "enerhiyang": 5516,
  "kolehiyong": 5517,
  "madali": 5518,
  "halong": 5519,
  "kilusan": 5520,
  "nate": 5521,
  "otto": 5522,
  "ganda": 5523,
  "madla": 5524,
  "obando": 5525,
  "tto": 5526,
  "vice": 5527,
  "1946": 5528,
  "alexandria": 5529,
  "balan": 5530,
  "kabundu": 5531,
  "latbiya": 5532,
  "alsa": 5533,
  "babawal": 5534,
  "hangganang": 5535,
  "libri": 5536,
  "obserbasyon": 5537,
  "fir": 5538,
  "mm": 5539,
  "aktuwal": 5540,
  "mya": 5541,
  "now": 5542,
  "pagtatanggol": 5543,
  "sauro": 5544,
  "andron": 5545,
  "bizan": 5546,
  "ree": 5547,
  "rei": 5548,
  "basket": 5549,
  "integ": 5550,
  "masalimuot": 5551,
  "sri": 5552,
  "artis": 5553,
  "gaano": 5554,
  "hanang": 5555,
  "petsang": 5556,
  "sias": 5557,
  "160": 5558,
  "1933": 5559,
  "artipisyal": 5560,
  "coc": 5561,
  "laborator": 5562,
  "lagnat": 5563,
  "season": 5564,
  "simon": 5565,
  "1965": 5566,
  "futbol": 5567,
  "pagsunod": 5568,
  "mabigat": 5569,
  "upo": 5570,
  "ess": 5571,
  "kurso": 5572,
  "lux": 5573,
  "tsekya": 5574,
  "kistan": 5575,
  "mapang": 5576,
  "maganda": 5577,
  "matataas": 5578,
  "propor": 5579,
  "dece": 5580,
  "gaga": 5581,
  "kaasa": 5582,
  "lugod": 5583,
  "natanggap": 5584,
  "ness": 5585,
  "pambata": 5586,
  "park": 5587,
  "transportasyon": 5588,
  "1898": 5589,
  "katas": 5590,
  "malayo": 5591,
  "uugali": 5592,
  "newton": 5593,
  "absolu": 5594,
  "av": 5595,
  "maisa": 5596,
  "mediteran": 5597,
  "pinakamahalagang": 5598,
  "titulong": 5599,
  "makaagham": 5600,
  "nagresulta": 5601,
  "rias": 5602,
  "substansiya": 5603,
  "torre": 5604,
  "econ": 5605,
  "kabit": 5606,
  "tindi": 5607,
  "wagan": 5608,
  "clas": 5609,
  "namamahala": 5610,
  "nakaugaliang": 5611,
  "pangangaral": 5612,
  "napakala": 5613,
  "organiz": 5614,
  "pagbabawas": 5615,
  "sanay": 5616,
  "tipo": 5617,
  "katamtamang": 5618,
  "maituturing": 5619,
  "nagtagal": 5620,
  "pagpapatuloy": 5621,
  "hena": 5622,
  "jos": 5623,
  "ksyon": 5624,
  "palatandaan": 5625,
  "pinatay": 5626,
  "sea": 5627,
  "dumadaan": 5628,
  "95": 5629,
  "channel": 5630,
  "como": 5631,
  "imahen": 5632,
  "probinsiya": 5633,
  "bakla": 5634,
  "bigang": 5635,
  "arsobis": 5636,
  "hydro": 5637,
  "nagli": 5638,
  "nauukol": 5639,
  "teknikal": 5640,
  "over": 5641,
  "pangmilitar": 5642,
  "papasok": 5643,
  "trus": 5644,
  "92": 5645,
  "rocca": 5646,
  "seguridad": 5647,
  "baril": 5648,
  "tadeo": 5649,
  "77": 5650,
  "biglang": 5651,
  "inaldo": 5652,
  "londres": 5653,
  "marino": 5654,
  "nagdadala": 5655,
  "oryen": 5656,
  "alexi": 5657,
  "deuter": 5658,
  "lupaing": 5659,
  "personalidad": 5660,
  "road": 5661,
  "samakatuwid": 5662,
  "altapresyon": 5663,
  "isipang": 5664,
  "met": 5665,
  "narito": 5666,
  "88": 5667,
  "daglat": 5668,
  "ginanap": 5669,
  "mbalik": 5670,
  "pormula": 5671,
  "soli": 5672,
  "uela": 5673,
  "laging": 5674,
  "proteksiyon": 5675,
  "vietnam": 5676,
  "wisa": 5677,
  "yuang": 5678,
  "gampanin": 5679,
  "hapunan": 5680,
  "nagsasabi": 5681,
  "nica": 5682,
  "pok": 5683,
  "talampakan": 5684,
  "trini": 5685,
  "year": 5686,
  "bihirang": 5687,
  "komon": 5688,
  "clo": 5689,
  "dado": 5690,
  "lupon": 5691,
  "muros": 5692,
  "mika": 5693,
  "tagapagsa": 5694,
  "aparatong": 5695,
  "sog": 5696,
  "aguinaldo": 5697,
  "ekonomiyang": 5698,
  "form": 5699,
  "gaan": 5700,
  "paglawak": 5701,
  "tagpo": 5702,
  "1969": 5703,
  "jul": 5704,
  "regi": 5705,
  "sektor": 5706,
  "sermon": 5707,
  "this": 5708,
  "bulubundukin": 5709,
  "ou": 5710,
  "record": 5711,
  "ach": 5712,
  "hinirang": 5713,
  "istruktura": 5714,
  "katolisismo": 5715,
  "inhinyeriyang": 5716,
  "itinuro": 5717,
  "mea": 5718,
  "nagsisilbi": 5719,
  "tangan": 5720,
  "matata": 5721,
  "pagwa": 5722,
  "tsin": 5723,
  "arsobispo": 5724,
  "multi": 5725,
  "nagng": 5726,
  "namuhay": 5727,
  "pamang": 5728,
  "rante": 5729,
  "batangas": 5730,
  "hua": 5731,
  "isinalin": 5732,
  "mark": 5733,
  "nagkamit": 5734,
  "pagtingin": 5735,
  "yad": 5736,
  "pagtulungan": 5737,
  "yugosla": 5738,
  "barya": 5739,
  "prakti": 5740,
  "riles": 5741,
  "binuksan": 5742,
  "bule": 5743,
  "doktor": 5744,
  "ipag": 5745,
  "inis": 5746,
  "lito": 5747,
  "bagyo": 5748,
  "games": 5749,
  "himagsikang": 5750,
  "mentum": 5751,
  "wata": 5752,
  "himik": 5753,
  "salamin": 5754,
  "sekwensiya": 5755,
  "helen": 5756,
  "lumaon": 5757,
  "nakakalipas": 5758,
  "aten": 5759,
  "disorder": 5760,
  "express": 5761,
  "nagbago": 5762,
  "bud": 5763,
  "ecu": 5764,
  "naitatag": 5765,
  "ved": 5766,
  "fra": 5767,
  "gada": 5768,
  "intramuros": 5769,
  "kosmo": 5770,
  "deno": 5771,
  "kromosoma": 5772,
  "come": 5773,
  "ehipsiyo": 5774,
  "inggles": 5775,
  "kompan": 5776,
  "madilim": 5777,
  "suwisa": 5778,
  "aktibo": 5779,
  "basi": 5780,
  "gusaling": 5781,
  "kababaihang": 5782,
  "relasyong": 5783,
  "kob": 5784,
  "matatanda": 5785,
  "nagsasanhi": 5786,
  "polar": 5787,
  "inangkin": 5788,
  "nakakatulong": 5789,
  "kompanyang": 5790,
  "ll": 5791,
  "nakaraan": 5792,
  "pagtatapos": 5793,
  "post": 5794,
  "alexios": 5795,
  "constantius": 5796,
  "mado": 5797,
  "protek": 5798,
  "sangkatauhan": 5799,
  "babilonia": 5800,
  "fen": 5801,
  "silo": 5802,
  "subok": 5803,
  "tata": 5804,
  "tribusyon": 5805,
  "20px": 5806,
  "hinati": 5807,
  "kathang": 5808,
  "panghi": 5809,
  "allele": 5810,
  "demo": 5811,
  "pagdi": 5812,
  "part": 5813,
  "riano": 5814,
  "welt": 5815,
  "zee": 5816,
  "aven": 5817,
  "ced": 5818,
  "detalye": 5819,
  "group": 5820,
  "humingi": 5821,
  "kwen": 5822,
  "rico": 5823,
  "zei": 5824,
  "byo": 5825,
  "bughaw": 5826,
  "hidro": 5827,
  "1936": 5828,
  "administrati": 5829,
  "dental": 5830,
  "ibn": 5831,
  "kritiko": 5832,
  "ngalan": 5833,
  "yento": 5834,
  "bakter": 5835,
  "zil": 5836,
  "binan": 5837,
  "broad": 5838,
  "medyo": 5839,
  "akyat": 5840,
  "bahagdan": 5841,
  "ipakita": 5842,
  "music": 5843,
  "organo": 5844,
  "tim": 5845,
  "belar": 5846,
  "indiyano": 5847,
  "london": 5848,
  "puri": 5849,
  "daga": 5850,
  "ipinaliwanag": 5851,
  "minor": 5852,
  "oto": 5853,
  "pagtutuli": 5854,
  "pandaray": 5855,
  "petro": 5856,
  "praktikal": 5857,
  "onary": 5858,
  "panganak": 5859,
  "chin": 5860,
  "december": 5861,
  "hista": 5862,
  "mayaya": 5863,
  "paglilingkod": 5864,
  "butil": 5865,
  "diperensiyal": 5866,
  "diyosa": 5867,
  "emba": 5868,
  "yog": 5869,
  "equ": 5870,
  "led": 5871,
  "orden": 5872,
  "tore": 5873,
  "turko": 5874,
  "bino": 5875,
  "bran": 5876,
  "body": 5877,
  "ikalimang": 5878,
  "kapareha": 5879,
  "maayos": 5880,
  "nawalan": 5881,
  "ehersisyong": 5882,
  "nueva": 5883,
  "russian": 5884,
  "sikolohikal": 5885,
  "engine": 5886,
  "kanonikal": 5887,
  "litiko": 5888,
  "tipikal": 5889,
  "drado": 5890,
  "mondovi": 5891,
  "pangalawa": 5892,
  "saudi": 5893,
  "siyentipikong": 5894,
  "ungkulan": 5895,
  "ahe": 5896,
  "luther": 5897,
  "ise": 5898,
  "makagawa": 5899,
  "nilalarawan": 5900,
  "pangkalakalan": 5901,
  "eskwe": 5902,
  "este": 5903,
  "kalahating": 5904,
  "mekanismo": 5905,
  "pagal": 5906,
  "sensiti": 5907,
  "seremonya": 5908,
  "bou": 5909,
  "lau": 5910,
  "wedeng": 5911,
  "esyo": 5912,
  "isu": 5913,
  "sca": 5914,
  "andronikos": 5915,
  "paghinga": 5916,
  "patnu": 5917,
  "pinagsamang": 5918,
  "rya": 5919,
  "eroplano": 5920,
  "iyo": 5921,
  "katayuang": 5922,
  "ein": 5923,
  "klo": 5924,
  "mediteraneo": 5925,
  "mone": 5926,
  "pagmamahal": 5927,
  "roc": 5928,
  "salo": 5929,
  "talang": 5930,
  "tanim": 5931,
  "asang": 5932,
  "atom": 5933,
  "deve": 5934,
  "hig": 5935,
  "kawan": 5936,
  "kabuoan": 5937,
  "mith": 5938,
  "tech": 5939,
  "tinanong": 5940,
  "occi": 5941,
  "panau": 5942,
  "rep": 5943,
  "viii": 5944,
  "bid": 5945,
  "biyolohikal": 5946,
  "chimpan": 5947,
  "komonwelt": 5948,
  "uusap": 5949,
  "ware": 5950,
  "ada": 5951,
  "compu": 5952,
  "thern": 5953,
  "1917": 5954,
  "mias": 5955,
  "nagsasari": 5956,
  "pagsalakay": 5957,
  "riko": 5958,
  "upuan": 5959,
  "bile": 5960,
  "genesis": 5961,
  "kreasyon": 5962,
  "biti": 5963,
  "child": 5964,
  "huwa": 5965,
  "ilyo": 5966,
  "internasyunal": 5967,
  "istraktura": 5968,
  "oksiheno": 5969,
  "pagkakaibang": 5970,
  "nauna": 5971,
  "ross": 5972,
  "halang": 5973,
  "karahasan": 5974,
  "kinikilalang": 5975,
  "mpalataya": 5976,
  "siru": 5977,
  "tukoy": 5978,
  "tungan": 5979,
  "aids": 5980,
  "lutas": 5981,
  "pilosop": 5982,
  "comp": 5983,
  "ensis": 5984,
  "kaugaliang": 5985,
  "hed": 5986,
  "kursong": 5987,
  "pamama": 5988,
  "sayan": 5989,
  "alaala": 5990,
  "dibisyon": 5991,
  "kahalintulad": 5992,
  "pilosopong": 5993,
  "austral": 5994,
  "ipaliwanag": 5995,
  "iri": 5996,
  "malayong": 5997,
  "paro": 5998,
  "aalis": 5999,
  "nagwagi": 6000,
  "namumuno": 6001,
  "plane": 6002,
  "somali": 6003,
  "dumaan": 6004,
  "motor": 6005,
  "1929": 6006,
  "kahawig": 6007,
  "likuran": 6008,
  "pinangalanang": 6009,
  "pumi": 6010,
  "rano": 6011,
  "tupa": 6012,
  "heteroseksuwal": 6013,
  "klini": 6014,
  "krisis": 6015,
  "lipad": 6016,
  "mamba": 6017,
  "ocean": 6018,
  "organisasyong": 6019,
  "angasiwaan": 6020,
  "christian": 6021,
  "panghimpapawid": 6022,
  "society": 6023,
  "along": 6024,
  "common": 6025,
  "kabundukan": 6026,
  "nagngangalang": 6027,
  "palu": 6028,
  "demokrasya": 6029,
  "estilo": 6030,
  "glio": 6031,
  "katiya": 6032,
  "lata": 6033,
  "naimpluwensiyahan": 6034,
  "pola": 6035,
  "tawad": 6036,
  "taglamig": 6037,
  "estasyong": 6038,
  "kabati": 6039,
  "konsen": 6040,
  "konserbati": 6041,
  "nasusulat": 6042,
  "numero": 6043,
  "pampanitikan": 6044,
  "act": 6045,
  "babasa": 6046,
  "habi": 6047,
  "ibigan": 6048,
  "itinakda": 6049,
  "kriminal": 6050,
  "eko": 6051,
  "neander": 6052,
  "1916": 6053,
  "compan": 6054,
  "taunang": 6055,
  "yung": 6056,
  "eti": 6057,
  "fon": 6058,
  "gihan": 6059,
  "kahilagaang": 6060,
  "binti": 6061,
  "kapalaran": 6062,
  "labasan": 6063,
  "landas": 6064,
  "metriya": 6065,
  "76": 6066,
  "eas": 6067,
  "kasuotan": 6068,
  "nagpapakitang": 6069,
  "pagsisiyasat": 6070,
  "balakang": 6071,
  "african": 6072,
  "bine": 6073,
  "ekwasyon": 6074,
  "hensiya": 6075,
  "kapara": 6076,
  "lyn": 6077,
  "sapiens": 6078,
  "tions": 6079,
  "71": 6080,
  "chimpanzee": 6081,
  "dona": 6082,
  "enter": 6083,
  "naglalaro": 6084,
  "pagna": 6085,
  "pantig": 6086,
  "pian": 6087,
  "far": 6088,
  "kalinangang": 6089,
  "mabi": 6090,
  "naglakbay": 6091,
  "princi": 6092,
  "tres": 6093,
  "tz": 6094,
  "agus": 6095,
  "karamihang": 6096,
  "kredong": 6097,
  "pagtatangka": 6098,
  "idinagdag": 6099,
  "kasingkahulugan": 6100,
  "matukoy": 6101,
  "rangal": 6102,
  "tumit": 6103,
  "commun": 6104,
  "nagbuhat": 6105,
  "hudaismong": 6106,
  "liwasang": 6107,
  "nakapagpa": 6108,
  "lamat": 6109,
  "naglabas": 6110,
  "nagsilbing": 6111,
  "torin": 6112,
  "tumanggi": 6113,
  "daniel": 6114,
  "embaha": 6115,
  "epektibong": 6116,
  "gayang": 6117,
  "kunin": 6118,
  "mpalang": 6119,
  "panalangin": 6120,
  "berlin": 6121,
  "bola": 6122,
  "indian": 6123,
  "malalang": 6124,
  "potensiyal": 6125,
  "sansk": 6126,
  "torinese": 6127,
  "1931": 6128,
  "arap": 6129,
  "efeso": 6130,
  "magdalena": 6131,
  "organong": 6132,
  "pop": 6133,
  "tinaguriang": 6134,
  "kromosomang": 6135,
  "paliparan": 6136,
  "tabato": 6137,
  "asukal": 6138,
  "harapan": 6139,
  "hog": 6140,
  "ipinakita": 6141,
  "likang": 6142,
  "munan": 6143,
  "nayon": 6144,
  "dyat": 6145,
  "kwil": 6146,
  "mpati": 6147,
  "natitira": 6148,
  "opisina": 6149,
  "dez": 6150,
  "pinagsama": 6151,
  "umaasa": 6152,
  "iting": 6153,
  "pigilan": 6154,
  "tinukoy": 6155,
  "600": 6156,
  "hiro": 6157,
  "bitiw": 6158,
  "kabutihan": 6159,
  "makasaysayang": 6160,
  "padding": 6161,
  "permanenteng": 6162,
  "alej": 6163,
  "bizantino": 6164,
  "nagtagumpay": 6165,
  "pagsasalita": 6166,
  "pangmata": 6167,
  "bana": 6168,
  "banan": 6169,
  "brid": 6170,
  "buntot": 6171,
  "dow": 6172,
  "nim": 6173,
  "paglilipat": 6174,
  "alexander": 6175,
  "grasyon": 6176,
  "mine": 6177,
  "pahintulot": 6178,
  "porta": 6179,
  "katarungan": 6180,
  "twiran": 6181,
  "gantimpalang": 6182,
  "inaasahan": 6183,
  "kasakit": 6184,
  "organization": 6185,
  "tau": 6186,
  "gini": 6187,
  "lion": 6188,
  "nagpu": 6189,
  "sobiyet": 6190,
  "1932": 6191,
  "bakas": 6192,
  "cco": 6193,
  "huris": 6194,
  "pektong": 6195,
  "tempora": 6196,
  "tribong": 6197,
  "ortodo": 6198,
  "pananagutan": 6199,
  "pandaigdigan": 6200,
  "yugtong": 6201,
  "ahedres": 6202,
  "hou": 6203,
  "konstitusyon": 6204,
  "magkakaibang": 6205,
  "paglilinaw": 6206,
  "patriarka": 6207,
  "pirasyon": 6208,
  "science": 6209,
  "dinig": 6210,
  "nagtataglay": 6211,
  "reaksiyon": 6212,
  "arte": 6213,
  "balak": 6214,
  "sundalong": 6215,
  "husto": 6216,
  "nagagamit": 6217,
  "elektri": 6218,
  "ktibong": 6219,
  "lista": 6220,
  "patu": 6221,
  "pakpak": 6222,
  "ports": 6223,
  "ginaga": 6224,
  "pse": 6225,
  "vian": 6226,
  "itinuturo": 6227,
  "gagawin": 6228,
  "hot": 6229,
  "kalangitan": 6230,
  "langan": 6231,
  "ligure": 6232,
  "manda": 6233,
  "namumuhay": 6234,
  "rama": 6235,
  "abstra": 6236,
  "gram": 6237,
  "kaan": 6238,
  "konsi": 6239,
  "leyte": 6240,
  "ondo": 6241,
  "pagtitipon": 6242,
  "puki": 6243,
  "sug": 6244,
  "tumutulong": 6245,
  "ihi": 6246,
  "konstruksiyon": 6247,
  "rianismo": 6248,
  "tt": 6249,
  "imbesti": 6250,
  "listahan": 6251,
  "white": 6252,
  "kg": 6253,
  "olandes": 6254,
  "routema": 6255,
  "routemap": 6256,
  "arkeolohikal": 6257,
  "inumin": 6258,
  "ceno": 6259,
  "kaparaanan": 6260,
  "klasiko": 6261,
  "pundasyon": 6262,
  "corpor": 6263,
  "ibayong": 6264,
  "ena": 6265,
  "medya": 6266,
  "hard": 6267,
  "hipotesis": 6268,
  "ikatlo": 6269,
  "pagkatuto": 6270,
  "pakiramdam": 6271,
  "pambabae": 6272,
  "vision": 6273,
  "heogra": 6274,
  "hukom": 6275,
  "kamalayan": 6276,
  "unido": 6277,
  "akay": 6278,
  "belarus": 6279,
  "fron": 6280,
  "lalamunan": 6281,
  "limi": 6282,
  "macedon": 6283,
  "pagpapaliwanag": 6284,
  "sandaling": 6285,
  "vio": 6286,
  "bulebar": 6287,
  "ginu": 6288,
  "ideyang": 6289,
  "arroyo": 6290,
  "brazil": 6291,
  "sandali": 6292,
  "unlaran": 6293,
  "1942": 6294,
  "aser": 6295,
  "malinis": 6296,
  "medal": 6297,
  "mulaklak": 6298,
  "parusa": 6299,
  "puntong": 6300,
  "ski": 6301,
  "sapil": 6302,
  "baut": 6303,
  "hesukristo": 6304,
  "inaangkin": 6305,
  "ninoy": 6306,
  "radya": 6307,
  "libutan": 6308,
  "life": 6309,
  "lutuing": 6310,
  "nakatayo": 6311,
  "tagapagpaganap": 6312,
  "tunggali": 6313,
  "jean": 6314,
  "dasal": 6315,
  "arko": 6316,
  "hura": 6317,
  "dependen": 6318,
  "panang": 6319,
  "viral": 6320,
  "bisig": 6321,
  "eliza": 6322,
  "numer": 6323,
  "politan": 6324,
  "vienna": 6325,
  "hem": 6326,
  "kinakain": 6327,
  "kumpol": 6328,
  "zer": 6329,
  "alhe": 6330,
  "arhen": 6331,
  "atbp": 6332,
  "bill": 6333,
  "eksak": 6334,
  "male": 6335,
  "mapagkukunan": 6336,
  "tropikal": 6337,
  "tuktok": 6338,
  "mapanganib": 6339,
  "tumulong": 6340,
  "ant": 6341,
  "gagawa": 6342,
  "more": 6343,
  "dahang": 6344,
  "palakasan": 6345,
  "tensiya": 6346,
  "kli": 6347,
  "nakatala": 6348,
  "pagbabawal": 6349,
  "pinakamaagang": 6350,
  "ctus": 6351,
  "end": 6352,
  "naglingkod": 6353,
  "tab": 6354,
  "autoridad": 6355,
  "bulkan": 6356,
  "country": 6357,
  "electron": 6358,
  "july": 6359,
  "karera": 6360,
  "politikal": 6361,
  "ranas": 6362,
  "single": 6363,
  "tanso": 6364,
  "espesyeng": 6365,
  "laboratoryo": 6366,
  "rine": 6367,
  "uc": 6368,
  "cture": 6369,
  "cora": 6370,
  "cotabato": 6371,
  "debate": 6372,
  "sihay": 6373,
  "sumisi": 6374,
  "alas": 6375,
  "nahi": 6376,
  "saglit": 6377,
  "sei": 6378,
  "washing": 6379,
  "estru": 6380,
  "pulu": 6381,
  "puntang": 6382,
  "ukat": 6383,
  "itun": 6384,
  "kagustuhan": 6385,
  "pastol": 6386,
  "prost": 6387,
  "tics": 6388,
  "silanganing": 6389,
  "spesipikong": 6390,
  "taguig": 6391,
  "tungkuling": 6392,
  "1918": 6393,
  "bukan": 6394,
  "first": 6395,
  "alagang": 6396,
  "ehe": 6397,
  "itinalaga": 6398,
  "maipa": 6399,
  "nakaranas": 6400,
  "down": 6401,
  "instrumentong": 6402,
  "pagtatanghal": 6403,
  "1953": 6404,
  "acade": 6405,
  "company": 6406,
  "katanggap": 6407,
  "kagamitang": 6408,
  "kamalian": 6409,
  "mesopo": 6410,
  "maaga": 6411,
  "demonyo": 6412,
  "ethio": 6413,
  "nagpapatuloy": 6414,
  "parisukat": 6415,
  "ranggo": 6416,
  "river": 6417,
  "1974": 6418,
  "burn": 6419,
  "pik": 6420,
  "sapa": 6421,
  "tumakbo": 6422,
  "ated": 6423,
  "disiplinang": 6424,
  "economi": 6425,
  "fol": 6426,
  "isahan": 6427,
  "itinala": 6428,
  "kamang": 6429,
  "opti": 6430,
  "sakra": 6431,
  "sine": 6432,
  "takwil": 6433,
  "yun": 6434,
  "zone": 6435,
  "andres": 6436,
  "golpo": 6437,
  "kayumang": 6438,
  "pagluluto": 6439,
  "bangan": 6440,
  "kapatagan": 6441,
  "lansangang": 6442,
  "lumisan": 6443,
  "alpabeto": 6444,
  "alternatibong": 6445,
  "barba": 6446,
  "hre": 6447,
  "himagsikan": 6448,
  "ihahambing": 6449,
  "patinig": 6450,
  "smith": 6451,
  "tangkilik": 6452,
  "1896": 6453,
  "gtog": 6454,
  "video": 6455,
  "water": 6456,
  "gir": 6457,
  "inilunsad": 6458,
  "maramihan": 6459,
  "sierra": 6460,
  "sios": 6461,
  "angaw": 6462,
  "mami": 6463,
  "nagtatrabaho": 6464,
  "batasan": 6465,
  "klusyon": 6466,
  "maari": 6467,
  "rock": 6468,
  "tate": 6469,
  "ving": 6470,
  "meo": 6471,
  "papuntang": 6472,
  "pagkakatulad": 6473,
  "puntahan": 6474,
  "700": 6475,
  "lanes": 6476,
  "pagsukat": 6477,
  "rox": 6478,
  "watawat": 6479,
  "amoy": 6480,
  "nalaman": 6481,
  "namama": 6482,
  "pinakamalapit": 6483,
  "pinakamaliit": 6484,
  "cent": 6485,
  "health": 6486,
  "larawang": 6487,
  "linga": 6488,
  "malas": 6489,
  "alehandriya": 6490,
  "cop": 6491,
  "gical": 6492,
  "memb": 6493,
  "yam": 6494,
  "karga": 6495,
  "kinon": 6496,
  "marating": 6497,
  "pwersang": 6498,
  "seri": 6499,
  "tanggapin": 6500,
  "pababa": 6501,
  "palaro": 6502,
  "siklo": 6503,
  "atomiko": 6504,
  "einstein": 6505,
  "kayo": 6506,
  "marines": 6507,
  "sai": 6508,
  "napansin": 6509,
  "number": 6510,
  "amp": 6511,
  "offi": 6512,
  "tagpuang": 6513,
  "dumara": 6514,
  "ipinagbabawal": 6515,
  "nakakaraan": 6516,
  "phen": 6517,
  "arawan": 6518,
  "dows": 6519,
  "fan": 6520,
  "kabatiran": 6521,
  "konteksto": 6522,
  "kroasya": 6523,
  "napil": 6524,
  "sti": 6525,
  "sinusuportahan": 6526,
  "tsinong": 6527,
  "tumatagal": 6528,
  "henetikong": 6529,
  "ninyo": 6530,
  "pie": 6531,
  "tulungan": 6532,
  "fun": 6533,
  "inde": 6534,
  "institute": 6535,
  "ktot": 6536,
  "made": 6537,
  "theodosius": 6538,
  "bilin": 6539,
  "elizabeth": 6540,
  "josep": 6541,
  "nukleyar": 6542,
  "rug": 6543,
  "yuma": 6544,
  "1944": 6545,
  "bolyum": 6546,
  "bukid": 6547,
  "genus": 6548,
  "katanungan": 6549,
  "tolohiya": 6550,
  "victorina": 6551,
  "72": 6552,
  "babilonya": 6553,
  "meron": 6554,
  "pagnini": 6555,
  "pagbubuo": 6556,
  "anuman": 6557,
  "kia": 6558,
  "panukala": 6559,
  "2016": 6560,
  "iwan": 6561,
  "maunawaan": 6562,
  "macapagal": 6563,
  "psy": 6564,
  "caro": 6565,
  "molekular": 6566,
  "pagbubukas": 6567,
  "pinamamahala": 6568,
  "siby": 6569,
  "mida": 6570,
  "quran": 6571,
  "1964": 6572,
  "butong": 6573,
  "ikalabing": 6574,
  "itid": 6575,
  "konstan": 6576,
  "korona": 6577,
  "neutron": 6578,
  "planong": 6579,
  "taka": 6580,
  "umano": 6581,
  "malagi": 6582,
  "63": 6583,
  "baw": 6584,
  "libo": 6585,
  "propesor": 6586,
  "washington": 6587,
  "abe": 6588,
  "kalat": 6589,
  "pirma": 6590,
  "ath": 6591,
  "hinaha": 6592,
  "nagpadala": 6593,
  "negros": 6594,
  "rural": 6595,
  "tampok": 6596,
  "balu": 6597,
  "genome": 6598,
  "ones": 6599,
  "paglilitis": 6600,
  "strate": 6601,
  "cae": 6602,
  "pinangunahan": 6603,
  "eskoses": 6604,
  "komer": 6605,
  "mall": 6606,
  "metrong": 6607,
  "mountain": 6608,
  "pakistan": 6609,
  "parangal": 6610,
  "argu": 6611,
  "bihira": 6612,
  "jere": 6613,
  "tase": 6614,
  "zoroast": 6615,
  "nagawang": 6616,
  "pasahero": 6617,
  "sikolohiyang": 6618,
  "adan": 6619,
  "eku": 6620,
  "irlandes": 6621,
  "umpisa": 6622,
  "cape": 6623,
  "chia": 6624,
  "estimulasyon": 6625,
  "iberia": 6626,
  "pagkasira": 6627,
  "1937": 6628,
  "daluyan": 6629,
  "goy": 6630,
  "mahinang": 6631,
  "maharlikang": 6632,
  "nice": 6633,
  "pagpo": 6634,
  "pagkalat": 6635,
  "pagsisikap": 6636,
  "peter": 6637,
  "tuluyan": 6638,
  "yn": 6639,
  "duke": 6640,
  "makabuo": 6641,
  "pagpaparami": 6642,
  "ubo": 6643,
  "83": 6644,
  "doble": 6645,
  "occidental": 6646,
  "rereko": 6647,
  "timoteo": 6648,
  "ukran": 6649,
  "zza": 6650,
  "93": 6651,
  "gano": 6652,
  "nakarating": 6653,
  "pagano": 6654,
  "aklatan": 6655,
  "darating": 6656,
  "koru": 6657,
  "oro": 6658,
  "sibi": 6659,
  "tapon": 6660,
  "tangkang": 6661,
  "gulugod": 6662,
  "ibalik": 6663,
  "matigas": 6664,
  "nagmama": 6665,
  "quan": 6666,
  "valle": 6667,
  "elo": 6668,
  "bulo": 6669,
  "kasalanang": 6670,
  "lingguwis": 6671,
  "naitala": 6672,
  "ope": 6673,
  "integral": 6674,
  "mitolohiya": 6675,
  "sibyla": 6676,
  "tantiya": 6677,
  "aland": 6678,
  "cara": 6679,
  "ipinalabas": 6680,
  "purong": 6681,
  "reper": 6682,
  "1968": 6683,
  "eheku": 6684,
  "limitado": 6685,
  "pagdaka": 6686,
  "1900": 6687,
  "eksaktong": 6688,
  "kumpletong": 6689,
  "sm": 6690,
  "tahimik": 6691,
  "territo": 6692,
  "departa": 6693,
  "kulasyon": 6694,
  "pagde": 6695,
  "ques": 6696,
  "semi": 6697,
  "angkan": 6698,
  "briton": 6699,
  "doktrin": 6700,
  "doktrinang": 6701,
  "german": 6702,
  "ory": 6703,
  "prayle": 6704,
  "tuwa": 6705,
  "1913": 6706,
  "aba": 6707,
  "antibiyo": 6708,
  "daungan": 6709,
  "lado": 6710,
  "luan": 6711,
  "mburgo": 6712,
  "marcion": 6713,
  "relatibong": 6714,
  "titulo": 6715,
  "hitsura": 6716,
  "konklusyon": 6717,
  "paglabag": 6718,
  "asia": 6719,
  "gunan": 6720,
  "museo": 6721,
  "singaw": 6722,
  "1914": 6723,
  "1947": 6724,
  "elementar": 6725,
  "ios": 6726,
  "pagkapangulo": 6727,
  "thala": 6728,
  "tadong": 6729,
  "trado": 6730,
  "arhentina": 6731,
  "dugong": 6732,
  "kunang": 6733,
  "klasipikasyon": 6734,
  "magkaibang": 6735,
  "rebolusyon": 6736,
  "thal": 6737,
  "windows": 6738,
  "diber": 6739,
  "epektong": 6740,
  "kyat": 6741,
  "milagro": 6742,
  "panaginip": 6743,
  "eho": 6744,
  "gdaan": 6745,
  "hustong": 6746,
  "kumpleto": 6747,
  "lopez": 6748,
  "midya": 6749,
  "view": 6750,
  "nakukuha": 6751,
  "pagkabalisa": 6752,
  "social": 6753,
  "computer": 6754,
  "itusyong": 6755,
  "mah": 6756,
  "pinahi": 6757,
  "schi": 6758,
  "bowell": 6759,
  "gumagana": 6760,
  "intu": 6761,
  "itinakwil": 6762,
  "klab": 6763,
  "malimit": 6764,
  "mdaman": 6765,
  "nananaig": 6766,
  "gantimpala": 6767,
  "kapit": 6768,
  "oo": 6769,
  "pagtugon": 6770,
  "saya": 6771,
  "tumutugon": 6772,
  "bihan": 6773,
  "its": 6774,
  "maramihang": 6775,
  "sinisi": 6776,
  "som": 6777,
  "toryo": 6778,
  "vada": 6779,
  "ello": 6780,
  "game": 6781,
  "komplikadong": 6782,
  "minuto": 6783,
  "namumulaklak": 6784,
  "supre": 6785,
  "teles": 6786,
  "tuyong": 6787,
  "aserbayan": 6788,
  "ksong": 6789,
  "reak": 6790,
  "reino": 6791,
  "sinuman": 6792,
  "wanan": 6793,
  "ilagay": 6794,
  "ole": 6795,
  "simbolong": 6796,
  "87": 6797,
  "asyano": 6798,
  "iceland": 6799,
  "nasang": 6800,
  "nilay": 6801,
  "pilato": 6802,
  "develop": 6803,
  "orgas": 6804,
  "pektuhan": 6805,
  "sintesis": 6806,
  "sulong": 6807,
  "tiwa": 6808,
  "trangkaso": 6809,
  "damba": 6810,
  "dikta": 6811,
  "katiyakan": 6812,
  "limitadong": 6813,
  "nazi": 6814,
  "pithe": 6815,
  "senti": 6816,
  "binibigyang": 6817,
  "diskri": 6818,
  "kalagayang": 6819,
  "left": 6820,
  "lehislatura": 6821,
  "pagpapatupad": 6822,
  "astro": 6823,
  "gau": 6824,
  "pangkasaysayan": 6825,
  "estro": 6826,
  "hung": 6827,
  "ibabang": 6828,
  "lumaganap": 6829,
  "dalaw": 6830,
  "jaco": 6831,
  "kasanayang": 6832,
  "napoleon": 6833,
  "igina": 6834,
  "naaa": 6835,
  "nakalagay": 6836,
  "global": 6837,
  "hito": 6838,
  "hai": 6839,
  "homoseks": 6840,
  "kasulatang": 6841,
  "katibayan": 6842,
  "momentum": 6843,
  "pulmonya": 6844,
  "sinang": 6845,
  "tuwid": 6846,
  "ipapa": 6847,
  "kampo": 6848,
  "libre": 6849,
  "sinusundan": 6850,
  "uusig": 6851,
  "ebolusyonaryo": 6852,
  "espesya": 6853,
  "nating": 6854,
  "pansariling": 6855,
  "royal": 6856,
  "ys": 6857,
  "gold": 6858,
  "jeremias": 6859,
  "magkakaroon": 6860,
  "sumusuporta": 6861,
  "tronesyo": 6862,
  "emb": 6863,
  "itinaguyod": 6864,
  "nigeria": 6865,
  "tnan": 6866,
  "impluwensiyang": 6867,
  "sale": 6868,
  "cli": 6869,
  "dyang": 6870,
  "lungang": 6871,
  "nilalapat": 6872,
  "roonan": 6873,
  "arkeologo": 6874,
  "karat": 6875,
  "lev": 6876,
  "naaangkop": 6877,
  "pataas": 6878,
  "pangpagtatalik": 6879,
  "positibo": 6880,
  "sustansiya": 6881,
  "tant": 6882,
  "tuldok": 6883,
  "dyok": 6884,
  "ec": 6885,
  "grap": 6886,
  "inten": 6887,
  "judas": 6888,
  "masyadong": 6889,
  "mur": 6890,
  "angking": 6891,
  "magaling": 6892,
  "pangarap": 6893,
  "sap": 6894,
  "ado": 6895,
  "alhebra": 6896,
  "aws": 6897,
  "colum": 6898,
  "eukaryo": 6899,
  "herodes": 6900,
  "mission": 6901,
  "suliraning": 6902,
  "campo": 6903,
  "impeksiyong": 6904,
  "myo": 6905,
  "meral": 6906,
  "peryo": 6907,
  "shin": 6908,
  "saksi": 6909,
  "solar": 6910,
  "terminal": 6911,
  "bebenta": 6912,
  "mabagal": 6913,
  "materyales": 6914,
  "rib": 6915,
  "ichi": 6916,
  "mexico": 6917,
  "posibilidad": 6918,
  "take": 6919,
  "1922": 6920,
  "bagamat": 6921,
  "island": 6922,
  "roxas": 6923,
  "epektibo": 6924,
  "humu": 6925,
  "inspirasyon": 6926,
  "lindol": 6927,
  "lumalaki": 6928,
  "malo": 6929,
  "magagawa": 6930,
  "protesta": 6931,
  "rinig": 6932,
  "tax": 6933,
  "agi": 6934,
  "ego": 6935,
  "input": 6936,
  "onood": 6937,
  "pagtatakda": 6938,
  "euse": 6939,
  "magkabilang": 6940,
  "trol": 6941,
  "cristo": 6942,
  "konsumo": 6943,
  "unyon": 6944,
  "batid": 6945,
  "kabiserang": 6946,
  "kumain": 6947,
  "nagma": 6948,
  "nakikitang": 6949,
  "pinagtibay": 6950,
  "pinakamaraming": 6951,
  "valentinian": 6952,
  "camarines": 6953,
  "chlo": 6954,
  "pinsan": 6955,
  "provin": 6956,
  "rail": 6957,
  "lysis": 6958,
  "magsagawa": 6959,
  "diperensiyang": 6960,
  "rayuma": 6961,
  "responsi": 6962,
  "bigo": 6963,
  "ganang": 6964,
  "pagsabog": 6965,
  "parokya": 6966,
  "saysay": 6967,
  "tuluyang": 6968,
  "ethiopia": 6969,
  "tsis": 6970,
  "akong": 6971,
  "ever": 6972,
  "ining": 6973,
  "inilathala": 6974,
  "kama": 6975,
  "pangako": 6976,
  "ruang": 6977,
  "ease": 6978,
  "gehre": 6979,
  "gehrels": 6980,
  "hininga": 6981,
  "maganap": 6982,
  "nagsaad": 6983,
  "pada": 6984,
  "tinggil": 6985,
  "australya": 6986,
  "bano": 6987,
  "eneo": 6988,
  "ering": 6989,
  "ivo": 6990,
  "korupsiyon": 6991,
  "sla": 6992,
  "stro": 6993,
  "balahi": 6994,
  "heometriya": 6995,
  "mikros": 6996,
  "perma": 6997,
  "perti": 6998,
  "romanos": 6999,
  "sc": 7000,
  "spring": 7001,
  "yerba": 7002,
  "250": 7003,
  "aristo": 7004,
  "disease": 7005,
  "lolo": 7006,
  "pansarili": 7007,
  "singsing": 7008,
  "binabanggit": 7009,
  "gramo": 7010,
  "inda": 7011,
  "ua": 7012,
  "ure": 7013,
  "antig": 7014,
  "atia": 7015,
  "kaisipang": 7016,
  "lisadong": 7017,
  "nucleus": 7018,
  "haiti": 7019,
  "malambot": 7020,
  "pep": 7021,
  "pukaw": 7022,
  "reproduksiyon": 7023,
  "sabado": 7024,
  "latino": 7025,
  "niceno": 7026,
  "sanang": 7027,
  "gli": 7028,
  "ipinakikita": 7029,
  "mass": 7030,
  "neanderthal": 7031,
  "ric": 7032,
  "sangguniang": 7033,
  "teror": 7034,
  "galaksiya": 7035,
  "inutusan": 7036,
  "alinsunod": 7037,
  "cambrian": 7038,
  "franco": 7039,
  "hiti": 7040,
  "kra": 7041,
  "wave": 7042,
  "bukang": 7043,
  "tinipon": 7044,
  "1906": 7045,
  "bisyong": 7046,
  "christ": 7047,
  "gado": 7048,
  "ibinalik": 7049,
  "iniisip": 7050,
  "istikong": 7051,
  "isaac": 7052,
  "nagsasariling": 7053,
  "rida": 7054,
  "bituka": 7055,
  "dosis": 7056,
  "fede": 7057,
  "hubog": 7058,
  "makukuha": 7059,
  "suka": 7060,
  "mood": 7061,
  "gumu": 7062,
  "nations": 7063,
  "pintor": 7064,
  "pinakamataong": 7065,
  "proyektong": 7066,
  "tanawin": 7067,
  "ukranya": 7068,
  "61": 7069,
  "corporation": 7070,
  "doukas": 7071,
  "nagmumungkahing": 7072,
  "pinto": 7073,
  "1967": 7074,
  "army": 7075,
  "daluyong": 7076,
  "kauri": 7077,
  "laskaris": 7078,
  "opin": 7079,
  "veld": 7080,
  "amba": 7081,
  "eneveld": 7082,
  "ges": 7083,
  "groeneveld": 7084,
  "iniwan": 7085,
  "makapal": 7086,
  "relatibidad": 7087,
  "stis": 7088,
  "zano": 7089,
  "america": 7090,
  "frank": 7091,
  "inhinyero": 7092,
  "maharlika": 7093,
  "rismo": 7094,
  "cuba": 7095,
  "klasi": 7096,
  "napili": 7097,
  "persia": 7098,
  "nakatakdang": 7099,
  "nananatili": 7100,
  "pakikipaglaban": 7101,
  "sweden": 7102,
  "madagas": 7103,
  "pagkakamit": 7104,
  "space": 7105,
  "1934": 7106,
  "execu": 7107,
  "kapanah": 7108,
  "langoy": 7109,
  "nagdala": 7110,
  "nagpapahayag": 7111,
  "nagtulak": 7112,
  "nakakaapekto": 7113,
  "historya": 7114,
  "oryentasyong": 7115,
  "tuyo": 7116,
  "bibliyang": 7117,
  "nasakop": 7118,
  "tse": 7119,
  "tugma": 7120,
  "ramon": 7121,
  "umaasang": 7122,
  "alejandro": 7123,
  "atoms": 7124,
  "home": 7125,
  "kolo": 7126,
  "lungkot": 7127,
  "nabubuo": 7128,
  "pagtatatag": 7129,
  "squ": 7130,
  "sanskrit": 7131,
  "onimo": 7132,
  "pribado": 7133,
  "departamento": 7134,
  "kakaibang": 7135,
  "representasyon": 7136,
  "zzano": 7137,
  "depin": 7138,
  "taya": 7139,
  "yanismo": 7140,
  "iiba": 7141,
  "pagkakamali": 7142,
  "1905": 7143,
  "bita": 7144,
  "droga": 7145,
  "kabataang": 7146,
  "makalipas": 7147,
  "prusisyon": 7148,
  "cell": 7149,
  "ilegal": 7150,
  "korporasyon": 7151,
  "urbano": 7152,
  "ace": 7153,
  "australo": 7154,
  "basehan": 7155,
  "border": 7156,
  "kabahaging": 7157,
  "kausap": 7158,
  "mamuhay": 7159,
  "rata": 7160,
  "kapareho": 7161,
  "kinalalagyan": 7162,
  "magal": 7163,
  "nalilikha": 7164,
  "negatibo": 7165,
  "planetang": 7166,
  "arius": 7167,
  "english": 7168,
  "fit": 7169,
  "pumalit": 7170,
  "ramos": 7171,
  "responsibilidad": 7172,
  "duda": 7173,
  "film": 7174,
  "garilyo": 7175,
  "head": 7176,
  "loc": 7177,
  "riya": 7178,
  "trya": 7179,
  "alfre": 7180,
  "dulan": 7181,
  "hawaii": 7182,
  "isia": 7183,
  "lobo": 7184,
  "umiikot": 7185,
  "dhi": 7186,
  "dambana": 7187,
  "floren": 7188,
  "lumahok": 7189,
  "nicaea": 7190,
  "nod": 7191,
  "panukalang": 7192,
  "tindahan": 7193,
  "flu": 7194,
  "kapanahunang": 7195,
  "masang": 7196,
  "paghihirap": 7197,
  "pagtitiwala": 7198,
  "pagtulong": 7199,
  "rebolusyo": 7200,
  "unta": 7201,
  "basikong": 7202,
  "cambo": 7203,
  "pagdaragdag": 7204,
  "chos": 7205,
  "kalamnan": 7206,
  "pangatlong": 7207,
  "binibigkas": 7208,
  "imperyal": 7209,
  "oty": 7210,
  "1952": 7211,
  "france": 7212,
  "170": 7213,
  "mindoro": 7214,
  "bungo": 7215,
  "makilala": 7216,
  "pagbasa": 7217,
  "presiden": 7218,
  "rup": 7219,
  "solomon": 7220,
  "county": 7221,
  "historyan": 7222,
  "krist": 7223,
  "lubu": 7224,
  "nagpasimula": 7225,
  "panauhin": 7226,
  "tation": 7227,
  "talunan": 7228,
  "kagaya": 7229,
  "kayariang": 7230,
  "nagpapahintulot": 7231,
  "stansiyang": 7232,
  "abala": 7233,
  "aku": 7234,
  "balikat": 7235,
  "birheng": 7236,
  "ddle": 7237,
  "magas": 7238,
  "mumulan": 7239,
  "nagsilbi": 7240,
  "iloilo": 7241,
  "magkakaugnay": 7242,
  "paleo": 7243,
  "pagmi": 7244,
  "gabine": 7245,
  "gandang": 7246,
  "lalakeng": 7247,
  "ans": 7248,
  "ekspe": 7249,
  "industriyal": 7250,
  "atomic": 7251,
  "pagpapalabas": 7252,
  "vor": 7253,
  "baguhin": 7254,
  "interbal": 7255,
  "pagan": 7256,
  "pantas": 7257,
  "pier": 7258,
  "binagong": 7259,
  "dumadaloy": 7260,
  "kanal": 7261,
  "linyar": 7262,
  "martir": 7263,
  "rum": 7264,
  "bela": 7265,
  "dalhin": 7266,
  "henetika": 7267,
  "kabihasnang": 7268,
  "open": 7269,
  "town": 7270,
  "tumigil": 7271,
  "zen": 7272,
  "antibiyotiko": 7273,
  "ekonomikang": 7274,
  "grado": 7275,
  "illa": 7276,
  "ituring": 7277,
  "libya": 7278,
  "naturang": 7279,
  "nether": 7280,
  "putik": 7281,
  "naro": 7282,
  "pagsakop": 7283,
  "pangasiwaan": 7284,
  "taglay": 7285,
  "transis": 7286,
  "anay": 7287,
  "kritis": 7288,
  "naglilingkod": 7289,
  "ula": 7290,
  "yerto": 7291,
  "1961": 7292,
  "brown": 7293,
  "mangan": 7294,
  "naisulat": 7295,
  "pagpigil": 7296,
  "tanggol": 7297,
  "thor": 7298,
  "troya": 7299,
  "vana": 7300,
  "amb": 7301,
  "mamimili": 7302,
  "menda": 7303,
  "pagmamay": 7304,
  "pena": 7305,
  "pod": 7306,
  "1907": 7307,
  "adul": 7308,
  "aler": 7309,
  "aplikasyon": 7310,
  "arin": 7311,
  "ekumen": 7312,
  "harang": 7313,
  "kabisa": 7314,
  "pakikitungo": 7315,
  "sakupin": 7316,
  "absolutong": 7317,
  "ermita": 7318,
  "nangingibabaw": 7319,
  "pulgada": 7320,
  "rili": 7321,
  "yansa": 7322,
  "alitun": 7323,
  "hinduismo": 7324,
  "inse": 7325,
  "keng": 7326,
  "kontempora": 7327,
  "mongo": 7328,
  "nagtuturo": 7329,
  "tawi": 7330,
  "teat": 7331,
  "anggulo": 7332,
  "chen": 7333,
  "geo": 7334,
  "kumo": 7335,
  "makro": 7336,
  "susi": 7337,
  "tanteng": 7338,
  "uld": 7339,
  "wu": 7340,
  "bwe": 7341,
  "buso": 7342,
  "kinaro": 7343,
  "quirino": 7344,
  "trade": 7345,
  "walo": 7346,
  "administrasyon": 7347,
  "miyang": 7348,
  "nad": 7349,
  "sumag": 7350,
  "800": 7351,
  "gabinete": 7352,
  "ligaw": 7353,
  "desi": 7354,
  "ency": 7355,
  "kalipa": 7356,
  "nagpunta": 7357,
  "pinakatanyag": 7358,
  "avi": 7359,
  "cauca": 7360,
  "ities": 7361,
  "kadi": 7362,
  "kalahok": 7363,
  "linu": 7364,
  "mahagi": 7365,
  "makalikha": 7366,
  "nagbalik": 7367,
  "operasyong": 7368,
  "bayaran": 7369,
  "cow": 7370,
  "kuro": 7371,
  "langu": 7372,
  "panandali": 7373,
  "bha": 7374,
  "entidad": 7375,
  "gustong": 7376,
  "mabuo": 7377,
  "middle": 7378,
  "sagan": 7379,
  "sampa": 7380,
  "teritoryong": 7381,
  "date": 7382,
  "entertain": 7383,
  "european": 7384,
  "paunang": 7385,
  "pid": 7386,
  "states": 7387,
  "damo": 7388,
  "eksplo": 7389,
  "episo": 7390,
  "nalikha": 7391,
  "nosis": 7392,
  "sadyang": 7393,
  "ahente": 7394,
  "crimea": 7395,
  "kaunlaran": 7396,
  "karneng": 7397,
  "pagu": 7398,
  "pagsama": 7399,
  "stor": 7400,
  "xis": 7401,
  "1966": 7402,
  "apek": 7403,
  "exodo": 7404,
  "foun": 7405,
  "host": 7406,
  "kyu": 7407,
  "klasikal": 7408,
  "regalo": 7409,
  "atas": 7410,
  "bilyon": 7411,
  "engineering": 7412,
  "inutos": 7413,
  "kondisyong": 7414,
  "makitid": 7415,
  "napapaligiran": 7416,
  "pamangkin": 7417,
  "sica": 7418,
  "sonang": 7419,
  "erong": 7420,
  "tarang": 7421,
  "victo": 7422,
  "nagwakas": 7423,
  "narinig": 7424,
  "netherlands": 7425,
  "pagsasaka": 7426,
  "gagamitin": 7427,
  "hinahati": 7428,
  "mayamang": 7429,
  "naipa": 7430,
  "saloob": 7431,
  "sime": 7432,
  "xia": 7433,
  "aktres": 7434,
  "kapisanan": 7435,
  "lamin": 7436,
  "mian": 7437,
  "pinagmumulan": 7438,
  "tagapagligtas": 7439,
  "emer": 7440,
  "lyong": 7441,
  "tutan": 7442,
  "tumuturing": 7443,
  "ehersisyo": 7444,
  "polite": 7445,
  "belbo": 7446,
  "cr": 7447,
  "dalawampu": 7448,
  "dies": 7449,
  "lukas": 7450,
  "matri": 7451,
  "sab": 7452,
  "sive": 7453,
  "urong": 7454,
  "wangis": 7455,
  "bono": 7456,
  "development": 7457,
  "espasyong": 7458,
  "lupangyelo": 7459,
  "makatulong": 7460,
  "naghahanap": 7461,
  "nasyonal": 7462,
  "oly": 7463,
  "pagtanggi": 7464,
  "rique": 7465,
  "ship": 7466,
  "semilya": 7467,
  "cation": 7468,
  "gamu": 7469,
  "gata": 7470,
  "hano": 7471,
  "kimikang": 7472,
  "kinaroroonan": 7473,
  "magallanes": 7474,
  "nabigo": 7475,
  "palaya": 7476,
  "panlipunang": 7477,
  "pono": 7478,
  "sko": 7479,
  "wahe": 7480,
  "china": 7481,
  "punang": 7482,
  "pagtulog": 7483,
  "xide": 7484,
  "glandulang": 7485,
  "inapo": 7486,
  "magkahiwalay": 7487,
  "pinamamahalaan": 7488,
  "sepsiyon": 7489,
  "tumugon": 7490,
  "bertebra": 7491,
  "gradong": 7492,
  "hudyat": 7493,
  "nagturo": 7494,
  "ww": 7495,
  "diyosesis": 7496,
  "fung": 7497,
  "kahina": 7498,
  "muha": 7499,
  "paraon": 7500,
  "rena": 7501,
  "andre": 7502,
  "gdas": 7503,
  "have": 7504,
  "hippo": 7505,
  "kenya": 7506,
  "mation": 7507,
  "natagpuang": 7508,
  "rati": 7509,
  "thai": 7510,
  "tigdas": 7511,
  "cid": 7512,
  "gregorio": 7513,
  "kusang": 7514,
  "lation": 7515,
  "nagpahayag": 7516,
  "nidad": 7517,
  "nutris": 7518,
  "tou": 7519,
  "academy": 7520,
  "alagaan": 7521,
  "federal": 7522,
  "kadahila": 7523,
  "lider": 7524,
  "pusa": 7525,
  "81": 7526,
  "basan": 7527,
  "castelletto": 7528,
  "chten": 7529,
  "kaloob": 7530,
  "kurba": 7531,
  "nabibilang": 7532,
  "utong": 7533,
  "94": 7534,
  "dalawampung": 7535,
  "fore": 7536,
  "kaisa": 7537,
  "lating": 7538,
  "loren": 7539,
  "maso": 7540,
  "pakikidigma": 7541,
  "pasyenteng": 7542,
  "pita": 7543,
  "usbong": 7544,
  "balahibo": 7545,
  "bic": 7546,
  "enco": 7547,
  "kadahilanan": 7548,
  "kapansanan": 7549,
  "katapatan": 7550,
  "lione": 7551,
  "manatili": 7552,
  "osi": 7553,
  "perpektong": 7554,
  "segun": 7555,
  "aling": 7556,
  "alisin": 7557,
  "armenya": 7558,
  "hug": 7559,
  "kahu": 7560,
  "kalusugang": 7561,
  "nagsabi": 7562,
  "quark": 7563,
  "last": 7564,
  "pagsusuring": 7565,
  "rodri": 7566,
  "tta": 7567,
  "turista": 7568,
  "bari": 7569,
  "chtenstein": 7570,
  "diyale": 7571,
  "gover": 7572,
  "gui": 7573,
  "ortodoksong": 7574,
  "chester": 7575,
  "dayuhang": 7576,
  "grand": 7577,
  "inilalagay": 7578,
  "june": 7579,
  "lugad": 7580,
  "malikha": 7581,
  "montal": 7582,
  "nak": 7583,
  "rich": 7584,
  "tinangka": 7585,
  "bell": 7586,
  "cambodia": 7587,
  "inilimbag": 7588,
  "kipot": 7589,
  "major": 7590,
  "metropolitan": 7591,
  "orgasmo": 7592,
  "pantelebisyon": 7593,
  "1962": 7594,
  "albert": 7595,
  "antioquia": 7596,
  "benedicto": 7597,
  "iraq": 7598,
  "karanasang": 7599,
  "paglabas": 7600,
  "ugaling": 7601,
  "ao": 7602,
  "bayaan": 7603,
  "hulihan": 7604,
  "itinang": 7605,
  "pagkontrol": 7606,
  "pagbubuntis": 7607,
  "pinayagan": 7608,
  "ales": 7609,
  "atmos": 7610,
  "babala": 7611,
  "mapanatili": 7612,
  "nagsasama": 7613,
  "96": 7614,
  "apostoliko": 7615,
  "best": 7616,
  "chalcedon": 7617,
  "kotse": 7618,
  "mukhang": 7619,
  "pagkatalo": 7620,
  "pseu": 7621,
  "salaping": 7622,
  "achil": 7623,
  "later": 7624,
  "liechtenstein": 7625,
  "position": 7626,
  "see": 7627,
  "techno": 7628,
  "tomo": 7629,
  "biro": 7630,
  "drome": 7631,
  "idine": 7632,
  "komedya": 7633,
  "mansa": 7634,
  "pintuan": 7635,
  "serbya": 7636,
  "tauhang": 7637,
  "user": 7638,
  "1959": 7639,
  "makakuha": 7640,
  "nilagdaan": 7641,
  "opinyon": 7642,
  "panalo": 7643,
  "realidad": 7644,
  "ashi": 7645,
  "dil": 7646,
  "estruktura": 7647,
  "hinuha": 7648,
  "manging": 7649,
  "arkeolohiya": 7650,
  "kakaiba": 7651,
  "nil": 7652,
  "qing": 7653,
  "yes": 7654,
  "1943": 7655,
  "amen": 7656,
  "isita": 7657,
  "kaasalan": 7658,
  "medina": 7659,
  "mekanikal": 7660,
  "nakagawa": 7661,
  "pagdadala": 7662,
  "pisikang": 7663,
  "sakramento": 7664,
  "73": 7665,
  "bilangguan": 7666,
  "chae": 7667,
  "corazon": 7668,
  "executive": 7669,
  "kine": 7670,
  "namamatay": 7671,
  "pamilihang": 7672,
  "rie": 7673,
  "tusan": 7674,
  "boro": 7675,
  "hurisdiksiyon": 7676,
  "pakahulugan": 7677,
  "punsiyong": 7678,
  "rolo": 7679,
  "shan": 7680,
  "asan": 7681,
  "halu": 7682,
  "ias": 7683,
  "kak": 7684,
  "litera": 7685,
  "malate": 7686,
  "pagpapakasal": 7687,
  "panimula": 7688,
  "prefe": 7689,
  "tinong": 7690,
  "broadcas": 7691,
  "clau": 7692,
  "expressway": 7693,
  "kuta": 7694,
  "panlalaki": 7695,
  "rami": 7696,
  "taguyod": 7697,
  "vard": 7698,
  "1902": 7699,
  "colombia": 7700,
  "gloria": 7701,
  "luktot": 7702,
  "mailala": 7703,
  "ponti": 7704,
  "sidd": 7705,
  "yuki": 7706,
  "ghana": 7707,
  "henus": 7708,
  "nahati": 7709,
  "paci": 7710,
  "palestina": 7711,
  "pangkompyuter": 7712,
  "panumbalik": 7713,
  "propesiya": 7714,
  "dahilang": 7715,
  "maitim": 7716,
  "atin": 7717,
  "awtoridad": 7718,
  "diplomatiko": 7719,
  "nagmumungkahi": 7720,
  "trinidad": 7721,
  "tures": 7722,
  "74": 7723,
  "ain": 7724,
  "binatang": 7725,
  "pumapasok": 7726,
  "amin": 7727,
  "babalik": 7728,
  "johannes": 7729,
  "kaaya": 7730,
  "laos": 7731,
  "nangangasiwa": 7732,
  "piemonte": 7733,
  "pondo": 7734,
  "sundan": 7735,
  "nawawala": 7736,
  "pagtutol": 7737,
  "pakikipagtulungan": 7738,
  "pangasinan": 7739,
  "trum": 7740,
  "guar": 7741,
  "pagkaunawa": 7742,
  "xvi": 7743,
  "croatia": 7744,
  "diskriminasyon": 7745,
  "java": 7746,
  "sibol": 7747,
  "simulan": 7748,
  "130": 7749,
  "kuran": 7750,
  "litwanya": 7751,
  "mapan": 7752,
  "magkakaiba": 7753,
  "mbre": 7754,
  "1899": 7755,
  "ahas": 7756,
  "imam": 7757,
  "lois": 7758,
  "moza": 7759,
  "aralin": 7760,
  "eksklu": 7761,
  "ical": 7762,
  "kulisa": 7763,
  "milos": 7764,
  "naeus": 7765,
  "pung": 7766,
  "barkong": 7767,
  "hispan": 7768,
  "malolos": 7769,
  "masdan": 7770,
  "pagbili": 7771,
  "presensiya": 7772,
  "tumira": 7773,
  "vit": 7774,
  "varia": 7775,
  "yenda": 7776,
  "zania": 7777,
  "1951": 7778,
  "cay": 7779,
  "kuwar": 7780,
  "magsimula": 7781,
  "night": 7782,
  "panggitnang": 7783,
  "poke": 7784,
  "aali": 7785,
  "forte": 7786,
  "gita": 7787,
  "luis": 7788,
  "nutrisyon": 7789,
  "panggaga": 7790,
  "siasyon": 7791,
  "atang": 7792,
  "imbensiyon": 7793,
  "kampe": 7794,
  "rho": 7795,
  "arkitektura": 7796,
  "iden": 7797,
  "kwar": 7798,
  "pneu": 7799,
  "paghihi": 7800,
  "clar": 7801,
  "kabuhayan": 7802,
  "kated": 7803,
  "katedral": 7804,
  "lines": 7805,
  "mahu": 7806,
  "maabot": 7807,
  "naghayag": 7808,
  "ore": 7809,
  "pasok": 7810,
  "pangmatagalang": 7811,
  "talas": 7812,
  "test": 7813,
  "there": 7814,
  "tiro": 7815,
  "ikinatwiran": 7816,
  "kinalabasan": 7817,
  "kulisap": 7818,
  "matsu": 7819,
  "nakapaloob": 7820,
  "pagpapalitan": 7821,
  "puna": 7822,
  "apokri": 7823,
  "bulag": 7824,
  "kakaunti": 7825,
  "nakatulong": 7826,
  "zoroastrianismo": 7827,
  "1957": 7828,
  "dokumentong": 7829,
  "kulosis": 7830,
  "lason": 7831,
  "mamasdang": 7832,
  "mandiri": 7833,
  "marahas": 7834,
  "parusang": 7835,
  "puntos": 7836,
  "tuberkulosis": 7837,
  "turismo": 7838,
  "achilles": 7839,
  "estrate": 7840,
  "kampanya": 7841,
  "katubigan": 7842,
  "pagsilang": 7843,
  "pagninilay": 7844,
  "takip": 7845,
  "comoros": 7846,
  "florida": 7847,
  "ground": 7848,
  "halik": 7849,
  "italyanong": 7850,
  "nakakapag": 7851,
  "tunghayan": 7852,
  "isasa": 7853,
  "magasin": 7854,
  "maikli": 7855,
  "tito": 7856,
  "wina": 7857,
  "82": 7858,
  "bektor": 7859,
  "ekumenikal": 7860,
  "entertainment": 7861,
  "erectus": 7862,
  "hren": 7863,
  "hemis": 7864,
  "ikono": 7865,
  "kaganapang": 7866,
  "kompositor": 7867,
  "mahilig": 7868,
  "pagrere": 7869,
  "pagkakasunud": 7870,
  "rhe": 7871,
  "show": 7872,
  "tisismo": 7873,
  "cular": 7874,
  "hukay": 7875,
  "ikang": 7876,
  "koleksiyon": 7877,
  "pambayan": 7878,
  "salamang": 7879,
  "tagapa": 7880,
  "box": 7881,
  "bormida": 7882,
  "histo": 7883,
  "katwiran": 7884,
  "kinala": 7885,
  "nakakita": 7886,
  "awards": 7887,
  "kinabangan": 7888,
  "nakaligtas": 7889,
  "papala": 7890,
  "zealand": 7891,
  "igno": 7892,
  "independiyenteng": 7893,
  "madong": 7894,
  "nakabase": 7895,
  "piso": 7896,
  "plata": 7897,
  "saligan": 7898,
  "sumama": 7899,
  "augustus": 7900,
  "cour": 7901,
  "iingat": 7902,
  "kaakit": 7903,
  "liber": 7904,
  "reyes": 7905,
  "rikal": 7906,
  "ie": 7907,
  "kapal": 7908,
  "ked": 7909,
  "ligirang": 7910,
  "magno": 7911,
  "mansanas": 7912,
  "milenyo": 7913,
  "obispong": 7914,
  "parlamento": 7915,
  "sumang": 7916,
  "alok": 7917,
  "fras": 7918,
  "jeho": 7919,
  "kunan": 7920,
  "pampook": 7921,
  "alyado": 7922,
  "bahan": 7923,
  "igen": 7924,
  "lukse": 7925,
  "patas": 7926,
  "prefecture": 7927,
  "secon": 7928,
  "version": 7929,
  "yona": 7930,
  "abay": 7931,
  "enyong": 7932,
  "force": 7933,
  "gutom": 7934,
  "leone": 7935,
  "mbique": 7936,
  "mineral": 7937,
  "mozambique": 7938,
  "ork": 7939,
  "peninsu": 7940,
  "sign": 7941,
  "uth": 7942,
  "vy": 7943,
  "hardin": 7944,
  "ibinu": 7945,
  "mung": 7946,
  "munting": 7947,
  "paglaon": 7948,
  "eskwela": 7949,
  "ising": 7950,
  "jah": 7951,
  "kasangkot": 7952,
  "kumpi": 7953,
  "monyang": 7954,
  "otype": 7955,
  "tanghalan": 7956,
  "tatsulok": 7957,
  "1903": 7958,
  "1963": 7959,
  "genetic": 7960,
  "htt": 7961,
  "impormasyong": 7962,
  "kaligaya": 7963,
  "karatig": 7964,
  "kasundo": 7965,
  "nagpapataas": 7966,
  "plasma": 7967,
  "will": 7968,
  "yd": 7969,
  "2018": 7970,
  "kape": 7971,
  "munong": 7972,
  "ordinaryong": 7973,
  "pampananampalataya": 7974,
  "party": 7975,
  "tumakas": 7976,
  "vul": 7977,
  "zimba": 7978,
  "dengue": 7979,
  "kabaly": 7980,
  "kahilingan": 7981,
  "kripsiyon": 7982,
  "libro": 7983,
  "ninanais": 7984,
  "palagiang": 7985,
  "pulitika": 7986,
  "turku": 7987,
  "bigkis": 7988,
  "enrique": 7989,
  "jordan": 7990,
  "sisid": 7991,
  "900": 7992,
  "filipo": 7993,
  "institusyong": 7994,
  "kinig": 7995,
  "kanin": 7996,
  "kasariang": 7997,
  "memorya": 7998,
  "metriko": 7999,
  "sego": 8000,
  "tla": 8001,
  "yaang": 8002,
  "ekonomiks": 8003,
  "kumikilos": 8004,
  "luksemburgo": 8005,
  "nakakuha": 8006,
  "densidad": 8007,
  "judah": 8008,
  "justin": 8009,
  "kasakistan": 8010,
  "lumago": 8011,
  "tuhod": 8012,
  "undi": 8013,
  "zimbabwe": 8014,
  "dox": 8015,
  "himpilang": 8016,
  "kushi": 8017,
  "medical": 8018,
  "mikrobyo": 8019,
  "pagtatalo": 8020,
  "panatilihin": 8021,
  "pederasyon": 8022,
  "pigura": 8023,
  "rista": 8024,
  "aalok": 8025,
  "bungang": 8026,
  "lt": 8027,
  "molda": 8028,
  "noo": 8029,
  "rivera": 8030,
  "santauhan": 8031,
  "artikulong": 8032,
  "fair": 8033,
  "karno": 8034,
  "lehem": 8035,
  "liligaw": 8036,
  "masaya": 8037,
  "pagkakatatag": 8038,
  "sahang": 8039,
  "tanzania": 8040,
  "dinamika": 8041,
  "ginintu": 8042,
  "1910": 8043,
  "cess": 8044,
  "dium": 8045,
  "hamak": 8046,
  "yagang": 8047,
  "yuhan": 8048,
  "1919": 8049,
  "86": 8050,
  "analysis": 8051,
  "angu": 8052,
  "arts": 8053,
  "bumili": 8054,
  "hilig": 8055,
  "kautusang": 8056,
  "lanao": 8057,
  "lumaban": 8058,
  "pasilidad": 8059,
  "talatang": 8060,
  "dele": 8061,
  "katabi": 8062,
  "lex": 8063,
  "lukan": 8064,
  "move": 8065,
  "mongol": 8066,
  "naglalakbay": 8067,
  "ukra": 8068,
  "victoria": 8069,
  "antropo": 8070,
  "bersiyong": 8071,
  "eeee": 8072,
  "nagsanhi": 8073,
  "namibia": 8074,
  "ostomo": 8075,
  "spek": 8076,
  "tiniti": 8077,
  "astronomiya": 8078,
  "bintana": 8079,
  "cine": 8080,
  "espiritwal": 8081,
  "ibat": 8082,
  "ibigay": 8083,
  "iwasan": 8084,
  "katambal": 8085,
  "masasamang": 8086,
  "nomen": 8087,
  "sumuko": 8088,
  "tahe": 8089,
  "bataan": 8090,
  "cum": 8091,
  "diag": 8092,
  "ial": 8093,
  "inimbento": 8094,
  "kodigong": 8095,
  "kupan": 8096,
  "mabigyan": 8097,
  "pokemon": 8098,
  "romu": 8099,
  "ehekutibo": 8100,
  "ekstin": 8101,
  "maingat": 8102,
  "raha": 8103,
  "sebas": 8104,
  "tiber": 8105,
  "tice": 8106,
  "times": 8107,
  "abri": 8108,
  "austrya": 8109,
  "chad": 8110,
  "ekwi": 8111,
  "gagaling": 8112,
  "hamon": 8113,
  "homosekswal": 8114,
  "inog": 8115,
  "juda": 8116,
  "kabana": 8117,
  "pagkabulok": 8118,
  "sinamahan": 8119,
  "aalsa": 8120,
  "bautista": 8121,
  "magdulot": 8122,
  "row": 8123,
  "supot": 8124,
  "tuberc": 8125,
  "vs": 8126,
  "volution": 8127,
  "1927": 8128,
  "agustin": 8129,
  "etrus": 8130,
  "iha": 8131,
  "kogn": 8132,
  "madrid": 8133,
  "patag": 8134,
  "synod": 8135,
  "ador": 8136,
  "kabisayaan": 8137,
  "kompetisyon": 8138,
  "sapilitang": 8139,
  "sever": 8140,
  "software": 8141,
  "sundin": 8142,
  "bisaya": 8143,
  "borneo": 8144,
  "cht": 8145,
  "espirito": 8146,
  "isama": 8147,
  "physi": 8148,
  "unggoy": 8149,
  "dation": 8150,
  "emple": 8151,
  "emper": 8152,
  "gamesh": 8153,
  "hibla": 8154,
  "mangyayari": 8155,
  "nagtatapos": 8156,
  "pangangatwiran": 8157,
  "shel": 8158,
  "aprikanong": 8159,
  "mabisa": 8160,
  "nagkakaisa": 8161,
  "pinagmulang": 8162,
  "84": 8163,
  "ders": 8164,
  "edi": 8165,
  "meroon": 8166,
  "monako": 8167,
  "ply": 8168,
  "transmit": 8169,
  "cameroon": 8170,
  "distansiya": 8171,
  "dung": 8172,
  "foot": 8173,
  "ginintuang": 8174,
  "heyor": 8175,
  "herman": 8176,
  "isidad": 8177,
  "lil": 8178,
  "obhe": 8179,
  "pagkakataong": 8180,
  "paglisan": 8181,
  "paliparang": 8182,
  "perse": 8183,
  "sekular": 8184,
  "xiii": 8185,
  "eci": 8186,
  "erotiko": 8187,
  "ghan": 8188,
  "kumilos": 8189,
  "madagascar": 8190,
  "paglalapat": 8191,
  "fat": 8192,
  "front": 8193,
  "pn": 8194,
  "kalaki": 8195,
  "nagtayo": 8196,
  "saloobin": 8197,
  "tista": 8198,
  "epiko": 8199,
  "konstitus": 8200,
  "ktibidad": 8201,
  "oh": 8202,
  "pasay": 8203,
  "paglalahad": 8204,
  "robin": 8205,
  "tatibo": 8206,
  "tuntunin": 8207,
  "bible": 8208,
  "diony": 8209,
  "hirang": 8210,
  "isoto": 8211,
  "naglalagay": 8212,
  "paglalaro": 8213,
  "pangmusika": 8214,
  "pinoy": 8215,
  "sukdulang": 8216,
  "western": 8217,
  "baya": 8218,
  "earth": 8219,
  "get": 8220,
  "kapilya": 8221,
  "muti": 8222,
  "nabigyan": 8223,
  "nagko": 8224,
  "nova": 8225,
  "paggu": 8226,
  "pagsasaayos": 8227,
  "prostitusyon": 8228,
  "qur": 8229,
  "syndrome": 8230,
  "akma": 8231,
  "baguio": 8232,
  "guang": 8233,
  "lanin": 8234,
  "lumapit": 8235,
  "mbuhay": 8236,
  "mira": 8237,
  "usapin": 8238,
  "esh": 8239,
  "gilgamesh": 8240,
  "halian": 8241,
  "mecca": 8242,
  "muse": 8243,
  "nanga": 8244,
  "biolohikal": 8245,
  "bourg": 8246,
  "graph": 8247,
  "moda": 8248,
  "mond": 8249,
  "pandinig": 8250,
  "andora": 8251,
  "hasang": 8252,
  "ilin": 8253,
  "katotohanang": 8254,
  "matag": 8255,
  "paniba": 8256,
  "panitik": 8257,
  "scrivia": 8258,
  "aabuso": 8259,
  "care": 8260,
  "hotel": 8261,
  "iniutos": 8262,
  "lulan": 8263,
  "lumipas": 8264,
  "naglili": 8265,
  "phone": 8266,
  "tarsilo": 8267,
  "tec": 8268,
  "kaarawan": 8269,
  "mentasyon": 8270,
  "nakapaligid": 8271,
  "osiris": 8272,
  "zambia": 8273,
  "zare": 8274,
  "aalipin": 8275,
  "edward": 8276,
  "face": 8277,
  "heyorhiya": 8278,
  "makapagbigay": 8279,
  "malaw": 8280,
  "nago": 8281,
  "stock": 8282,
  "1901": 8283,
  "apa": 8284,
  "dum": 8285,
  "poland": 8286,
  "1000": 8287,
  "bidyo": 8288,
  "gno": 8289,
  "gawian": 8290,
  "isan": 8291,
  "matalik": 8292,
  "tinatalakay": 8293,
  "uru": 8294,
  "2017": 8295,
  "bona": 8296,
  "hersego": 8297,
  "hersegobina": 8298,
  "litur": 8299,
  "metodo": 8300,
  "pinangangasiwaan": 8301,
  "sunni": 8302,
  "tarlac": 8303,
  "zed": 8304,
  "administratibo": 8305,
  "anyaya": 8306,
  "baria": 8307,
  "gordian": 8308,
  "jacob": 8309,
  "lady": 8310,
  "librium": 8311,
  "monu": 8312,
  "siddhar": 8313,
  "stran": 8314,
  "tuberculo": 8315,
  "were": 8316,
  "bakulaw": 8317,
  "gunita": 8318,
  "hubad": 8319,
  "kaliwa": 8320,
  "lakad": 8321,
  "nov": 8322,
  "pagga": 8323,
  "sf": 8324,
  "sailalim": 8325,
  "tainga": 8326,
  "tano": 8327,
  "baybaying": 8328,
  "bissau": 8329,
  "commer": 8330,
  "kombinasyon": 8331,
  "kontrata": 8332,
  "lona": 8333,
  "oda": 8334,
  "propesyonal": 8335,
  "dero": 8336,
  "isk": 8337,
  "marangal": 8338,
  "miks": 8339,
  "nasco": 8340,
  "pinagtatalunan": 8341,
  "teoryang": 8342,
  "tigas": 8343,
  "tugtog": 8344,
  "alemang": 8345,
  "gabing": 8346,
  "ica": 8347,
  "kapaligirang": 8348,
  "karta": 8349,
  "maguin": 8350,
  "nuno": 8351,
  "nike": 8352,
  "putol": 8353,
  "sinapu": 8354,
  "ahensiya": 8355,
  "berto": 8356,
  "opor": 8357,
  "pagdurusa": 8358,
  "syang": 8359,
  "arab": 8360,
  "dik": 8361,
  "div": 8362,
  "galli": 8363,
  "kapansin": 8364,
  "manag": 8365,
  "nagpasya": 8366,
  "pansing": 8367,
  "sekwensiyang": 8368,
  "apol": 8369,
  "arturo": 8370,
  "marie": 8371,
  "nanguna": 8372,
  "natutulog": 8373,
  "norman": 8374,
  "protinang": 8375,
  "1892": 8376,
  "aru": 8377,
  "erius": 8378,
  "gib": 8379,
  "iss": 8380,
  "konsentrasyon": 8381,
  "kwenta": 8382,
  "nh": 8383,
  "pheno": 8384,
  "panganganak": 8385,
  "thera": 8386,
  "140": 8387,
  "aki": 8388,
  "homer": 8389,
  "magawa": 8390,
  "mayayaman": 8391,
  "uganda": 8392,
  "1956": 8393,
  "bt": 8394,
  "depre": 8395,
  "ginagampanan": 8396,
  "nali": 8397,
  "nakamamatay": 8398,
  "pagkakabuo": 8399,
  "pagtatala": 8400,
  "papaano": 8401,
  "sumasalungat": 8402,
  "tindihan": 8403,
  "arianismo": 8404,
  "coccus": 8405,
  "dius": 8406,
  "kwensiya": 8407,
  "kreto": 8408,
  "magamit": 8409,
  "sada": 8410,
  "sundo": 8411,
  "tagi": 8412,
  "vari": 8413,
  "ante": 8414,
  "brother": 8415,
  "kontinenteng": 8416,
  "liping": 8417,
  "minan": 8418,
  "moldabya": 8419,
  "paganda": 8420,
  "panganay": 8421,
  "sukarno": 8422,
  "tso": 8423,
  "tod": 8424,
  "yoshi": 8425,
  "argumento": 8426,
  "blan": 8427,
  "bulubunduking": 8428,
  "kero": 8429,
  "rita": 8430,
  "tagapagmana": 8431,
  "tumakwil": 8432,
  "westong": 8433,
  "awa": 8434,
  "biblia": 8435,
  "hatiin": 8436,
  "ligtad": 8437,
  "lohista": 8438,
  "pangangalagang": 8439,
  "prag": 8440,
  "triasiko": 8441,
  "ateneo": 8442,
  "ations": 8443,
  "bugtong": 8444,
  "dentista": 8445,
  "fire": 8446,
  "kdaan": 8447,
  "mente": 8448,
  "merkado": 8449,
  "pangita": 8450,
  "polako": 8451,
  "righ": 8452,
  "tiwakal": 8453,
  "tour": 8454,
  "cius": 8455,
  "pagbabayad": 8456,
  "pagtatanggal": 8457,
  "repu": 8458,
  "sene": 8459,
  "agusan": 8460,
  "andar": 8461,
  "biglaang": 8462,
  "dura": 8463,
  "guer": 8464,
  "kagalingan": 8465,
  "unuan": 8466,
  "anne": 8467,
  "armenya2": 8468,
  "aserbayan1": 8469,
  "burol": 8470,
  "dinamarka3": 8471,
  "espanya1": 8472,
  "gresya1": 8473,
  "heyorhiya1": 8474,
  "italya3": 8475,
  "kaharian3": 8476,
  "kaibigang": 8477,
  "kasakistan1": 8478,
  "marya": 8479,
  "nagde": 8480,
  "nakatagpo": 8481,
  "nangunguna": 8482,
  "noruwega3": 8483,
  "olanda3": 8484,
  "pangangalakal": 8485,
  "portugal3": 8486,
  "pransiya1": 8487,
  "pumili": 8488,
  "puntir": 8489,
  "rugo": 8490,
  "rusya1": 8491,
  "stress": 8492,
  "tari": 8493,
  "tsipre2": 8494,
  "turkiya1": 8495,
  "anasta": 8496,
  "angelos": 8497,
  "gising": 8498,
  "mand": 8499,
  "pagpaplano": 8500,
  "slo": 8501,
  "tatlu": 8502,
  "tawaging": 8503,
  "teoretikal": 8504,
  "1954": 8505,
  "1958": 8506,
  "distri": 8507,
  "kahan": 8508,
  "kopyo": 8509,
  "nawasak": 8510,
  "relihiyosong": 8511,
  "sand": 8512,
  "sola": 8513,
  "avenue": 8514,
  "bulwagan": 8515,
  "ciano": 8516,
  "krip": 8517,
  "our": 8518,
  "sinapupunan": 8519,
  "97": 8520,
  "aragon": 8521,
  "crisostomo": 8522,
  "frac": 8523,
  "jazz": 8524,
  "karapat": 8525,
  "katungkulan": 8526,
  "maguindanao": 8527,
  "salu": 8528,
  "samaritan": 8529,
  "tangka": 8530,
  "wayan": 8531,
  "cham": 8532,
  "lalawigang": 8533,
  "pater": 8534,
  "pagtakbo": 8535,
  "prince": 8536,
  "sinusu": 8537,
  "tac": 8538,
  "bisang": 8539,
  "konde": 8540,
  "konduktor": 8541,
  "nasisi": 8542,
  "onita": 8543,
  "pwedeng": 8544,
  "tae": 8545,
  "ester": 8546,
  "indigan": 8547,
  "mananakop": 8548,
  "monia": 8549,
  "nie": 8550,
  "sche": 8551,
  "sangan": 8552,
  "uin": 8553,
  "hanin": 8554,
  "inihaha": 8555,
  "kadahilan": 8556,
  "naglalakad": 8557,
  "tibet": 8558,
  "estadistikal": 8559,
  "limitasyon": 8560,
  "pandigma": 8561,
  "emosyon": 8562,
  "lago": 8563,
  "mapala": 8564,
  "perio": 8565,
  "presidente": 8566,
  "surigao": 8567,
  "handang": 8568,
  "hangang": 8569,
  "pagpapalaki": 8570,
  "pone": 8571,
  "sakris": 8572,
  "antar": 8573,
  "cing": 8574,
  "canaan": 8575,
  "dante": 8576,
  "galilea": 8577,
  "ibin": 8578,
  "kanais": 8579,
  "kaagahan": 8580,
  "malawakan": 8581,
  "medalya": 8582,
  "paghu": 8583,
  "pagmamasid": 8584,
  "prinsipyong": 8585,
  "sosyolohiya": 8586,
  "club": 8587,
  "pinsalang": 8588,
  "tagapamahala": 8589,
  "alko": 8590,
  "buting": 8591,
  "istrakturang": 8592,
  "mesopota": 8593,
  "nakapi": 8594,
  "oridad": 8595,
  "pagpapadala": 8596,
  "tawa": 8597,
  "kalamnang": 8598,
  "kasaping": 8599,
  "kulu": 8600,
  "makarating": 8601,
  "naniwala": 8602,
  "nikong": 8603,
  "online": 8604,
  "pangunguna": 8605,
  "run": 8606,
  "talaang": 8607,
  "tiyon": 8608,
  "tumatakbo": 8609,
  "umakyat": 8610,
  "bath": 8611,
  "espada": 8612,
  "iano": 8613,
  "ikaanim": 8614,
  "luxem": 8615,
  "sakristan": 8616,
  "tagapagtaguyod": 8617,
  "unin": 8618,
  "antil": 8619,
  "fis": 8620,
  "francia": 8621,
  "inta": 8622,
  "rora": 8623,
  "1908": 8624,
  "amy": 8625,
  "council": 8626,
  "eki": 8627,
  "foundation": 8628,
  "hiram": 8629,
  "kawani": 8630,
  "mathe": 8631,
  "pagtuklas": 8632,
  "pangingibabaw": 8633,
  "primit": 8634,
  "tage": 8635,
  "algeria": 8636,
  "eastern": 8637,
  "elena": 8638,
  "maker": 8639,
  "mandaluyong": 8640,
  "pris": 8641,
  "pokus": 8642,
  "soviet": 8643,
  "sumagot": 8644,
  "therap": 8645,
  "trato": 8646,
  "tumama": 8647,
  "visa": 8648,
  "biyetnam": 8649,
  "embahador": 8650,
  "gawad": 8651,
  "naglunsad": 8652,
  "onomi": 8653,
  "pagtatag": 8654,
  "pemin": 8655,
  "trapiko": 8656,
  "pagpapakilala": 8657,
  "patayin": 8658,
  "gs": 8659,
  "georgia": 8660,
  "giovan": 8661,
  "kampus": 8662,
  "ketong": 8663,
  "lalim": 8664,
  "lite": 8665,
  "organisadong": 8666,
  "palayo": 8667,
  "pinyin": 8668,
  "strain": 8669,
  "tide": 8670,
  "tonin": 8671,
  "tunayang": 8672,
  "desh": 8673,
  "dicti": 8674,
  "gasan": 8675,
  "isahang": 8676,
  "moscow": 8677,
  "palisa": 8678,
  "piye": 8679,
  "teri": 8680,
  "trasyong": 8681,
  "emili": 8682,
  "gamma": 8683,
  "hismo": 8684,
  "news": 8685,
  "artistang": 8686,
  "bethlehem": 8687,
  "ngayo": 8688,
  "syal": 8689,
  "bius": 8690,
  "dic": 8691,
  "ikapitong": 8692,
  "itibo": 8693,
  "langhe": 8694,
  "magbibigay": 8695,
  "masasabing": 8696,
  "nazare": 8697,
  "napatay": 8698,
  "pambibig": 8699,
  "samuel": 8700,
  "ungang": 8701,
  "daangbakal": 8702,
  "ganapin": 8703,
  "govina": 8704,
  "history": 8705,
  "impi": 8706,
  "kaz": 8707,
  "koordina": 8708,
  "malili": 8709,
  "mite": 8710,
  "teatro": 8711,
  "umaapekto": 8712,
  "alay": 8713,
  "dumalo": 8714,
  "konsilyo": 8715,
  "oxford": 8716,
  "paglaban": 8717,
  "palawan": 8718,
  "radyasyon": 8719,
  "antropolohiya": 8720,
  "bumasa": 8721,
  "gambia": 8722,
  "gautama": 8723,
  "isinusulat": 8724,
  "meno": 8725,
  "nagdurulot": 8726,
  "nili": 8727,
  "puke": 8728,
  "turkey": 8729,
  "inhen": 8730,
  "lingguwistika": 8731,
  "nahihi": 8732,
  "napalitan": 8733,
  "span": 8734,
  "segundo": 8735,
  "twa": 8736,
  "tea": 8737,
  "valens": 8738,
  "angola": 8739,
  "dalubhasaan": 8740,
  "kahanga": 8741,
  "libangan": 8742,
  "migrasyon": 8743,
  "nilarawan": 8744,
  "olona": 8745,
  "pado": 8746,
  "paghihimagsik": 8747,
  "patron": 8748,
  "pirat": 8749,
  "testi": 8750,
  "tual": 8751,
  "wastong": 8752,
  "comple": 8753,
  "fried": 8754,
  "kuwadrado": 8755,
  "mabawasan": 8756,
  "panlupa": 8757,
  "saryo": 8758,
  "statis": 8759,
  "tasyonal": 8760,
  "tinutulan": 8761,
  "wild": 8762,
  "bras": 8763,
  "benepisyo": 8764,
  "bernar": 8765,
  "britanikong": 8766,
  "dulong": 8767,
  "ginagawang": 8768,
  "malabon": 8769,
  "momo": 8770,
  "quiapo": 8771,
  "afghan": 8772,
  "bangon": 8773,
  "kawing": 8774,
  "lambat": 8775,
  "miss": 8776,
  "nakaugalian": 8777,
  "oka": 8778,
  "dictionary": 8779,
  "ebanghelyong": 8780,
  "inteli": 8781,
  "itig": 8782,
  "misasyon": 8783,
  "paglaganap": 8784,
  "salamat": 8785,
  "allah": 8786,
  "dibu": 8787,
  "ilus": 8788,
  "kampana": 8789,
  "luxembourg": 8790,
  "nagsabing": 8791,
  "pagharap": 8792,
  "uling": 8793,
  "brook": 8794,
  "caloo": 8795,
  "histrado": 8796,
  "napi": 8797,
  "nagpapaliwanag": 8798,
  "sukan": 8799,
  "technology": 8800,
  "arki": 8801,
  "caloocan": 8802,
  "datu": 8803,
  "electri": 8804,
  "kyo": 8805,
  "mongolia": 8806,
  "serra": 8807,
  "yahan": 8808,
  "bale": 8809,
  "constans": 8810,
  "hep": 8811,
  "johannesburg": 8812,
  "konserbatibo": 8813,
  "lanka": 8814,
  "matatandang": 8815,
  "pananim": 8816,
  "posito": 8817,
  "sinauna": 8818,
  "virgini": 8819,
  "ambakal": 8820,
  "apokripa": 8821,
  "bawas": 8822,
  "biswal": 8823,
  "impormal": 8824,
  "lador": 8825,
  "lead": 8826,
  "morocco": 8827,
  "nagsulat": 8828,
  "patunay": 8829,
  "program": 8830,
  "psycho": 8831,
  "ream": 8832,
  "swit": 8833,
  "zuela": 8834,
  "bury": 8835,
  "daambakal": 8836,
  "hybrid": 8837,
  "kambal": 8838,
  "katihan": 8839,
  "nagdara": 8840,
  "nagpapanatili": 8841,
  "nakababa": 8842,
  "pandiwa": 8843,
  "akin": 8844,
  "makatang": 8845,
  "tani": 8846,
  "tuberculosis": 8847,
  "umpaman": 8848,
  "atori": 8849,
  "blue": 8850,
  "ebionita": 8851,
  "ginaganap": 8852,
  "halimbawang": 8853,
  "imba": 8854,
  "klet": 8855,
  "marikina": 8856,
  "panibagong": 8857,
  "sumakop": 8858,
  "ultra": 8859,
  "zation": 8860,
  "bigas": 8861,
  "bihag": 8862,
  "bighan": 8863,
  "botswa": 8864,
  "botswana": 8865,
  "casal": 8866,
  "good": 8867,
  "harmon": 8868,
  "hib": 8869,
  "klinikal": 8870,
  "lei": 8871,
  "oryo": 8872,
  "panginoong": 8873,
  "talastas": 8874,
  "tetra": 8875,
  "dakong": 8876,
  "katatagan": 8877,
  "kiling": 8878,
  "nya": 8879,
  "other": 8880,
  "talud": 8881,
  "awstronesyo": 8882,
  "boli": 8883,
  "gly": 8884,
  "malakihang": 8885,
  "paglalayag": 8886,
  "range": 8887,
  "sumasailalim": 8888,
  "tinatanaw": 8889,
  "tome": 8890,
  "asen": 8891,
  "awtono": 8892,
  "basketball": 8893,
  "biyolohiyang": 8894,
  "dimensiyon": 8895,
  "erya": 8896,
  "harma": 8897,
  "isaias": 8898,
  "kaharap": 8899,
  "oposisyon": 8900,
  "pakikipagsa": 8901,
  "schiz": 8902,
  "service": 8903,
  "tensiyon": 8904,
  "aparato": 8905,
  "bida": 8906,
  "doc": 8907,
  "galan": 8908,
  "gradu": 8909,
  "kabalyero": 8910,
  "kontrobersiyal": 8911,
  "lagas": 8912,
  "okasyon": 8913,
  "pangan": 8914,
  "valenzuela": 8915,
  "   ": 8916,
  "jack": 8917,
  "kongre": 8918,
  "ml": 8919,
  "mamamatay": 8920,
  "mosyon": 8921,
  "pagbawas": 8922,
  "sapatos": 8923,
  "territory": 8924,
  "virginia": 8925,
  "wari": 8926,
  "1911": 8927,
  "diyalekto": 8928,
  "duan": 8929,
  "emilio": 8930,
  "hop": 8931,
  "indones": 8932,
  "isulat": 8933,
  "katuwaan": 8934,
  "monghe": 8935,
  "napatunayan": 8936,
  "pangangailangang": 8937,
  "propetang": 8938,
  "puro": 8939,
  "puson": 8940,
  "qi": 8941,
  "sumeryo": 8942,
  "tagagamit": 8943,
  "tugtuging": 8944,
  "unu": 8945,
  "yaon": 8946,
  "bahid": 8947,
  "bulong": 8948,
  "esian": 8949,
  "eusebio": 8950,
  "gayumpaman": 8951,
  "girl": 8952,
  "malawi": 8953,
  "meter": 8954,
  "molekulang": 8955,
  "quantum": 8956,
  "sakup": 8957,
  "serotonin": 8958,
  "commercial": 8959,
  "gino": 8960,
  "iyak": 8961,
  "kontrobersiya": 8962,
  "luna": 8963,
  "monarkiya": 8964,
  "panin": 8965,
  "1904": 8966,
  "atle": 8967,
  "caesar": 8968,
  "finland": 8969,
  "humin": 8970,
  "kakaunting": 8971,
  "kaliwanag": 8972,
  "magkaiba": 8973,
  "mandara": 8974,
  "nakakabit": 8975,
  "pagsasabing": 8976,
  "sakupbayan": 8977,
  "sambahayan": 8978,
  "abriol": 8979,
  "bob": 8980,
  "distribusyon": 8981,
  "hepburn": 8982,
  "itin": 8983,
  "melo": 8984,
  "nik": 8985,
  "rs": 8986,
  "sao": 8987,
  "stalin": 8988,
  "tumutungo": 8989,
  "alitang": 8990,
  "alerhiya": 8991,
  "bayo": 8992,
  "bigla": 8993,
  "garcia": 8994,
  "itania": 8995,
  "kadahilanang": 8996,
  "katolika": 8997,
  "maan": 8998,
  "ottoman": 8999,
  "panlulu": 9000,
  "sibilyan": 9001,
  "torika": 9002,
  "1921": 9003,
  "atomikong": 9004,
  "bean": 9005,
  "grabi": 9006,
  "hilaw": 9007,
  "katanyagan": 9008,
  "phan": 9009,
  "polyo": 9010,
  "325": 9011,
  "akto": 9012,
  "bb": 9013,
  "daryo": 9014,
  "kapaki": 9015,
  "pluwi": 9016,
  "punung": 9017,
  "uss": 9018,
  "yamang": 9019,
  "binyag": 9020,
  "kaibahan": 9021,
  "leban": 9022,
  "noe": 9023,
  "pabri": 9024,
  "pagpapasya": 9025,
  "pante": 9026,
  "panay": 9027,
  "diyosang": 9028,
  "eksperimental": 9029,
  "herze": 9030,
  "kling": 9031,
  "kababalag": 9032,
  "katiwa": 9033,
  "naghahangad": 9034,
  "parana": 9035,
  "pinaik": 9036,
  "pinansiyal": 9037,
  "putok": 9038,
  "ritong": 9039,
  "sede": 9040,
  "semen": 9041,
  "xy": 9042,
  "yena": 9043,
  "herzegovina": 9044,
  "imbento": 9045,
  "klaw": 9046,
  "lumawak": 9047,
  "malusog": 9048,
  "monasteryo": 9049,
  "nagsi": 9050,
  "pagko": 9051,
  "algor": 9052,
  "della": 9053,
  "idinaos": 9054,
  "ject": 9055,
  "jehova": 9056,
  "khamun": 9057,
  "kritikal": 9058,
  "kulto": 9059,
  "maglala": 9060,
  "master": 9061,
  "minasyong": 9062,
  "mosa": 9063,
  "naisip": 9064,
  "nakapagbibigay": 9065,
  "nakapagdu": 9066,
  "pampalasa": 9067,
  "photo": 9068,
  "agimat": 9069,
  "bakr": 9070,
  "benigno": 9071,
  "dinadaglat": 9072,
  "district": 9073,
  "hori": 9074,
  "lisado": 9075,
  "literatu": 9076,
  "pulisya": 9077,
  "thesis": 9078,
  "1912": 9079,
  "koman": 9080,
  "makasa": 9081,
  "mentaryong": 9082,
  "name": 9083,
  "niger": 9084,
  "pta": 9085,
  "sulatin": 9086,
  "togo": 9087,
  "castil": 9088,
  "charlois": 9089,
  "gabri": 9090,
  "giovanni": 9091,
  "inihalal": 9092,
  "kaliwanagan": 9093,
  "mahalaan": 9094,
  "nakaharap": 9095,
  "palayaw": 9096,
  "sed": 9097,
  "talumpati": 9098,
  "villar": 9099,
  "alkohol": 9100,
  "kalinga": 9101,
  "manipis": 9102,
  "rador": 9103,
  "somalia": 9104,
  "sung": 9105,
  "sustansiyang": 9106,
  "taryong": 9107,
  "teknolohiyang": 9108,
  "bingi": 9109,
  "boses": 9110,
  "canan": 9111,
  "coast": 9112,
  "glas": 9113,
  "kinggan": 9114,
  "mous": 9115,
  "names": 9116,
  "pagtanggol": 9117,
  "salv": 9118,
  "series": 9119,
  "tee": 9120,
  "dip": 9121,
  "gnos": 9122,
  "herac": 9123,
  "hiyas": 9124,
  "judea": 9125,
  "kaang": 9126,
  "matagpuan": 9127,
  "ns": 9128,
  "nakahiwalay": 9129,
  "nakala": 9130,
  "nepal": 9131,
  "ridge": 9132,
  "than": 9133,
  "buil": 9134,
  "datang": 9135,
  "deuteronomi": 9136,
  "nagagawa": 9137,
  "naghahayag": 9138,
  "seksiyon": 9139,
  "sensitibo": 9140,
  "tower": 9141,
  "apely": 9142,
  "belo": 9143,
  "bolismo": 9144,
  "igh": 9145,
  "inius": 9146,
  "manlalakbay": 9147,
  "otho": 9148,
  "pagdaan": 9149,
  "serbiya": 9150,
  "sona": 9151,
  "umpisal": 9152,
  "110": 9153,
  "aster": 9154,
  "cabo": 9155,
  "kalayaang": 9156,
  "kuko": 9157,
  "pagpapalawig": 9158,
  "pinapayagan": 9159,
  "sagradong": 9160,
  "atana": 9161,
  "atay": 9162,
  "alituntunin": 9163,
  "bumababa": 9164,
  "carbo": 9165,
  "cote": 9166,
  "gamo": 9167,
  "gian": 9168,
  "hiniling": 9169,
  "kagawad": 9170,
  "ortho": 9171,
  "tumatalakay": 9172,
  "yemen": 9173,
  "eda": 9174,
  "nuo": 9175,
  "paglulu": 9176,
  "romania": 9177,
  "sadong": 9178,
  "siglong": 9179,
  "sinapit": 9180,
  "yugoslav": 9181,
  "1955": 9182,
  "chief": 9183,
  "hiling": 9184,
  "inili": 9185,
  "koso": 9186,
  "lesotho": 9187,
  "naroon": 9188,
  "papuri": 9189,
  "salaysaying": 9190,
  "siding": 9191,
  "sugo": 9192,
  "tikos": 9193,
  "domin": 9194,
  "empire": 9195,
  "igi": 9196,
  "magagandang": 9197,
  "makat": 9198,
  "ophren": 9199,
  "patimog": 9200,
  "paganong": 9201,
  "rina": 9202,
  "rebeldeng": 9203,
  "biyaya": 9204,
  "empleyado": 9205,
  "hama": 9206,
  "hangarin": 9207,
  "kawayan": 9208,
  "mambabasa": 9209,
  "ophrenia": 9210,
  "palapag": 9211,
  "pambiyolohiya": 9212,
  "pithecus": 9213,
  "prekwensiya": 9214,
  "schizophrenia": 9215,
  "suwe": 9216,
  "importanteng": 9217,
  "magpakita": 9218,
  "natamo": 9219,
  "ekspedisyon": 9220,
  "fel": 9221,
  "margin": 9222,
  "movement": 9223,
  "naglalabas": 9224,
  "naroroon": 9225,
  "opla": 9226,
  "tanaw": 9227,
  "thra": 9228,
  "banayad": 9229,
  "cross": 9230,
  "ecija": 9231,
  "fren": 9232,
  "inuuri": 9233,
  "kayumanggi": 9234,
  "manupak": 9235,
  "masayang": 9236,
  "nucleo": 9237,
  "pagsasarili": 9238,
  "sasco": 9239,
  "won": 9240,
  "your": 9241,
  "alika": 9242,
  "biyos": 9243,
  "borgo": 9244,
  "cker": 9245,
  "gpo": 9246,
  "guin": 9247,
  "hinog": 9248,
  "kilometrong": 9249,
  "pangitain": 9250,
  "tsan": 9251,
  "alikabok": 9252,
  "derick": 9253,
  "homin": 9254,
  "magkakapatid": 9255,
  "makaranas": 9256,
  "mauriti": 9257,
  "phe": 9258,
  "pakikibaka": 9259,
  "patnugot": 9260,
  "soberanong": 9261,
  "vu": 9262,
  "walhati": 9263,
  "wanda": 9264,
  "xin": 9265,
  "yao": 9266,
  "abraham": 9267,
  "bam": 9268,
  "basil": 9269,
  "erit": 9270,
  "gul": 9271,
  "hae": 9272,
  "kubo": 9273,
  "kuna": 9274,
  "mahistrado": 9275,
  "mister": 9276,
  "nazareth": 9277,
  "peru": 9278,
  "tulan": 9279,
  "yel": 9280,
  "arit": 9281,
  "bulutong": 9282,
  "censo": 9283,
  "clemente": 9284,
  "ekspresyon": 9285,
  "iilang": 9286,
  "konstitusyonal": 9287,
  "langkas": 9288,
  "semit": 9289,
  "senegal": 9290,
  "diocle": 9291,
  "kamalayang": 9292,
  "kainin": 9293,
  "napiling": 9294,
  "northern": 9295,
  "pagtataguyod": 9296,
  "suportang": 9297,
  "tagapagbatas": 9298,
  "asno": 9299,
  "brasil": 9300,
  "huang": 9301,
  "ibal": 9302,
  "wasakin": 9303,
  "bakteryang": 9304,
  "dut": 9305,
  "ental": 9306,
  "kinata": 9307,
  "kompleks": 9308,
  "nagbi": 9309,
  "renasi": 9310,
  "reproduksiyong": 9311,
  "trat": 9312,
  "tunisia": 9313,
  "antipolo": 9314,
  "bouti": 9315,
  "bulkang": 9316,
  "diang": 9317,
  "ense": 9318,
  "fish": 9319,
  "kagandahang": 9320,
  "mauritius": 9321,
  "natiling": 9322,
  "pagwawakas": 9323,
  "pascu": 9324,
  "phyla": 9325,
  "aalala": 9326,
  "hinika": 9327,
  "hinikayat": 9328,
  "huwaran": 9329,
  "ipinasa": 9330,
  "kaliwang": 9331,
  "mars": 9332,
  "moti": 9333,
  "mud": 9334,
  "pagkabata": 9335,
  "pangkalinangan": 9336,
  "peno": 9337,
  "pinakadakilang": 9338,
  "pinalawig": 9339,
  "plato": 9340,
  "pseudo": 9341,
  "sandatang": 9342,
  "sandatahan": 9343,
  "taryo": 9344,
  "termo": 9345,
  "dji": 9346,
  "justinian": 9347,
  "pagpipili": 9348,
  "pamimin": 9349,
  "pating": 9350,
  "rhan": 9351,
  "taun": 9352,
  "tise": 9353,
  "tulin": 9354,
  "algorit": 9355,
  "graphi": 9356,
  "hinatnan": 9357,
  "jiang": 9358,
  "masore": 9359,
  "pangkimika": 9360,
  "pangamba": 9361,
  "santong": 9362,
  "torah": 9363,
  "anatomiyang": 9364,
  "budismong": 9365,
  "debe": 9366,
  "europeong": 9367,
  "libreng": 9368,
  "luklok": 9369,
  "manalo": 9370,
  "pito": 9371,
  "pagkakasunod": 9372,
  "paranaque": 9373,
  "salik": 9374,
  "sell": 9375,
  "tutankhamun": 9376,
  "kapapa": 9377,
  "lutuin": 9378,
  "magnetiko": 9379,
  "massa": 9380,
  "paslang": 9381,
  "pinaunlad": 9382,
  "topher": 9383,
  "trabaha": 9384,
  "band": 9385,
  "culture": 9386,
  "ilala": 9387,
  "lake": 9388,
  "portahan": 9389,
  "djibouti": 9390,
  "inyo": 9391,
  "makilahok": 9392,
  "namin": 9393,
  "naglaho": 9394,
  "nakasakay": 9395,
  "nio": 9396,
  "ortodoksiya": 9397,
  "pormulang": 9398,
  "ratio": 9399,
  "they": 9400,
  "trabahador": 9401,
  "aph": 9402,
  "benin": 9403,
  "bilu": 9404,
  "binigay": 9405,
  "kasamaan": 9406,
  "luc": 9407,
  "masya": 9408,
  "pinangung": 9409,
  "sentimetro": 9410,
  "tagsibol": 9411,
  "umangkop": 9412,
  "idae": 9413,
  "kov": 9414,
  "napunta": 9415,
  "sakay": 9416,
  "silanganin": 9417,
  "thu": 9418,
  "titan": 9419,
  "toro": 9420,
  "aurora": 9421,
  "bruno": 9422,
  "dobleng": 9423,
  "malalayong": 9424,
  "nakasentro": 9425,
  "produktibidad": 9426,
  "ss": 9427,
  "bakunang": 9428,
  "damong": 9429,
  "dionysus": 9430,
  "jim": 9431,
  "kalakhan": 9432,
  "kitaan": 9433,
  "napatunayang": 9434,
  "pagdurugo": 9435,
  "sinuportahan": 9436,
  "binabasa": 9437,
  "dalubhasang": 9438,
  "ivoire": 9439,
  "lohiko": 9440,
  "pamumuhunan": 9441,
  "pananalig": 9442,
  "paniwala": 9443,
  "reproduktibo": 9444,
  "salamuha": 9445,
  "cole": 9446,
  "heri": 9447,
  "idea": 9448,
  "jour": 9449,
  "kasuk": 9450,
  "siang": 9451,
  "ditor": 9452,
  "helm": 9453,
  "kumben": 9454,
  "moy": 9455,
  "nur": 9456,
  "natukoy": 9457,
  "pagsi": 9458,
  "pangkabuhayan": 9459,
  "tary": 9460,
  "tritis": 9461,
  "123": 9462,
  "cide": 9463,
  "fur": 9464,
  "kalimitan": 9465,
  "lohikang": 9466,
  "nakakalat": 9467,
  "nicolas": 9468,
  "place": 9469,
  "primado": 9470,
  "solong": 9471,
  "dioxide": 9472,
  "dumaraan": 9473,
  "fied": 9474,
  "gasig": 9475,
  "hanapin": 9476,
  "ments": 9477,
  "pical": 9478,
  "pinagkaka": 9479,
  "point": 9480,
  "stone": 9481,
  "wealth": 9482,
  "artritis": 9483,
  "basin": 9484,
  "garo": 9485,
  "gawiang": 9486,
  "gintong": 9487,
  "lehiti": 9488,
  "mble": 9489,
  "nakapagta": 9490,
  "paco": 9491,
  "porte": 9492,
  "tignan": 9493,
  "udyok": 9494,
  "confu": 9495,
  "ekwilibrium": 9496,
  "humahawak": 9497,
  "kame": 9498,
  "kapinsala": 9499,
  "libu": 9500,
  "magin": 9501,
  "nagtipon": 9502,
  "nanganganib": 9503,
  "signal": 9504,
  "iniksiyon": 9505,
  "loyd": 9506,
  "migrante": 9507,
  "nakakaranas": 9508,
  "osis": 9509,
  "pwesto": 9510,
  "pac": 9511,
  "suriin": 9512,
  "1893": 9513,
  "ern": 9514,
  "kasagana": 9515,
  "mananampalataya": 9516,
  "matuwid": 9517,
  "tagapagsalita": 9518,
  "tist": 9519,
  "1915": 9520,
  "banyaga": 9521,
  "berde": 9522,
  "civil": 9523,
  "guo": 9524,
  "katimugan": 9525,
  "naghari": 9526,
  "pagpapabuti": 9527,
  "prody": 9528,
  "rile": 9529,
  "sanggalang": 9530,
  "sasabi": 9531,
  "sinikap": 9532,
  "uro": 9533,
  "atanasio": 9534,
  "ctions": 9535,
  "ingan": 9536,
  "inilibing": 9537,
  "insekto": 9538,
  "kaligayahan": 9539,
  "katunggali": 9540,
  "kumukuha": 9541,
  "mithi": 9542,
  "pagtawag": 9543,
  "rog": 9544,
  "ulang": 9545,
  "ampon": 9546,
  "alahas": 9547,
  "biyahe": 9548,
  "byzan": 9549,
  "dalangtao": 9550,
  "kahon": 9551,
  "karaming": 9552,
  "kinondena": 9553,
  "limutan": 9554,
  "lumalaban": 9555,
  "pagsuporta": 9556,
  "sumikat": 9557,
  "sunud": 9558,
  "transmitter": 9559,
  "handaan": 9560,
  "hukumang": 9561,
  "isinalaysay": 9562,
  "maku": 9563,
  "pasyang": 9564,
  "sic": 9565,
  "1861": 9566,
  "astronomi": 9567,
  "cp": 9568,
  "gsak": 9569,
  "helin": 9570,
  "himala": 9571,
  "instrumento": 9572,
  "juana": 9573,
  "magkakasunod": 9574,
  "mandirigma": 9575,
  "resistan": 9576,
  "deutero": 9577,
  "inhinyerong": 9578,
  "iniuugnay": 9579,
  "isinasaad": 9580,
  "istrukturang": 9581,
  "jones": 9582,
  "lta": 9583,
  "matatawag": 9584,
  "pangsikolohiya": 9585,
  "panood": 9586,
  "papua": 9587,
  "pinakahuling": 9588,
  "sot": 9589,
  "ariano": 9590,
  "buwang": 9591,
  "dt": 9592,
  "dista": 9593,
  "hispano": 9594,
  "hulaan": 9595,
  "ikalito": 9596,
  "lm": 9597,
  "nagbukas": 9598,
  "nagbunga": 9599,
  "pagpapalagay": 9600,
  "pandaraya": 9601,
  "villano": 9602,
  "yernes": 9603,
  "dot": 9604,
  "hik": 9605,
  "hospital": 9606,
  "katunggaling": 9607,
  "komiks": 9608,
  "magaganap": 9609,
  "nordiko": 9610,
  "poot": 9611,
  "aritme": 9612,
  "batikos": 9613,
  "beet": 9614,
  "dao": 9615,
  "esco": 9616,
  "iron": 9617,
  "ligsa": 9618,
  "likado": 9619,
  "mawa": 9620,
  "maihahambing": 9621,
  "maipapa": 9622,
  "perto": 9623,
  "residente": 9624,
  "afghanistan": 9625,
  "alyansa": 9626,
  "bisan": 9627,
  "burundi": 9628,
  "christopher": 9629,
  "dangal": 9630,
  "dela": 9631,
  "eksuwalidad": 9632,
  "kandila": 9633,
  "lab": 9634,
  "old": 9635,
  "pabrika": 9636,
  "pagsasabi": 9637,
  "rero": 9638,
  "swaz": 9639,
  "swaziland": 9640,
  "tasis": 9641,
  "aming": 9642,
  "bble": 9643,
  "balag": 9644,
  "batu": 9645,
  "gugu": 9646,
  "ksa": 9647,
  "kahang": 9648,
  "konsul": 9649,
  "legaz": 9650,
  "legazpi": 9651,
  "nakakaha": 9652,
  "pascual": 9653,
  "poto": 9654,
  "sapin": 9655,
  "yolohiya": 9656,
  "acid": 9657,
  "argen": 9658,
  "biyernes": 9659,
  "bush": 9660,
  "itinaas": 9661,
  "kombina": 9662,
  "little": 9663,
  "mauri": 9664,
  "monastero": 9665,
  "obaryo": 9666,
  "pet": 9667,
  "rwanda": 9668,
  "square": 9669,
  "umuwi": 9670,
  "wede": 9671,
  "balanse": 9672,
  "hab": 9673,
  "hinala": 9674,
  "imbestigasyon": 9675,
  "kondena": 9676,
  "macar": 9677,
  "manirahan": 9678,
  "medes": 9679,
  "misamis": 9680,
  "salle": 9681,
  "tanto": 9682,
  "bella": 9683,
  "chus": 9684,
  "duk": 9685,
  "dumami": 9686,
  "enza": 9687,
  "felix": 9688,
  "impiyerno": 9689,
  "itinatakwil": 9690,
  "kasalungat": 9691,
  "mund": 9692,
  "napakalaking": 9693,
  "quo": 9694,
  "sindro": 9695,
  "tyla": 9696,
  "young": 9697,
  "busin": 9698,
  "chelles": 9699,
  "etimo": 9700,
  "gabon": 9701,
  "influ": 9702,
  "isabela": 9703,
  "japanese": 9704,
  "kaun": 9705,
  "mbayan": 9706,
  "maz": 9707,
  "marx": 9708,
  "minus": 9709,
  "most": 9710,
  "naaayon": 9711,
  "pagkalu": 9712,
  "panayam": 9713,
  "pisiko": 9714,
  "reser": 9715,
  "simeis": 9716,
  "talambuhay": 9717,
  "ultang": 9718,
  "astrono": 9719,
  "catho": 9720,
  "itinanghal": 9721,
  "josue": 9722,
  "know": 9723,
  "kayan": 9724,
  "lebanon": 9725,
  "magsalita": 9726,
  "memori": 9727,
  "mediterran": 9728,
  "nerb": 9729,
  "opya": 9730,
  "sariwang": 9731,
  "tanaro": 9732,
  "asul": 9733,
  "abogado": 9734,
  "armas": 9735,
  "endo": 9736,
  "gutan": 9737,
  "ilokano": 9738,
  "kilalanin": 9739,
  "kosovo": 9740,
  "litwaniya": 9741,
  "manganga": 9742,
  "pagpipinta": 9743,
  "pinakamahabang": 9744,
  "pinangungunahan": 9745,
  "sui": 9746,
  "tinanggal": 9747,
  "tinatagu": 9748,
  "usin": 9749,
  "antala": 9750,
  "atraksiyon": 9751,
  "eigen": 9752,
  "education": 9753,
  "ign": 9754,
  "kinukuha": 9755,
  "lama": 9756,
  "matiti": 9757,
  "manonood": 9758,
  "pinalawak": 9759,
  "sangang": 9760,
  "batasang": 9761,
  "hili": 9762,
  "julius": 9763,
  "ladong": 9764,
  "navo": 9765,
  "neur": 9766,
  "resis": 9767,
  "sq": 9768,
  "turbasyon": 9769,
  "antidepres": 9770,
  "binili": 9771,
  "julian": 9772,
  "sakuna": 9773,
  "ston": 9774,
  "teolohikal": 9775,
  "antidepressant": 9776,
  "cula": 9777,
  "famil": 9778,
  "fungi": 9779,
  "heometri": 9780,
  "kabayaran": 9781,
  "litid": 9782,
  "lupalop": 9783,
  "mesopotamia": 9784,
  "nanaig": 9785,
  "nuovo": 9786,
  "paglapit": 9787,
  "seychelles": 9788,
  "tagang": 9789,
  "woj": 9790,
  "eksklusibong": 9791,
  "epide": 9792,
  "eritrea": 9793,
  "katalinu": 9794,
  "lrt": 9795,
  "linear": 9796,
  "mista": 9797,
  "mn": 9798,
  "maiksing": 9799,
  "masidhing": 9800,
  "salamba": 9801,
  "wikipediang": 9802,
  "anang": 9803,
  "contra": 9804,
  "det": 9805,
  "homopo": 9806,
  "kasuotang": 9807,
  "less": 9808,
  "matematiko": 9809,
  "nathan": 9810,
  "sibu": 9811,
  "sirk": 9812,
  "tayog": 9813,
  "ussr": 9814,
  "ways": 9815,
  "banyagang": 9816,
  "crat": 9817,
  "dello": 9818,
  "ensik": 9819,
  "gip": 9820,
  "inaalok": 9821,
  "inirereko": 9822,
  "kalupa": 9823,
  "kapapahan": 9824,
  "lapu": 9825,
  "libra": 9826,
  "navotas": 9827,
  "qa": 9828,
  "shang": 9829,
  "vag": 9830,
  "bariasyon": 9831,
  "beng": 9832,
  "castig": 9833,
  "dumanas": 9834,
  "evan": 9835,
  "gerilya": 9836,
  "komposisyon": 9837,
  "maneho": 9838,
  "natatagpuan": 9839,
  "pinanggalingan": 9840,
  "sario": 9841,
  "baro": 9842,
  "chro": 9843,
  "estilong": 9844,
  "inos": 9845,
  "kapulungang": 9846,
  "karugtong": 9847,
  "luha": 9848,
  "lunan": 9849,
  "mahahabang": 9850,
  "panulat": 9851,
  "peras": 9852,
  "pinamahalaan": 9853,
  "solido": 9854,
  "billboard": 9855,
  "burkina": 9856,
  "castelnuovo": 9857,
  "groo": 9858,
  "idineklara": 9859,
  "microsoft": 9860,
  "mile": 9861,
  "naghiwalay": 9862,
  "pinakakilalang": 9863,
  "tayong": 9864,
  "vla": 9865,
  "xii": 9866,
  "economic": 9867,
  "grabidad": 9868,
  "maggio": 9869,
  "nguni": 9870,
  "pakikilahok": 9871,
  "particle": 9872,
  "reaksiyong": 9873,
  "resyon": 9874,
  "swi": 9875,
  "saga": 9876,
  "shoe": 9877,
  "taman": 9878,
  "commission": 9879,
  "doming": 9880,
  "higan": 9881,
  "isis": 9882,
  "nagpapatakbo": 9883,
  "ous": 9884,
  "panlikod": 9885,
  "tabla": 9886,
  "vier": 9887,
  "destina": 9888,
  "naitalang": 9889,
  "pantubig": 9890,
  "rehis": 9891,
  "separ": 9892,
  "talento": 9893,
  "watch": 9894,
  "banglad": 9895,
  "bik": 9896,
  "hawig": 9897,
  "josephus": 9898,
  "live": 9899,
  "republikano": 9900,
  "sesyon": 9901,
  "tica": 9902,
  "tuk": 9903,
  "bintang": 9904,
  "chinese": 9905,
  "digri": 9906,
  "ehr": 9907,
  "ipinapalagay": 9908,
  "kabanalan": 9909,
  "nitro": 9910,
  "pagtanaw": 9911,
  "pangingisda": 9912,
  "scre": 9913,
  "twal": 9914,
  "tibis": 9915,
  "ukraine": 9916,
  "aut": 9917,
  "biolohiya": 9918,
  "buntal": 9919,
  "ebolusyonaryong": 9920,
  "flight": 9921,
  "inyong": 9922,
  "kaalamang": 9923,
  "kontemporaryong": 9924,
  "myan": 9925,
  "plum": 9926,
  "puhunan": 9927,
  "repormang": 9928,
  "sinusukat": 9929,
  "theodore": 9930,
  "timor": 9931,
  "arthur": 9932,
  "atensiyon": 9933,
  "bawasan": 9934,
  "dekla": 9935,
  "depensa": 9936,
  "disku": 9937,
  "matapat": 9938,
  "mungkahing": 9939,
  "pain": 9940,
  "pagkakala": 9941,
  "pagpapatiwakal": 9942,
  "teresa": 9943,
  "uccle": 9944,
  "braso": 9945,
  "castiglione": 9946,
  "change": 9947,
  "faso": 9948,
  "nagsis": 9949,
  "pagsasalinwika": 9950,
  "pakikipagta": 9951,
  "yanang": 9952,
  "1800": 9953,
  "arch": 9954,
  "cere": 9955,
  "galen": 9956,
  "kaparusahan": 9957,
  "kumbinasyon": 9958,
  "labag": 9959,
  "lec": 9960,
  "makatu": 9961,
  "pagtanggal": 9962,
  "pananggalang": 9963,
  "records": 9964,
  "respeto": 9965,
  "rose": 9966,
  "sinasalungat": 9967,
  "thur": 9968,
  "umus": 9969,
  "alaska": 9970,
  "dn": 9971,
  "ginhawa": 9972,
  "kinalaunan": 9973,
  "pransis": 9974,
  "ptole": 9975,
  "site": 9976,
  "sayt": 9977,
  "sekun": 9978,
  "tasio": 9979,
  "topolohiya": 9980,
  "tulisan": 9981,
  "umusbong": 9982,
  "1928": 9983,
  "ague": 9984,
  "armadong": 9985,
  "dragon": 9986,
  "mauritania": 9987,
  "moderno": 9988,
  "pagpasa": 9989,
  "pagsalungat": 9990,
  "public": 9991,
  "shak": 9992,
  "armenia": 9993,
  "hormone": 9994,
  "if": 9995,
  "karl": 9996,
  "kasalubong": 9997,
  "kut": 9998,
  "langaw": 9999,
  "language": 10000,
  "mababasa": 10001,
  "myce": 10002,
  "naghihiwalay": 10003,
  "natitiyak": 10004,
  "office": 10005,
  "panlahat": 10006,
  "reperensiya": 10007,
  "two": 10008,
  "tx": 10009,
  "ult": 10010,
  "depression": 10011,
  "disenyong": 10012,
  "etc": 10013,
  "ingatan": 10014,
  "lai": 10015,
  "logical": 10016,
  "manupaktura": 10017,
  "nasira": 10018,
  "nagkakaiba": 10019,
  "panggagahasa": 10020,
  "panunu": 10021,
  "pinakamababang": 10022,
  "plastik": 10023,
  "punt": 10024,
  "rahang": 10025,
  "theory": 10026,
  "anus": 10027,
  "archa": 10028,
  "harry": 10029,
  "katuruang": 10030,
  "kosa": 10031,
  "misteryo": 10032,
  "nabawasan": 10033,
  "negrito": 10034,
  "padron": 10035,
  "pagkabigo": 10036,
  "pagnanakaw": 10037,
  "pilgri": 10038,
  "plural": 10039,
  "telang": 10040,
  "tone": 10041,
  "125": 10042,
  "amor": 10043,
  "asse": 10044,
  "binondo": 10045,
  "dv": 10046,
  "egy": 10047,
  "hira": 10048,
  "ipinagkaloob": 10049,
  "noli": 10050,
  "vich": 10051,
  "3px": 10052,
  "dun": 10053,
  "ekwa": 10054,
  "ekwador": 10055,
  "emosyonal": 10056,
  "etto": 10057,
  "globo": 10058,
  "humalili": 10059,
  "ilabas": 10060,
  "lumubog": 10061,
  "minamahal": 10062,
  "prusya": 10063,
  "pagkit": 10064,
  "russell": 10065,
  "sampaloc": 10066,
  "siri": 10067,
  "southern": 10068,
  "tulog": 10069,
  "uuri": 10070,
  "aaring": 10071,
  "deta": 10072,
  "depinisyon": 10073,
  "hemispero": 10074,
  "koreanong": 10075,
  "liberia": 10076,
  "nagebolb": 10077,
  "nakasaad": 10078,
  "numerikal": 10079,
  "orthodox": 10080,
  "pagsasalaysay": 10081,
  "silver": 10082,
  "villanova": 10083,
  "1924": 10084,
  "aro": 10085,
  "dependensiya": 10086,
  "heswi": 10087,
  "kritisismo": 10088,
  "nakalaan": 10089,
  "pib": 10090,
  "rehiyonal": 10091,
  "91": 10092,
  "bahagya": 10093,
  "enrile": 10094,
  "gr": 10095,
  "gener": 10096,
  "hedrin": 10097,
  "imbentor": 10098,
  "lumilipad": 10099,
  "maggiore": 10100,
  "paggana": 10101,
  "pagtanda": 10102,
  "salmo": 10103,
  "sanhedrin": 10104,
  "track": 10105,
  "zono": 10106,
  "akhena": 10107,
  "akademiko": 10108,
  "apatnapu": 10109,
  "apelyido": 10110,
  "cananeo": 10111,
  "disyerto": 10112,
  "ginang": 10113,
  "humawak": 10114,
  "mathemati": 10115,
  "nagpaalam": 10116,
  "nakikilahok": 10117,
  "panghuli": 10118,
  "principe": 10119,
  "sure": 10120,
  "wall": 10121,
  "xian": 10122,
  "alisyon": 10123,
  "alamin": 10124,
  "brooklyn": 10125,
  "dc": 10126,
  "frances": 10127,
  "nangako": 10128,
  "sensor": 10129,
  "zeki": 10130,
  "bap": 10131,
  "ece": 10132,
  "guil": 10133,
  "koalisyon": 10134,
  "koreo": 10135,
  "mamaya": 10136,
  "naiwan": 10137,
  "perm": 10138,
  "puw": 10139,
  "sansinu": 10140,
  "sansinukob": 10141,
  "syl": 10142,
  "torino": 10143,
  "yebal": 10144,
  "buhangin": 10145,
  "deuteronomio": 10146,
  "etnikong": 10147,
  "ipinagpatuloy": 10148,
  "kahinaan": 10149,
  "kalakalang": 10150,
  "katalinuhan": 10151,
  "magnetic": 10152,
  "nakatatanda": 10153,
  "natupad": 10154,
  "praksiyon": 10155,
  "bangladesh": 10156,
  "broadcasting": 10157,
  "cit": 10158,
  "crates": 10159,
  "camp": 10160,
  "ginampanan": 10161,
  "hebre": 10162,
  "kanino": 10163,
  "kapiling": 10164,
  "kongregasyon": 10165,
  "kumikilala": 10166,
  "lateral": 10167,
  "nakaupo": 10168,
  "nakapagdurulot": 10169,
  "patak": 10170,
  "panghihina": 10171,
  "pinakasalan": 10172,
  "pinaslang": 10173,
  "puwitan": 10174,
  "romantiko": 10175,
  "verage": 10176,
  "wojtyla": 10177,
  "1909": 10178,
  "asensiyon": 10179,
  "babasahin": 10180,
  "lumalaking": 10181,
  "musik": 10182,
  "nagbabayad": 10183,
  "page": 10184,
  "pagkakatapon": 10185,
  "pangalanan": 10186,
  "repormasyon": 10187,
  "talampas": 10188,
  "tristan": 10189,
  "aalaga": 10190,
  "akhenaten": 10191,
  "campus": 10192,
  "cea": 10193,
  "chair": 10194,
  "humaharap": 10195,
  "ipagtanggol": 10196,
  "kaurian": 10197,
  "magnet": 10198,
  "model": 10199,
  "mpla": 10200,
  "off": 10201,
  "paghirang": 10202,
  "pandarayuhan": 10203,
  "rosas": 10204,
  "sistematikong": 10205,
  "trahe": 10206,
  "uusapan": 10207,
  "yus": 10208,
  "bohol": 10209,
  "eba": 10210,
  "esto": 10211,
  "gnan": 10212,
  "ginawaran": 10213,
  "italia": 10214,
  "mabang": 10215,
  "maalamat": 10216,
  "mababaw": 10217,
  "manggagawang": 10218,
  "mayot": 10219,
  "myanmar": 10220,
  "napilitan": 10221,
  "nars": 10222,
  "pasyon": 10223,
  "rvana": 10224,
  "atorial": 10225,
  "basketbol": 10226,
  "empirikal": 10227,
  "heolohiya": 10228,
  "immuno": 10229,
  "kuwe": 10230,
  "lubid": 10231,
  "nahuli": 10232,
  "nagbubunga": 10233,
  "regulasyon": 10234,
  "sela": 10235,
  "self": 10236,
  "agos": 10237,
  "ayan": 10238,
  "ayang": 10239,
  "bias": 10240,
  "bumi": 10241,
  "equatorial": 10242,
  "harvard": 10243,
  "partikulong": 10244,
  "rehimeng": 10245,
  "terorismo": 10246,
  "very": 10247,
  "bumisita": 10248,
  "class": 10249,
  "gawan": 10250,
  "insidente": 10251,
  "kompe": 10252,
  "komunikasyong": 10253,
  "matapang": 10254,
  "naghihintay": 10255,
  "oku": 10256,
  "television": 10257,
  "tinanggihan": 10258,
  "buhos": 10259,
  "bungad": 10260,
  "espesiasyon": 10261,
  "gior": 10262,
  "grana": 10263,
  "iiwan": 10264,
  "macedonian": 10265,
  "nakaimpluwensiya": 10266,
  "nic": 10267,
  "pagdami": 10268,
  "paghahatid": 10269,
  "pagkakahati": 10270,
  "pasukan": 10271,
  "phos": 10272,
  "studio": 10273,
  "also": 10274,
  "buno": 10275,
  "dinadala": 10276,
  "imel": 10277,
  "iola": 10278,
  "jen": 10279,
  "kusa": 10280,
  "lb": 10281,
  "lilipat": 10282,
  "lumagda": 10283,
  "montaldo": 10284,
  "mpalak": 10285,
  "nagpala": 10286,
  "ngit": 10287,
  "pagdaloy": 10288,
  "salan": 10289,
  "samo": 10290,
  "team": 10291,
  "tilyo": 10292,
  "tumatawag": 10293,
  "1880": 10294,
  "genes": 10295,
  "ginal": 10296,
  "hulog": 10297,
  "keso": 10298,
  "katang": 10299,
  "kontribusyon": 10300,
  "lutang": 10301,
  "mbiya": 10302,
  "only": 10303,
  "paghahayag": 10304,
  "pagkakasundo": 10305,
  "panguluhan": 10306,
  "pulutong": 10307,
  "rp": 10308,
  "taft": 10309,
  "zamba": 10310,
  "alpha": 10311,
  "anatolia": 10312,
  "basta": 10313,
  "bertebrado": 10314,
  "esi": 10315,
  "harapang": 10316,
  "inp": 10317,
  "itinakdang": 10318,
  "kababalaghan": 10319,
  "matiyak": 10320,
  "nuk": 10321,
  "pagtalakay": 10322,
  "shoemaker": 10323,
  "sungay": 10324,
  "tibur": 10325,
  "tunidad": 10326,
  "uda": 10327,
  "zambales": 10328,
  "zzolo": 10329,
  "dish": 10330,
  "dumu": 10331,
  "ensay": 10332,
  "ipinatapon": 10333,
  "ishi": 10334,
  "isinaayos": 10335,
  "kadiliman": 10336,
  "lesbi": 10337,
  "mayotte": 10338,
  "mbalan": 10339,
  "pagpupun": 10340,
  "struck": 10341,
  "tabas": 10342,
  "arc": 10343,
  "baliw": 10344,
  "cl": 10345,
  "caesa": 10346,
  "chio": 10347,
  "dard": 10348,
  "darama": 10349,
  "dilim": 10350,
  "etno": 10351,
  "marga": 10352,
  "masoretiko": 10353,
  "nagrere": 10354,
  "rila": 10355,
  "suman": 10356,
  "aksidente": 10357,
  "alkimi": 10358,
  "fuku": 10359,
  "matanggap": 10360,
  "magsanhi": 10361,
  "nagtungo": 10362,
  "orkestra": 10363,
  "pinal": 10364,
  "vaisa": 10365,
  "cts": 10366,
  "carl": 10367,
  "chy": 10368,
  "dharma": 10369,
  "dias": 10370,
  "indiana": 10371,
  "isaalang": 10372,
  "mahay": 10373,
  "maluwag": 10374,
  "napagmasdan": 10375,
  "ngi": 10376,
  "pwa": 10377,
  "region": 10378,
  "sumasang": 10379,
  "tropical": 10380,
  "bariabulo": 10381,
  "ference": 10382,
  "ipon": 10383,
  "ketongin": 10384,
  "milan": 10385,
  "maw": 10386,
  "pagkaantig": 10387,
  "rehen": 10388,
  "rosaryo": 10389,
  "sahra": 10390,
  "sakahan": 10391,
  "tansong": 10392,
  "tiburcio": 10393,
  "treat": 10394,
  "akademya": 10395,
  "freud": 10396,
  "gagamit": 10397,
  "hapdi": 10398,
  "kahusayan": 10399,
  "katama": 10400,
  "kee": 10401,
  "koneksiyon": 10402,
  "mais": 10403,
  "makasalanan": 10404,
  "napala": 10405,
  "rights": 10406,
  "severus": 10407,
  "tago": 10408,
  "talababa": 10409,
  "uka": 10410,
  "bagoong": 10411,
  "cai": 10412,
  "control": 10413,
  "db": 10414,
  "giran": 10415,
  "hatulan": 10416,
  "ipinagpapa": 10417,
  "isinasaalang": 10418,
  "jar": 10419,
  "kaban": 10420,
  "katauhang": 10421,
  "nuestra": 10422,
  "pagpapalawak": 10423,
  "pinagsa": 10424,
  "wilhelm": 10425,
  "anino": 10426,
  "basang": 10427,
  "constantinopla": 10428,
  "cyprus": 10429,
  "domingo": 10430,
  "eksperto": 10431,
  "gara": 10432,
  "imelda": 10433,
  "maalam": 10434,
  "monoteismo": 10435,
  "pagkawasak": 10436,
  "penetrasyon": 10437,
  "pumatay": 10438,
  "studies": 10439,
  "sugatan": 10440,
  "ars": 10441,
  "bantayog": 10442,
  "beat": 10443,
  "buyo": 10444,
  "dalagang": 10445,
  "henitalya": 10446,
  "highway": 10447,
  "inhenyer": 10448,
  "madilaw": 10449,
  "naia": 10450,
  "pagtatalaga": 10451,
  "vello": 10452,
  "dyip": 10453,
  "halamanan": 10454,
  "liang": 10455,
  "nalalabing": 10456,
  "napakaraming": 10457,
  "oportunidad": 10458,
  "pagkonsumo": 10459,
  "proporsiyon": 10460,
  "temang": 10461,
  "uulat": 10462,
  "vatican": 10463,
  "elektroniko": 10464,
  "heart": 10465,
  "huminto": 10466,
  "kapasidad": 10467,
  "katamtaman": 10468,
  "liw": 10469,
  "naku": 10470,
  "nagbabagong": 10471,
  "nakapir": 10472,
  "napakali": 10473,
  "prokla": 10474,
  "rg": 10475,
  "sumasalamin": 10476,
  "1923": 10477,
  "basahin": 10478,
  "hyper": 10479,
  "lakan": 10480,
  "munggo": 10481,
  "nato": 10482,
  "pinakakilala": 10483,
  "plekta": 10484,
  "tribunal": 10485,
  "type": 10486,
  "ubos": 10487,
  "aangking": 10488,
  "eksperimentong": 10489,
  "enki": 10490,
  "ipinako": 10491,
  "macra": 10492,
  "marinig": 10493,
  "naabot": 10494,
  "negosyante": 10495,
  "neuron": 10496,
  "psi": 10497,
  "pinapatakbo": 10498,
  "retro": 10499,
  "rez": 10500,
  "resto": 10501,
  "takpan": 10502,
  "aene": 10503,
  "bec": 10504,
  "cron": 10505,
  "classi": 10506,
  "estimulasyong": 10507,
  "family": 10508,
  "gender": 10509,
  "gym": 10510,
  "haliling": 10511,
  "kasuan": 10512,
  "kontekstong": 10513,
  "kretong": 10514,
  "lubusang": 10515,
  "mbala": 10516,
  "pamamahagi": 10517,
  "phoros": 10518,
  "prutek": 10519,
  "sanlibutan": 10520,
  "sasabihin": 10521,
  "tray": 10522,
  "eug": 10523,
  "igles": 10524,
  "kriba": 10525,
  "magpakasal": 10526,
  "panggap": 10527,
  "pinakamalawak": 10528,
  "tamod": 10529,
  "tara": 10530,
  "tinulungan": 10531,
  "venezuela": 10532,
  "wey": 10533,
  "blado": 10534,
  "buan": 10535,
  "chat": 10536,
  "chon": 10537,
  "cou": 10538,
  "entablado": 10539,
  "hawakan": 10540,
  "igo": 10541,
  "imbak": 10542,
  "ikalima": 10543,
  "illus": 10544,
  "intele": 10545,
  "makahanap": 10546,
  "makatoto": 10547,
  "membran": 10548,
  "nararamdaman": 10549,
  "pamalagi": 10550,
  "pagpapasok": 10551,
  "paputok": 10552,
  "penafrancia": 10553,
  "puntirya": 10554,
  "reich": 10555,
  "screen": 10556,
  "sebastian": 10557,
  "senora": 10558,
  "upa": 10559,
  "valu": 10560,
  "1859": 10561,
  "adol": 10562,
  "ash": 10563,
  "clark": 10564,
  "commit": 10565,
  "gamutin": 10566,
  "kalatagan": 10567,
  "lagak": 10568,
  "libr": 10569,
  "mangingisda": 10570,
  "monggol": 10571,
  "nagsalita": 10572,
  "paksiyon": 10573,
  "pagbebenta": 10574,
  "pagtigil": 10575,
  "roero": 10576,
  "rosario": 10577,
  "stef": 10578,
  "uutos": 10579,
  "apro": 10580,
  "commonwealth": 10581,
  "debos": 10582,
  "halalang": 10583,
  "hidroheno": 10584,
  "jeronimo": 10585,
  "kabite": 10586,
  "konekta": 10587,
  "kuw": 10588,
  "membrano": 10589,
  "nigh": 10590,
  "revolution": 10591,
  "sangandaan": 10592,
  "wales": 10593,
  "yant": 10594,
  "cm": 10595,
  "dition": 10596,
  "eros": 10597,
  "liya": 10598,
  "lubong": 10599,
  "magang": 10600,
  "magkakatulad": 10601,
  "mbin": 10602,
  "nagtuloy": 10603,
  "nakatutulong": 10604,
  "payat": 10605,
  "protektahan": 10606,
  "resear": 10607,
  "sinte": 10608,
  "turan": 10609,
  "biseksuwal": 10610,
  "diye": 10611,
  "kpan": 10612,
  "kuri": 10613,
  "panglahat": 10614,
  "sinis": 10615,
  "buluhang": 10616,
  "cate": 10617,
  "concep": 10618,
  "dinu": 10619,
  "fati": 10620,
  "ipinasok": 10621,
  "kho": 10622,
  "kahugis": 10623,
  "kumpanya": 10624,
  "makabuluhang": 10625,
  "matamis": 10626,
  "mean": 10627,
  "monumento": 10628,
  "pagbisita": 10629,
  "poe": 10630,
  "pribile": 10631,
  "tanas": 10632,
  "aspe": 10633,
  "baywang": 10634,
  "beta": 10635,
  "costa": 10636,
  "heter": 10637,
  "historyador": 10638,
  "itatag": 10639,
  "journal": 10640,
  "masakit": 10641,
  "nalu": 10642,
  "nagtatakda": 10643,
  "pagdidisenyo": 10644,
  "pampil": 10645,
  "seryosong": 10646,
  "sibilisasyon": 10647,
  "soberanya": 10648,
  "survi": 10649,
  "tinagurian": 10650,
  "utusan": 10651,
  "airport": 10652,
  "babaing": 10653,
  "cb": 10654,
  "cuneo": 10655,
  "cunha": 10656,
  "govern": 10657,
  "himlay": 10658,
  "kalung": 10659,
  "kripto": 10660,
  "mpe": 10661,
  "nagtatala": 10662,
  "pamana": 10663,
  "piyesa": 10664,
  "ride": 10665,
  "shaw": 10666,
  "ulti": 10667,
  "unggu": 10668,
  "vaisala": 10669,
  "wian": 10670,
  "any": 10671,
  "ayuno": 10672,
  "bomb": 10673,
  "bunsod": 10674,
  "hidwaan": 10675,
  "hinihingi": 10676,
  "napagkukunan": 10677,
  "paglutas": 10678,
  "pamalit": 10679,
  "pangaral": 10680,
  "panlulumo": 10681,
  "pransiskano": 10682,
  "quir": 10683,
  "sahrawi": 10684,
  "taro": 10685,
  "taliwas": 10686,
  "women": 10687,
  "bugan": 10688,
  "domestika": 10689,
  "dudulot": 10690,
  "hawang": 10691,
  "kinum": 10692,
  "laurel": 10693,
  "list": 10694,
  "magnetikong": 10695,
  "masbate": 10696,
  "nakatakda": 10697,
  "ninais": 10698,
  "oblast": 10699,
  "panli": 10700,
  "pipili": 10701,
  "starstruck": 10702,
  "tico": 10703,
  "tumutol": 10704,
  "angkang": 10705,
  "atwirang": 10706,
  "baseng": 10707,
  "direkta": 10708,
  "duksiyon": 10709,
  "hanja": 10710,
  "hilera": 10711,
  "kir": 10712,
  "magkaugnay": 10713,
  "malalakas": 10714,
  "obli": 10715,
  "pangseks": 10716,
  "province": 10717,
  "siglang": 10718,
  "sultana": 10719,
  "velt": 10720,
  "vere": 10721,
  "albay": 10722,
  "final": 10723,
  "inhinyeriya": 10724,
  "kampan": 10725,
  "masak": 10726,
  "mapagmamasdang": 10727,
  "modern": 10728,
  "pinagkunan": 10729,
  "yugoslavia": 10730,
  "zzi": 10731,
  "ekstra": 10732,
  "frederick": 10733,
  "kalsada": 10734,
  "komed": 10735,
  "kolonyang": 10736,
  "kumpisal": 10737,
  "likidong": 10738,
  "lusyong": 10739,
  "magtalik": 10740,
  "oba": 10741,
  "pakikipagsapalaran": 10742,
  "parirala": 10743,
  "pika": 10744,
  "pungan": 10745,
  "pulmonyang": 10746,
  "shell": 10747,
  "419": 10748,
  "atris": 10749,
  "enzy": 10750,
  "gregor": 10751,
  "kalendaryo": 10752,
  "phrine": 10753,
  "pinakamahalaga": 10754,
  "pinephrine": 10755,
  "pinipili": 10756,
  "propesyunal": 10757,
  "seg": 10758,
  "sesa": 10759,
  "special": 10760,
  "ayunan": 10761,
  "bodhi": 10762,
  "buk": 10763,
  "hepe": 10764,
  "konste": 10765,
  "level": 10766,
  "pagsasakatuparan": 10767,
  "pinani": 10768,
  "pneumonia": 10769,
  "reunion": 10770,
  "sampol": 10771,
  "sismo": 10772,
  "stephen": 10773,
  "akademiya": 10774,
  "bai": 10775,
  "enda": 10776,
  "enus": 10777,
  "gaganapin": 10778,
  "gono": 10779,
  "johann": 10780,
  "kalkulo": 10781,
  "lord": 10782,
  "makatwirang": 10783,
  "muntin": 10784,
  "muntinlupa": 10785,
  "naipapa": 10786,
  "pabigat": 10787,
  "pagbabasa": 10788,
  "stratehiya": 10789,
  "turk": 10790,
  "1925": 10791,
  "basilika": 10792,
  "byzantine": 10793,
  "carlo": 10794,
  "catholic": 10795,
  "ekonom": 10796,
  "elementarya": 10797,
  "ential": 10798,
  "ilipat": 10799,
  "inas": 10800,
  "jerusalem": 10801,
  "kasiya": 10802,
  "magtrabaho": 10803,
  "mahayana": 10804,
  "nagwa": 10805,
  "otomano": 10806,
  "pagkuku": 10807,
  "pagnanasa": 10808,
  "palatun": 10809,
  "pampiloso": 10810,
  "radyal": 10811,
  "balitang": 10812,
  "hya": 10813,
  "hustis": 10814,
  "iglesiang": 10815,
  "lular": 10816,
  "mabisang": 10817,
  "macarthur": 10818,
  "radikal": 10819,
  "rik": 10820,
  "roose": 10821,
  "turn": 10822,
  "usu": 10823,
  "anna": 10824,
  "berso": 10825,
  "bernardino": 10826,
  "blood": 10827,
  "cut": 10828,
  "calamba": 10829,
  "hare": 10830,
  "inirerekomenda": 10831,
  "iska": 10832,
  "kongres": 10833,
  "lob": 10834,
  "lobong": 10835,
  "magaan": 10836,
  "nuclear": 10837,
  "pagkala": 10838,
  "pilosopikal": 10839,
  "ponte": 10840,
  "roosevelt": 10841,
  "seoul": 10842,
  "tree": 10843,
  "vaticano": 10844,
  "adulto": 10845,
  "bansag": 10846,
  "ellan": 10847,
  "gawaan": 10848,
  "glandula": 10849,
  "kda": 10850,
  "labanang": 10851,
  "nabawasang": 10852,
  "pagtatantiya": 10853,
  "piano": 10854,
  "reputasyon": 10855,
  "sado": 10856,
  "sate": 10857,
  "stefano": 10858,
  "tabing": 10859,
  "yeo": 10860,
  "zhou": 10861,
  "circu": 10862,
  "deklarasyon": 10863,
  "inunga": 10864,
  "kuwit": 10865,
  "lla": 10866,
  "lingkuran": 10867,
  "maiikling": 10868,
  "metre": 10869,
  "memorial": 10870,
  "potesis": 10871,
  "prokaryo": 10872,
  "review": 10873,
  "takson": 10874,
  "tasang": 10875,
  "tagagawa": 10876,
  "talon": 10877,
  "vey": 10878,
  "zine": 10879,
  "1897": 10880,
  "app": 10881,
  "aquin": 10882,
  "catan": 10883,
  "cesar": 10884,
  "detalyadong": 10885,
  "istor": 10886,
  "kiyang": 10887,
  "nalathala": 10888,
  "pinagkukunan": 10889,
  "rison": 10890,
  "seng": 10891,
  "tep": 10892,
  "digi": 10893,
  "hian": 10894,
  "juni": 10895,
  "kaaki": 10896,
  "kinailangan": 10897,
  "maisagawa": 10898,
  "nagpasyang": 10899,
  "nararanasan": 10900,
  "pananatili": 10901,
  "peninsula": 10902,
  "pictures": 10903,
  "pradesh": 10904,
  "prehistori": 10905,
  "sedi": 10906,
  "sinunog": 10907,
  "tabang": 10908,
  "wayway": 10909,
  "1894": 10910,
  "akawn": 10911,
  "germany": 10912,
  "inv": 10913,
  "inilaan": 10914,
  "ireland": 10915,
  "magpakamatay": 10916,
  "malupit": 10917,
  "ngiti": 10918,
  "romansa": 10919,
  "sinasyon": 10920,
  "tanabe": 10921,
  "basilica": 10922,
  "bikol": 10923,
  "bisperas": 10924,
  "cky": 10925,
  "compos": 10926,
  "french": 10927,
  "gasta": 10928,
  "index": 10929,
  "industriyang": 10930,
  "lamu": 10931,
  "magkamit": 10932,
  "makabayan": 10933,
  "manlilikha": 10934,
  "nakababatang": 10935,
  "nisan": 10936,
  "paghingi": 10937,
  "paglilinis": 10938,
  "three": 10939,
  "tumangging": 10940,
  "being": 10941,
  "ideolohiya": 10942,
  "kondom": 10943,
  "makatanggap": 10944,
  "paghinto": 10945,
  "rona": 10946,
  "sw": 10947,
  "sac": 10948,
  "tuwiran": 10949,
  "vicen": 10950,
  "whi": 10951,
  "bumoto": 10952,
  "caesarea": 10953,
  "dibisyong": 10954,
  "matang": 10955,
  "masturbasyon": 10956,
  "mega": 10957,
  "monoteistiko": 10958,
  "nagnanais": 10959,
  "niye": 10960,
  "niseno": 10961,
  "pagbalik": 10962,
  "pagpapagaling": 10963,
  "peryodiko": 10964,
  "sound": 10965,
  "tuhang": 10966,
  "1870": 10967,
  "aske": 10968,
  "dinosauro": 10969,
  "eto": 10970,
  "fres": 10971,
  "haka": 10972,
  "liwayway": 10973,
  "lutasin": 10974,
  "nagku": 10975,
  "optimisasyon": 10976,
  "perseus": 10977,
  "sahe": 10978,
  "wate": 10979,
  "anal": 10980,
  "aniber": 10981,
  "azerba": 10982,
  "bahala": 10983,
  "hadlang": 10984,
  "lorenzo": 10985,
  "nagtala": 10986,
  "nolo": 10987,
  "optiko": 10988,
  "pacific": 10989,
  "pagpapatakbo": 10990,
  "research": 10991,
  "tarya": 10992,
  "tumor": 10993,
  "yera": 10994,
  "ekto": 10995,
  "fru": 10996,
  "guwar": 10997,
  "impan": 10998,
  "kanto": 10999,
  "kasukdulan": 11000,
  "konserbatibong": 11001,
  "malubha": 11002,
  "naglalayong": 11003,
  "pagmimina": 11004,
  "pananamit": 11005,
  "panghu": 11006,
  "pinakalumang": 11007,
  "temporal": 11008,
  "350": 11009,
  "airlines": 11010,
  "bris": 11011,
  "inuming": 11012,
  "lastasan": 11013,
  "lumba": 11014,
  "narating": 11015,
  "orientasyon": 11016,
  "paghahangad": 11017,
  "peroe": 11018,
  "rmb": 11019,
  "sacra": 11020,
  "telepono": 11021,
  "thes": 11022,
  "tihi": 11023,
  "umayon": 11024,
  "akh": 11025,
  "alongpunsiyon": 11026,
  "aspetong": 11027,
  "balyena": 11028,
  "burma": 11029,
  "kaakibat": 11030,
  "koran": 11031,
  "makaraan": 11032,
  "maximinus": 11033,
  "ninakaw": 11034,
  "puwedeng": 11035,
  "rehimen": 11036,
  "saging": 11037,
  "sabah": 11038,
  "salinlahi": 11039,
  "ahenteng": 11040,
  "espesipikong": 11041,
  "hand": 11042,
  "hogne": 11043,
  "kakayanan": 11044,
  "masok": 11045,
  "malulu": 11046,
  "moth": 11047,
  "nagsama": 11048,
  "panuntunan": 11049,
  "aristotle": 11050,
  "bergo": 11051,
  "bitak": 11052,
  "consola": 11053,
  "daya": 11054,
  "editor": 11055,
  "ehipto1": 11056,
  "fernandez": 11057,
  "kusahan": 11058,
  "masigla": 11059,
  "mouth": 11060,
  "olohikal": 11061,
  "org": 11062,
  "pagmamana": 11063,
  "politikang": 11064,
  "tanggalin": 11065,
  "azerbai": 11066,
  "beke": 11067,
  "cot": 11068,
  "consolacion": 11069,
  "dei": 11070,
  "debehogne": 11071,
  "dorf": 11072,
  "dutch": 11073,
  "ensaym": 11074,
  "gabriel": 11075,
  "hinarap": 11076,
  "ikasiyam": 11077,
  "justice": 11078,
  "magtatag": 11079,
  "mananayaw": 11080,
  "pinaghi": 11081,
  "utc": 11082,
  "aalay": 11083,
  "bengu": 11084,
  "benito": 11085,
  "block": 11086,
  "fes": 11087,
  "gray": 11088,
  "iginu": 11089,
  "katamaran": 11090,
  "klasang": 11091,
  "paru": 11092,
  "pagsamahin": 11093,
  "palumpong": 11094,
  "panukat": 11095,
  "puntlandiya": 11096,
  "staff": 11097,
  "standard": 11098,
  "yaong": 11099,
  "adap": 11100,
  "bache": 11101,
  "cze": 11102,
  "dependensiyas": 11103,
  "glen": 11104,
  "habs": 11105,
  "hebreong": 11106,
  "ides": 11107,
  "iminumungkahi": 11108,
  "irenaeus": 11109,
  "isio": 11110,
  "kolombiya": 11111,
  "kristal": 11112,
  "litrato": 11113,
  "paghina": 11114,
  "pamasko": 11115,
  "rene": 11116,
  "umasa": 11117,
  "1890": 11118,
  "angeli": 11119,
  "bayashi": 11120,
  "bear": 11121,
  "cted": 11122,
  "cken": 11123,
  "dz": 11124,
  "ensiklope": 11125,
  "kabutihang": 11126,
  "lera": 11127,
  "lewis": 11128,
  "nanggagaling": 11129,
  "ov": 11130,
  "pagpatuloy": 11131,
  "piniling": 11132,
  "complex": 11133,
  "denominasyon": 11134,
  "ensi": 11135,
  "kapitulo": 11136,
  "kukunang": 11137,
  "magellan": 11138,
  "magsaysay": 11139,
  "magnanakaw": 11140,
  "makikitang": 11141,
  "mammal": 11142,
  "mitong": 11143,
  "nakilahok": 11144,
  "pasulong": 11145,
  "pierre": 11146,
  "progres": 11147,
  "techni": 11148,
  "tulak": 11149,
[...]
