{
  "<pad>": 0,
  "<unk>": 1,
  "<s>": 2,
  "</s>": 3,
  " ": 4,
  "!": 5,
  "\"": 6,
  "#": 7,
  "$": 8,
  "%": 9,
  "&": 10,
  "'": 11,
  "(": 12,
  ")": 13,
  "*": 14,
  "+": 15,
  ",": 16,
  "-": 17,
  ".": 18,
  "/": 19,
  "0": 20,
  "1": 21,
  "2": 22,
  "3": 23,
  "4": 24,
  "5": 25,
  "6": 26,
  "7": 27,
  "8": 28,
  "9": 29,
  ":": 30,
  ";": 31,
  "<": 32,
  "=": 33,
  ">": 34,
  "?": 35,
  "@": 36,
  "A": 37,
  "B": 38,
  "C": 39,
  "D": 40,
  "E": 41,
  "F": 42,
  "G": 43,
  "H": 44,
  "I": 45,
  "J": 46,
  "K": 47,
  "L": 48,
  "M": 49,
  "N": 50,
  "O": 51,
  "P": 52,
  "Q": 53,
  "R": 54,
  "S": 55,
  "T": 56,
  "U": 57,
  "V": 58,
  "W": 59,
  "X": 60,
  "Y": 61,
  "Z": 62,
  "[": 63,
  "\\": 64,
  "]": 65,
  "^": 66,
  "_": 67,
  "`": 68,
  "a": 69,
  "b": 70,
  "c": 71,
  "d": 72,
  "e": 73,
  "f": 74,
  "g": 75,
  "h": 76,
  "i": 77,
  "j": 78,
  "k": 79,
  "l": 80,
  "m": 81,
  "n": 82,
  "o": 83,
  "p": 84,
  "q": 85,
  "r": 86,
  "s": 87,
  "t": 88,
  "u": 89,
  "v": 90,
  "w": 91,
  "x": 92,
  "y": 93,
  "z": 94,
  "{": 95,
  "|": 96,
  "}": 97,
  "~": 98,
  "▁": 99,
  "ng": 100,
  "ang": 101,
  "na": 102,
  "sa": 103,
  "ka": 104,
  "la": 105,
  "pa": 106,
  "ma": 107,
  "ga": 108,
  "an": 109,
  "ta": 110,
  "in": 111,
  "mga": 112,
  "ay": 113,
  "li": 114,
  "at": 115,
  "si": 116,
  "ba": 117,
  "it": 118,
  "on": 119,
  "is": 120,
  "ra": 121,
  "ya": 122,
  "pag": 123,
  "ri": 124,
  "ni": 125,
  "da": 126,
  "ha": 127,
  "ong": 128,
  "wa": 129,
  "bi": 130,
  "ti": 131,
  "er": 132,
  "hi": 133,
  "tu": 134,
  "lo": 135,
  "es": 136,
  "nag": 137,
  "pi": 138,
  "ro": 139,
  "en": 140,
  "un": 141,
  "isang": 142,
  "ito": 143,
  "um": 144,
  "pang": 145,
  "to": 146,
  "ko": 147,
  "lu": 148,
  "ki": 149,
  "re": 150,
  "di": 151,
  "ula": 152,
  "no": 153,
  "lang": 154,
  "yo": 155,
  "bu": 156,
  "po": 157,
  "mi": 158,
  "yon": 159,
  "te": 160,
  "ing": 161,
  "ku": 162,
  "do": 163,
  "le": 164,
  "may": 165,
  "mo": 166,
  "us": 167,
  "go": 168,
  "mag": 169,
  "hin": 170,
  "so": 171,
  "pu": 172,
  "han": 173,
  "bo": 174,
  "se": 175,
  "su": 176,
  "de": 177,
  "lala": 178,
  "naka": 179,
  "man": 180,
  "gi": 181,
  "  ": 182,
  "siya": 183,
  "mula": 184,
  "hu": 185,
  "noong": 186,
  "pe": 187,
  "he": 188,
  "bila": 189,
  "19": 190,
  "ran": 191,
  "syon": 192,
  "hind": 193,
  "pagka": 194,
  "ca": 195,
  "ho": 196,
  "wi": 197,
  "pan": 198,
  "me": 199,
  "kan": 200,
  "ban": 201,
  "yang": 202,
  "hang": 203,
  "mu": 204,
  "nan": 205,
  "co": 206,
  "nang": 207,
  "san": 208,
  "mit": 209,
  "al": 210,
  "as": 211,
  "lan": 212,
  "para": 213,
  "baba": 214,
  "gu": 215,
  "ring": 216,
  "bang": 217,
  "tang": 218,
  "00": 219,
  "ter": 220,
  "or": 221,
  "hay": 222,
  "du": 223,
  "gay": 224,
  "iba": 225,
  "tan": 226,
  "ral": 227,
  "pina": 228,
  "wala": 229,
  "kung": 230,
  "ig": 231,
  "tao": 232,
  "bay": 233,
  "isa": 234,
  "rin": 235,
  "yong": 236,
  "mba": 237,
  "hala": 238,
  "dala": 239,
  "wan": 240,
  "uno": 241,
  "ana": 242,
  "pro": 243,
  "nito": 244,
  "hat": 245,
  "ar": 246,
  "kal": 247,
  "kanya": 248,
  "una": 249,
  "ye": 250,
  "yan": 251,
  "kon": 252,
  "lik": 253,
  "itan": 254,
  "el": 255,
  "ino": 256,
  "nasa": 257,
  "tag": 258,
  "hil": 259,
  "ru": 260,
  "lad": 261,
  "wang": 262,
  "per": 263,
  "gawa": 264,
  "upang": 265,
  "gan": 266,
  "les": 267,
  "bansa": 268,
  "mas": 269,
  "im": 270,
  "ika": 271,
  "tong": 272,
  "dahil": 273,
  "pili": 274,
  "wag": 275,
  "rami": 276,
  "kay": 277,
  "ce": 278,
  "tay": 279,
  "pat": 280,
  "ling": 281,
  "ini": 282,
  "nata": 283,
  "pam": 284,
  "ber": 285,
  "dis": 286,
  "sang": 287,
  "ne": 288,
  "sis": 289,
  "res": 290,
  "maka": 291,
  "rang": 292,
  "nay": 293,
  "dad": 294,
  "vi": 295,
  "ag": 296,
  "tra": 297,
  "din": 298,
  "unang": 299,
  "lung": 300,
  "lita": 301,
  "ob": 302,
  "ayon": 303,
  "kla": 304,
  "wal": 305,
  "be": 306,
  "mar": 307,
  "ug": 308,
  "bago": 309,
  "tulad": 310,
  "ci": 311,
  "mang": 312,
  "men": 313,
  "ris": 314,
  "taga": 315,
  "ati": 316,
  "nah": 317,
  "lama": 318,
  "lin": 319,
  "tin": 320,
  "baha": 321,
  "nal": 322,
  "ala": 323,
  "sama": 324,
  "mala": 325,
  "bata": 326,
  "big": 327,
  "say": 328,
  "pinaka": 329,
  "esta": 330,
  "niya": 331,
  "lahat": 332,
  "pos": 333,
  "par": 334,
  "tro": 335,
  "lit": 336,
  "bilang": 337,
  "ara": 338,
  "mon": 339,
  "dig": 340,
  "hangga": 341,
  "sina": 342,
  "the": 343,
  "tinata": 344,
  "por": 345,
  "nila": 346,
  "ch": 347,
  "roon": 348,
  "min": 349,
  "ria": 350,
  "anak": 351,
  "hing": 352,
  "ene": 353,
  "unit": 354,
  "pon": 355,
  "ingles": 356,
  "tala": 357,
  "th": 358,
  "ksi": 359,
  "bahag": 360,
  "git": 361,
  "tal": 362,
  "kas": 363,
  "ser": 364,
  "ismo": 365,
  "ulat": 366,
  "nagpa": 367,
  "dalawa": 368,
  "uri": 369,
  "pagkaka": 370,
  "gamit": 371,
  "loob": 372,
  "sari": 373,
  "ari": 374,
  "pilipina": 375,
  "magitan": 376,
  "pinag": 377,
  "iti": 378,
  "sek": 379,
  "karan": 380,
  "ke": 381,
  "st": 382,
  "kat": 383,
  "sod": 384,
  "lohi": 385,
  "pit": 386,
  "uni": 387,
  "taon": 388,
  "pin": 389,
  "naging": 390,
  "tung": 391,
  "bas": 392,
  "lungsod": 393,
  "wika": 394,
  "20": 395,
  "taong": 396,
  "sila": 397,
  "ero": 398,
  "18": 399,
  "lim": 400,
  "200": 401,
  "kilala": 402,
  "gang": 403,
  "estado": 404,
  "ak": 405,
  "aral": 406,
  "karani": 407,
  "tinatawag": 408,
  "nahon": 409,
  "buhay": 410,
  "hali": 411,
  "os": 412,
  "kita": 413,
  "kaya": 414,
  "ngunit": 415,
  "qu": 416,
  "ano": 417,
  "tapos": 418,
  "taas": 419,
  "lis": 420,
  "bre": 421,
  "sak": 422,
  "tr": 423,
  "laga": 424,
  "mun": 425,
  "yu": 426,
  "bli": 427,
  "saan": 428,
  "pala": 429,
  "kto": 430,
  "marami": 431,
  "buo": 432,
  "op": 433,
  "sin": 434,
  "ul": 435,
  "ad": 436,
  "tri": 437,
  "unod": 438,
  "tawan": 439,
  "amit": 440,
  "tema": 441,
  "hari": 442,
  "diyo": 443,
  "bing": 444,
  "magka": 445,
  "ham": 446,
  "mil": 447,
  "kula": 448,
  "tata": 449,
  "of": 450,
  "haba": 451,
  "ve": 452,
  "ugnay": 453,
  "kasa": 454,
  "ks": 455,
  "yal": 456,
  "kiki": 457,
  "ung": 458,
  "tatag": 459,
  "lalak": 460,
  "gat": 461,
  "log": 462,
  "ii": 463,
  "bayan": 464,
  "mp": 465,
  "naman": 466,
  "pas": 467,
  "bis": 468,
  "jo": 469,
  "uro": 470,
  "ensiya": 471,
  "isi": 472,
  "karaniwang": 473,
  "anga": 474,
  "rap": 475,
  "tiko": 476,
  "hulu": 477,
  "der": 478,
  "wat": 479,
  "kong": 480,
  "mahala": 481,
  "tas": 482,
  "ato": 483,
  "rika": 484,
  "araw": 485,
  "kris": 486,
  "kara": 487,
  "con": 488,
  "utu": 489,
  "matay": 490,
  "kala": 491,
  "kol": 492,
  "pun": 493,
  "kina": 494,
  "lohiya": 495,
  "nap": 496,
  "koy": 497,
  "sig": 498,
  "ksiyon": 499,
  "bigay": 500,
  "pula": 501,
  "ryo": 502,
  "kop": 503,
  "dito": 504,
  "yano": 505,
  "simula": 506,
  "teo": 507,
  "silang": 508,
  "hes": 509,
  "pana": 510,
  "sti": 511,
  "ge": 512,
  "kum": 513,
  "panguna": 514,
  "rd": 515,
  "roma": 516,
  "ent": 517,
  "yari": 518,
  "timo": 519,
  "pangunahing": 520,
  "sus": 521,
  "seksu": 522,
  "ista": 523,
  "gra": 524,
  "nagka": 525,
  "bin": 526,
  "tura": 527,
  "fi": 528,
  "tika": 529,
  "wak": 530,
  "15": 531,
  "tat": 532,
  "rus": 533,
  "ut": 534,
  "iging": 535,
  "ilang": 536,
  "pagitan": 537,
  "ento": 538,
  "mai": 539,
  "buong": 540,
  "ale": 541,
  "gal": 542,
  "am": 543,
  "simba": 544,
  "br": 545,
  "ver": 546,
  "and": 547,
  "ok": 548,
  "gar": 549,
  "roong": 550,
  "hit": 551,
  "ton": 552,
  "kapag": 553,
  "mayroong": 554,
  "tutu": 555,
  "euro": 556,
  "10": 557,
  "ab": 558,
  "pla": 559,
  "lidad": 560,
  "papa": 561,
  "gap": 562,
  "lig": 563,
  "dor": 564,
  "gam": 565,
  "timog": 566,
  "dam": 567,
  "198": 568,
  "ame": 569,
  "long": 570,
  "kristi": 571,
  "sistema": 572,
  "hesus": 573,
  "puan": 574,
  "ses": 575,
  "yem": 576,
  "hen": 577,
  "don": 578,
  "199": 579,
  "va": 580,
  "lyo": 581,
  "gaya": 582,
  "daig": 583,
  "ju": 584,
  "lihi": 585,
  "lalim": 586,
  "parti": 587,
  "halimba": 588,
  "omi": 589,
  "halimbawa": 590,
  "ed": 591,
  "daigdig": 592,
  "bagay": 593,
  "ina": 594,
  "pati": 595,
  "raan": 596,
  "aw": 597,
  "kanlu": 598,
  "ly": 599,
  "sen": 600,
  "huli": 601,
  "publi": 602,
  "lia": 603,
  "tor": 604,
  "kom": 605,
  "12": 606,
  "dag": 607,
  "ulo": 608,
  "pres": 609,
  "dan": 610,
  "klat": 611,
  "ur": 612,
  "dos": 613,
  "16": 614,
  "lupa": 615,
  "mundo": 616,
  "sik": 617,
  "hapon": 618,
  "panga": 619,
  "popula": 620,
  "liwa": 621,
  "sal": 622,
  "liko": 623,
  "laban": 624,
  "salita": 625,
  "cha": 626,
  "maging": 627,
  "seksuwal": 628,
  "gil": 629,
  "ble": 630,
  "17": 631,
  "lalawi": 632,
  "usa": 633,
  "ras": 634,
  "ele": 635,
  "luku": 636,
  "ding": 637,
  "pad": 638,
  "land": 639,
  "ubuo": 640,
  "pakiki": 641,
  "rat": 642,
  "kasaluku": 643,
  "nas": 644,
  "digma": 645,
  "halaga": 646,
  "lalawigan": 647,
  "pre": 648,
  "we": 649,
  "her": 650,
  "14": 651,
  "mal": 652,
  "ja": 653,
  "lot": 654,
  "hati": 655,
  "pino": 656,
  "pagiging": 657,
  "hayag": 658,
  "unidos": 659,
  "laba": 660,
  "kul": 661,
  "kar": 662,
  "daan": 663,
  "likha": 664,
  "tatlo": 665,
  "ngkat": 666,
  "ting": 667,
  "tak": 668,
  "gos": 669,
  "amerika": 670,
  "higit": 671,
  "yembre": 672,
  "inter": 673,
  "indi": 674,
  "nga": 675,
  "bawat": 676,
  "chi": 677,
  "sulat": 678,
  "tumu": 679,
  "liit": 680,
  "poli": 681,
  "maa": 682,
  "sala": 683,
  "naw": 684,
  "et": 685,
  "pare": 686,
  "bong": 687,
  "ama": 688,
  "kin": 689,
  "ap": 690,
  "suba": 691,
  "ente": 692,
  "gayun": 693,
  "tanggap": 694,
  "197": 695,
  "oni": 696,
  "lar": 697,
  "titi": 698,
  "lat": 699,
  "wid": 700,
  "posi": 701,
  "pagtata": 702,
  "tangi": 703,
  "king": 704,
  "muli": 705,
  "guma": 706,
  "rra": 707,
  "mot": 708,
  "kap": 709,
  "pran": 710,
  "ts": 711,
  "ry": 712,
  "000": 713,
  "dyo": 714,
  "13": 715,
  "for": 716,
  "bel": 717,
  "ekon": 718,
  "subalit": 719,
  "sinasa": 720,
  "tumutu": 721,
  "umu": 722,
  "relihi": 723,
  "gri": 724,
  "ck": 725,
  "panya": 726,
  "matatag": 727,
  "lika": 728,
  "lawang": 729,
  "was": 730,
  "punan": 731,
  "matatagpuan": 732,
  "pangalan": 733,
  "stan": 734,
  "paman": 735,
  "ibarra": 736,
  "tion": 737,
  "isip": 738,
  "bun": 739,
  "dati": 740,
  "mis": 741,
  "sun": 742,
  "ekonomi": 743,
  "sep": 744,
  "sil": 745,
  "tibo": 746,
  "kata": 747,
  "fe": 748,
  "rea": 749,
  "loy": 750,
  "bat": 751,
  "naglala": 752,
  "malak": 753,
  "ek": 754,
  "maria": 755,
  "yay": 756,
  "ani": 757,
  "tagapag": 758,
  "bagam": 759,
  "lugar": 760,
  "romano": 761,
  "republi": 762,
  "kato": 763,
  "anyo": 764,
  "riya": 765,
  "ol": 766,
  "populasyon": 767,
  "sakit": 768,
  "lay": 769,
  "car": 770,
  "liwanag": 771,
  "hene": 772,
  "can": 773,
  "del": 774,
  "nakaka": 775,
  "bibigay": 776,
  "bol": 777,
  "bil": 778,
  "gas": 779,
  "ali": 780,
  "imper": 781,
  "labas": 782,
  "lapit": 783,
  "hilaga": 784,
  "puno": 785,
  "hal": 786,
  "umi": 787,
  "siglo": 788,
  "ot": 789,
  "saril": 790,
  "pes": 791,
  "gamot": 792,
  "nor": 793,
  "sia": 794,
  "kang": 795,
  "lipunan": 796,
  "lawak": 797,
  "bahay": 798,
  "apat": 799,
  "blo": 800,
  "mapa": 801,
  "his": 802,
  "dina": 803,
  "em": 804,
  "pak": 805,
  "pangyari": 806,
  "11": 807,
  "put": 808,
  "siyon": 809,
  "masa": 810,
  "rito": 811,
  "zi": 812,
  "patu": 813,
  "produ": 814,
  "fa": 815,
  "bal": 816,
  "nu": 817,
  "alam": 818,
  "rehi": 819,
  "piko": 820,
  "ganap": 821,
  "bar": 822,
  "kristiyano": 823,
  "stila": 824,
  "sunod": 825,
  "milya": 826,
  "sinauna": 827,
  "itin": 828,
  "pareho": 829,
  "sing": 830,
  "panah": 831,
  "cas": 832,
  "bot": 833,
  "halo": 834,
  "europa": 835,
  "ori": 836,
  "unlad": 837,
  "pera": 838,
  "ibig": 839,
  "tubig": 840,
  "rawan": 841,
  "pagha": 842,
  "dok": 843,
  "griye": 844,
  "babago": 845,
  "ilan": 846,
  "ir": 847,
  "pakikipag": 848,
  "zo": 849,
  "ipina": 850,
  "griyego": 851,
  "bid": 852,
  "saysay": 853,
  "za": 854,
  "yak": 855,
  "imperyo": 856,
  "agham": 857,
  "tungkol": 858,
  "dagat": 859,
  "syong": 860,
  "kanluran": 861,
  "mento": 862,
  "pagkat": 863,
  "kular": 864,
  "yag": 865,
  "uturing": 866,
  "fer": 867,
  "laki": 868,
  "kit": 869,
  "sta": 870,
  "law": 871,
  "hirap": 872,
  "nin": 873,
  "sapagkat": 874,
  "mus": 875,
  "tungo": 876,
  "panahong": 877,
  "pen": 878,
  "ita": 879,
  "homo": 880,
  "che": 881,
  "isyal": 882,
  "tawag": 883,
  "kultura": 884,
  "nati": 885,
  "kapangyari": 886,
  "194": 887,
  "siko": 888,
  "sok": 889,
  "sali": 890,
  "batay": 891,
  "maaari": 892,
  "sapi": 893,
  "dro": 894,
  "sanhi": 895,
  "bibli": 896,
  "maki": 897,
  "ril": 898,
  "republika": 899,
  "kahit": 900,
  "nanganga": 901,
  "nanini": 902,
  "cos": 903,
  "dang": 904,
  "val": 905,
  "unti": 906,
  "lagay": 907,
  "193": 908,
  "pilipino": 909,
  "pilo": 910,
  "wer": 911,
  "bag": 912,
  "il": 913,
  "hulug": 914,
  "tunay": 915,
  "sy": 916,
  "kod": 917,
  "bra": 918,
  "kasalukuyang": 919,
  "asya": 920,
  "walay": 921,
  "yayari": 922,
  "aleman": 923,
  "lam": 924,
  "bibilang": 925,
  "gol": 926,
  "ty": 927,
  "buti": 928,
  "hiya": 929,
  "tem": 930,
  "dapat": 931,
  "kot": 932,
  "son": 933,
  "kha": 934,
  "ben": 935,
  "hayop": 936,
  "cal": 937,
  "kain": 938,
  "25": 939,
  "tina": 940,
  "mata": 941,
  "ating": 942,
  "pambansa": 943,
  "est": 944,
  "sabi": 945,
  "katoliko": 946,
  "shi": 947,
  "ze": 948,
  "tug": 949,
  "ten": 950,
  "den": 951,
  "kuha": 952,
  "naki": 953,
  "pari": 954,
  "opisyal": 955,
  "yonal": 956,
  "juan": 957,
  "ation": 958,
  "nia": 959,
  "nawa": 960,
  "mong": 961,
  "pablo": 962,
  "teoriya": 963,
  "patid": 964,
  "partikular": 965,
  "deg": 966,
  "que": 967,
  "tran": 968,
  "magpa": 969,
  "los": 970,
  "tol": 971,
  "gen": 972,
  "kri": 973,
  "ine": 974,
  "bro": 975,
  "px": 976,
  "lip": 977,
  "bibliya": 978,
  "silangang": 979,
  "com": 980,
  "tili": 981,
  "natu": 982,
  "lima": 983,
  "tele": 984,
  "pus": 985,
  "196": 986,
  "piloso": 987,
  "bon": 988,
  "wor": 989,
  "kada": 990,
  "pulo": 991,
  "awit": 992,
  "tur": 993,
  "ram": 994,
  "labi": 995,
  "pri": 996,
  "pook": 997,
  "lak": 998,
  "gula": 999,
  "mali": 1000,
  "espanya": 1001,
  "aka": 1002,
  "mer": 1003,
  "kaiba": 1004,
  "anganak": 1005,
  "tumutukoy": 1006,
  "kasyon": 1007,
  "zon": 1008,
  "ngayon": 1009,
  "sika": 1010,
  "orga": 1011,
  "ipa": 1012,
  "ago": 1013,
  "hulugang": 1014,
  "kinabibilang": 1015,
  "lili": 1016,
  "usap": 1017,
  "tis": 1018,
  "od": 1019,
  "kapangyarihan": 1020,
  "hy": 1021,
  "way": 1022,
  "rit": 1023,
  "tanda": 1024,
  "kinabibilangan": 1025,
  "pandaigdig": 1026,
  "itinuturing": 1027,
  "bit": 1028,
  "bina": 1029,
  "pekto": 1030,
  "usunod": 1031,
  "simbahang": 1032,
  "kro": 1033,
  "nagsi": 1034,
  "anap": 1035,
  "ex": 1036,
  "dalas": 1037,
  "anti": 1038,
  "hudyo": 1039,
  "medi": 1040,
  "gali": 1041,
  "laya": 1042,
  "paka": 1043,
  "ilangan": 1044,
  "namit": 1045,
  "bolu": 1046,
  "30": 1047,
  "bak": 1048,
  "piya": 1049,
  "nakiki": 1050,
  "anim": 1051,
  "dal": 1052,
  "punta": 1053,
  "relihiyon": 1054,
  "constan": 1055,
  "pagta": 1056,
  "vo": 1057,
  "mayo": 1058,
  "ligi": 1059,
  "mpala": 1060,
  "bur": 1061,
  "dugo": 1062,
  "talya": 1063,
  "iral": 1064,
  "eks": 1065,
  "uan": 1066,
  "metro": 1067,
  "uto": 1068,
  "mantala": 1069,
  "50": 1070,
  "ron": 1071,
  "gaw": 1072,
  "ere": 1073,
  "sili": 1074,
  "lub": 1075,
  "kabu": 1076,
  "tera": 1077,
  "amerikano": 1078,
  "id": 1079,
  "spe": 1080,
  "nina": 1081,
  "cu": 1082,
  "muni": 1083,
  "harap": 1084,
  "linya": 1085,
  "larang": 1086,
  "samantala": 1087,
  "isra": 1088,
  "tradis": 1089,
  "awa": 1090,
  "22": 1091,
  "kapit": 1092,
  "ple": 1093,
  "pero": 1094,
  "pay": 1095,
  "akda": 1096,
  "sidad": 1097,
  "magkaka": 1098,
  "tsina": 1099,
  "mad": 1100,
  "anta": 1101,
  "gro": 1102,
  "cho": 1103,
  "ngulo": 1104,
  "israel": 1105,
  "tipan": 1106,
  "dy": 1107,
  "kadala": 1108,
  "esti": 1109,
  "proses": 1110,
  "ebang": 1111,
  "har": 1112,
  "rehiyon": 1113,
  "asi": 1114,
  "sip": 1115,
  "kadalasang": 1116,
  "lisa": 1117,
  "alis": 1118,
  "ebanghe": 1119,
  "lakas": 1120,
  "out": 1121,
  "sawa": 1122,
  "ulta": 1123,
  "gene": 1124,
  "hip": 1125,
  "wensiya": 1126,
  "tel": 1127,
  "xi": 1128,
  "organ": 1129,
  "sum": 1130,
  "nagkaka": 1131,
  "abi": 1132,
  "ekonomiya": 1133,
  "pangka": 1134,
  "tus": 1135,
  "kun": 1136,
  "bor": 1137,
  "aus": 1138,
  "dulot": 1139,
  "nais": 1140,
  "width": 1141,
  "talik": 1142,
  "cle": 1143,
  "ulang": 1144,
  "tek": 1145,
  "pis": 1146,
  "by": 1147,
  "era": 1148,
  "pagtatalik": 1149,
  "padre": 1150,
  "las": 1151,
  "bula": 1152,
  "21": 1153,
  "mababa": 1154,
  "24": 1155,
  "pampa": 1156,
  "sukat": 1157,
  "politika": 1158,
  "kuw": 1159,
  "selu": 1160,
  "my": 1161,
  "tron": 1162,
  "hina": 1163,
  "biyo": 1164,
  "set": 1165,
  "huda": 1166,
  "bisyon": 1167,
  "marcos": 1168,
  "bato": 1169,
  "pransiya": 1170,
  "ebanghelyo": 1171,
  "ray": 1172,
  "ht": 1173,
  "sid": 1174,
  "iyon": 1175,
  "wil": 1176,
  "raw": 1177,
  "fran": 1178,
  "tar": 1179,
  "uniber": 1180,
  "tuwi": 1181,
  "gayunpaman": 1182,
  "prin": 1183,
  "kulay": 1184,
  "gre": 1185,
  "digmaang": 1186,
  "ji": 1187,
  "babae": 1188,
  "malaki": 1189,
  "kaso": 1190,
  "laman": 1191,
  "kos": 1192,
  "karaniwan": 1193,
  "espes": 1194,
  "kinaka": 1195,
  "mor": 1196,
  "phi": 1197,
  "lohikal": 1198,
  "bini": 1199,
  "naha": 1200,
  "nau": 1201,
  "bati": 1202,
  "ganda": 1203,
  "babaw": 1204,
  "likula": 1205,
  "paglala": 1206,
  "ac": 1207,
  "hinal": 1208,
  "bul": 1209,
  "hanap": 1210,
  "baho": 1211,
  "pelikula": 1212,
  "edu": 1213,
  "minsan": 1214,
  "dama": 1215,
  "porma": 1216,
  "hinggil": 1217,
  "terya": 1218,
  "sam": 1219,
  "one": 1220,
  "organi": 1221,
  "pagsus": 1222,
  "bri": 1223,
  "lalo": 1224,
  "malala": 1225,
  "teks": 1226,
  "sub": 1227,
  "cto": 1228,
  "selula": 1229,
  "europe": 1230,
  "yanismo": 1231,
  "porta": 1232,
  "kulo": 1233,
  "syo": 1234,
  "26": 1235,
  "balik": 1236,
  "cam": 1237,
  "komp": 1238,
  "abot": 1239,
  "mara": 1240,
  "nagbibigay": 1241,
  "27": 1242,
  "eli": 1243,
  "day": 1244,
  "halip": 1245,
  "maga": 1246,
  "kaka": 1247,
  "taya": 1248,
  "tino": 1249,
  "lag": 1250,
  "noon": 1251,
  "new": 1252,
  "siy": 1253,
  "28": 1254,
  "lina": 1255,
  "trabaho": 1256,
  "milyong": 1257,
  "orihinal": 1258,
  "lalang": 1259,
  "lok": 1260,
  "tikal": 1261,
  "pangyayari": 1262,
  "kahi": 1263,
  "pal": 1264,
  "him": 1265,
  "anong": 1266,
  "output": 1267,
  "kbo": 1268,
  "santo": 1269,
  "hun": 1270,
  "pek": 1271,
  "lulu": 1272,
  "daki": 1273,
  "halal": 1274,
  "io": 1275,
  "laro": 1276,
  "dong": 1277,
  "kontro": 1278,
  "pol": 1279,
  "23": 1280,
  "aprika": 1281,
  "atag": 1282,
  "rupo": 1283,
  "ate": 1284,
  "ment": 1285,
  "lahatang": 1286,
  "toto": 1287,
  "sanay": 1288,
  "stit": 1289,
  "landa": 1290,
  "col": 1291,
  "gin": 1292,
  "trans": 1293,
  "katao": 1294,
  "laka": 1295,
  "kanlurang": 1296,
  "kaysa": 1297,
  "kati": 1298,
  "ilog": 1299,
  "moder": 1300,
  "cen": 1301,
  "jose": 1302,
  "aga": 1303,
  "minis": 1304,
  "rela": 1305,
  "des": 1306,
  "banal": 1307,
  "init": 1308,
  "mahalaga": 1309,
  "tama": 1310,
  "milita": 1311,
  "gumagamit": 1312,
  "kilo": 1313,
  "pinakamalaki": 1314,
  "bce": 1315,
  "tau": 1316,
  "bili": 1317,
  "ese": 1318,
  "dya": 1319,
  "paki": 1320,
  "pata": 1321,
  "ler": 1322,
  "katutu": 1323,
  "tsa": 1324,
  "kolar": 1325,
  "presyon": 1326,
  "eo": 1327,
  "mili": 1328,
  "pinang": 1329,
  "naglalaman": 1330,
  "tum": 1331,
  "van": 1332,
  "lapi": 1333,
  "ehip": 1334,
  "mino": 1335,
  "nar": 1336,
  "anib": 1337,
  "oy": 1338,
  "rag": 1339,
  "lumi": 1340,
  "salin": 1341,
  "latin": 1342,
  "ktor": 1343,
  "ata": 1344,
  "int": 1345,
  "resulta": 1346,
  "tagal": 1347,
  "lalaro": 1348,
  "pani": 1349,
  "pangkalahatang": 1350,
  "net": 1351,
  "mw": 1352,
  "grupo": 1353,
  "mir": 1354,
  "lipas": 1355,
  "matema": 1356,
  "kristiyanismo": 1357,
  "ia": 1358,
  "hok": 1359,
  "kalu": 1360,
  "enti": 1361,
  "cor": 1362,
  "onal": 1363,
  "ind": 1364,
  "militar": 1365,
  "cy": 1366,
  "kawal": 1367,
  "luwensiya": 1368,
  "konse": 1369,
  "has": 1370,
  "hukbo": 1371,
  "ukoy": 1372,
  "buwan": 1373,
  "britan": 1374,
  "hel": 1375,
  "29": 1376,
  "fri": 1377,
  "ces": 1378,
  "195": 1379,
  "muslim": 1380,
  "katutubo": 1381,
  "mateo": 1382,
  "hon": 1383,
  "ste": 1384,
  "tikong": 1385,
  "daang": 1386,
  "hn": 1387,
  "kimi": 1388,
  "kuwento": 1389,
  "perador": 1390,
  "kapwa": 1391,
  "ley": 1392,
  "asa": 1393,
  "manlalaro": 1394,
  "patay": 1395,
  "yente": 1396,
  "tasyon": 1397,
  "190": 1398,
  "maha": 1399,
  "mamay": 1400,
  "tok": 1401,
  "mina": 1402,
  "sel": 1403,
  "tayo": 1404,
  "tic": 1405,
  "parser": 1406,
  "liksik": 1407,
  "vene": 1408,
  "tes": 1409,
  "teksto": 1410,
  "wit": 1411,
  "sumasa": 1412,
  "moderno": 1413,
  "ulit": 1414,
  "pananaw": 1415,
  "pagbaba": 1416,
  "alog": 1417,
  "klas": 1418,
  "mapag": 1419,
  "ther": 1420,
  "pulu": 1421,
  "usu": 1422,
  "wes": 1423,
  "emperador": 1424,
  "konseho": 1425,
  "barang": 1426,
  "patuloy": 1427,
  "banggit": 1428,
  "kasalukuyan": 1429,
  "mpalataya": 1430,
  "ebolu": 1431,
  "dia": 1432,
  "vil": 1433,
  "monte": 1434,
  "pranses": 1435,
  "manun": 1436,
  "serye": 1437,
  "agos": 1438,
  "nangangahulugang": 1439,
  "dd": 1440,
  "isinasa": 1441,
  "sakop": 1442,
  "saya": 1443,
  "diya": 1444,
  "mig": 1445,
  "tagum": 1446,
  "produkto": 1447,
  "iii": 1448,
  "edad": 1449,
  "elek": 1450,
  "triya": 1451,
  "rusa": 1452,
  "europeo": 1453,
  "telebisyon": 1454,
  "alemanya": 1455,
  "bog": 1456,
  "tungku": 1457,
  "lus": 1458,
  "marso": 1459,
  "pel": 1460,
  "erhiya": 1461,
  "base": 1462,
  "ue": 1463,
  "sikal": 1464,
  "baybay": 1465,
  "enero": 1466,
  "yet": 1467,
  "art": 1468,
  "ros": 1469,
  "abril": 1470,
  "mum": 1471,
  "pra": 1472,
  "cana": 1473,
  "oras": 1474,
  "bidwal": 1475,
  "189": 1476,
  "palit": 1477,
  "gitna": 1478,
  "kr": 1479,
  "pinanini": 1480,
  "tinutu": 1481,
  "santa": 1482,
  "bia": 1483,
  "mana": 1484,
  "proseso": 1485,
  "mari": 1486,
  "mat": 1487,
  "paano": 1488,
  "tiyak": 1489,
  "uang": 1490,
  "bukod": 1491,
  "kasal": 1492,
  "fo": 1493,
  "dakila": 1494,
  "bilis": 1495,
  "walidad": 1496,
  "disyembre": 1497,
  "siwa": 1498,
  "ugali": 1499,
  "tibong": 1500,
  "gayundin": 1501,
  "barangay": 1502,
  "trito": 1503,
  "kh": 1504,
  "apos": 1505,
  "layu": 1506,
  "distrito": 1507,
  "tuma": 1508,
  "zzo": 1509,
  "sim": 1510,
  "pasok": 1511,
  "mulan": 1512,
  "nilala": 1513,
  "pinaniniwala": 1514,
  "nahahati": 1515,
  "awag": 1516,
  "napaka": 1517,
  "pamanta": 1518,
  "ide": 1519,
  "basili": 1520,
  "kalusu": 1521,
  "hunyo": 1522,
  "pil": 1523,
  "sul": 1524,
  "plan": 1525,
  "kabis": 1526,
  "unawa": 1527,
  "kabisera": 1528,
  "lumala": 1529,
  "larawan": 1530,
  "rasyon": 1531,
  "ukol": 1532,
  "usto": 1533,
  "dio": 1534,
  "ven": 1535,
  "cia": 1536,
  "mbag": 1537,
  "tiago": 1538,
  "pagda": 1539,
  "tila": 1540,
  "mes": 1541,
  "indibidwal": 1542,
  "sibil": 1543,
  "sob": 1544,
  "posisyon": 1545,
  "depen": 1546,
  "heneral": 1547,
  "rio": 1548,
  "ikat": 1549,
  "rapat": 1550,
  "talaga": 1551,
  "rm": 1552,
  "brero": 1553,
  "tubre": 1554,
  "oktubre": 1555,
  "limit": 1556,
  "paksa": 1557,
  "partido": 1558,
  "ehipto": 1559,
  "ilangang": 1560,
  "indus": 1561,
  "40": 1562,
  "ramdam": 1563,
  "hulyo": 1564,
  "nayang": 1565,
  "kamay": 1566,
  "enyo": 1567,
  "dire": 1568,
  "lawa": 1569,
  "uk": 1570,
  "riz": 1571,
  "malay": 1572,
  "angkop": 1573,
  "je": 1574,
  "john": 1575,
  "damdam": 1576,
  "tulong": 1577,
  "bala": 1578,
  "enerhiya": 1579,
  "handa": 1580,
  "angkin": 1581,
  "agosto": 1582,
  "logo": 1583,
  "ayos": 1584,
  "terito": 1585,
  "onya": 1586,
  "ity": 1587,
  "lakal": 1588,
  "baga": 1589,
  "pampolitika": 1590,
  "litaw": 1591,
  "pagbibigay": 1592,
  "ld": 1593,
  "panganga": 1594,
  "balat": 1595,
  "laysay": 1596,
  "organisa": 1597,
  "nagiging": 1598,
  "hunan": 1599,
  "sho": 1600,
  "sha": 1601,
  "setyembre": 1602,
  "ksiyong": 1603,
  "nob": 1604,
  "ura": 1605,
  "tanyag": 1606,
  "ft": 1607,
  "bubu": 1608,
  "progra": 1609,
  "iisa": 1610,
  "ngat": 1611,
  "korea": 1612,
  "bok": 1613,
  "lem": 1614,
  "ulong": 1615,
  "tiya": 1616,
  "diri": 1617,
  "ren": 1618,
  "up": 1619,
  "kontrol": 1620,
  "mito": 1621,
  "obis": 1622,
  "heo": 1623,
  "apo": 1624,
  "pebrero": 1625,
  "dra": 1626,
  "sion": 1627,
  "tira": 1628,
  "obispo": 1629,
  "fre": 1630,
  "kor": 1631,
  "dekada": 1632,
  "epekto": 1633,
  "taha": 1634,
  "panlipunan": 1635,
  "tauh": 1636,
  "tig": 1637,
  "bria": 1638,
  "wersa": 1639,
  "musika": 1640,
  "sinasabing": 1641,
  "tandang": 1642,
  "cla": 1643,
  "mos": 1644,
  "dali": 1645,
  "nobyembre": 1646,
  "stitus": 1647,
  "rya": 1648,
  "national": 1649,
  "proble": 1650,
  "hasa": 1651,
  "tero": 1652,
  "demo": 1653,
  "rol": 1654,
  "fili": 1655,
  "babai": 1656,
  "bio": 1657,
  "data": 1658,
  "dna": 1659,
  "dami": 1660,
  "pul": 1661,
  "arti": 1662,
  "mode": 1663,
  "ntay": 1664,
  "tori": 1665,
  "isla": 1666,
  "asyon": 1667,
  "itik": 1668,
  "panana": 1669,
  "orto": 1670,
  "tog": 1671,
  "nagkakaisang": 1672,
  "rizal": 1673,
  "galaw": 1674,
  "guni": 1675,
  "pito": 1676,
  "pot": 1677,
  "teritoryo": 1678,
  "war": 1679,
  "itaw": 1680,
  "berg": 1681,
  "bes": 1682,
  "kole": 1683,
  "ikatlo": 1684,
  "wo": 1685,
  "puti": 1686,
  "hawa": 1687,
  "rmir": 1688,
  "tad": 1689,
  "oli": 1690,
  "lamang": 1691,
  "ud": 1692,
  "ky": 1693,
  "kalusugan": 1694,
  "problema": 1695,
  "mune": 1696,
  "tho": 1697,
  "bla": 1698,
  "breo": 1699,
  "dom": 1700,
  "pedro": 1701,
  "lucas": 1702,
  "lungat": 1703,
  "fu": 1704,
  "nam": 1705,
  "nsin": 1706,
  "igi": 1707,
  "pisikal": 1708,
  "sentro": 1709,
  "libing": 1710,
  "hulugan": 1711,
  "philip": 1712,
  "bus": 1713,
  "elias": 1714,
  "gawi": 1715,
  "sipi": 1716,
  "sag": 1717,
  "ligtas": 1718,
  "unibersidad": 1719,
  "tungkulin": 1720,
  "asal": 1721,
  "pasi": 1722,
  "inilala": 1723,
  "impe": 1724,
  "sya": 1725,
  "diwa": 1726,
  "sangay": 1727,
  "yuna": 1728,
  "termino": 1729,
  "ili": 1730,
  "makabago": 1731,
  "lun": 1732,
  "rahan": 1733,
  "pho": 1734,
  "leon": 1735,
  "lokal": 1736,
  "boy": 1737,
  "tibay": 1738,
  "speci": 1739,
  "plano": 1740,
  "nes": 1741,
  "usalem": 1742,
  "seksuwalidad": 1743,
  "binig": 1744,
  "papel": 1745,
  "gon": 1746,
  "mismo": 1747,
  "isda": 1748,
  "uha": 1749,
  "univer": 1750,
  "modelo": 1751,
  "100": 1752,
  "tinatayang": 1753,
  "uring": 1754,
  "chu": 1755,
  "play": 1756,
  "sur": 1757,
  "tre": 1758,
  "dagdag": 1759,
  "wel": 1760,
  "ako": 1761,
  "cer": 1762,
  "pagli": 1763,
  "islam": 1764,
  "cio": 1765,
  "ebid": 1766,
  "pagsi": 1767,
  "elemento": 1768,
  "alin": 1769,
  "uli": 1770,
  "donya": 1771,
  "itim": 1772,
  "kli": 1773,
  "num": 1774,
  "disyon": 1775,
  "bundok": 1776,
  "buto": 1777,
  "mbak": 1778,
  "iwan": 1779,
  "nakara": 1780,
  "dantaon": 1781,
  "comune": 1782,
  "ph": 1783,
  "rating": 1784,
  "espesye": 1785,
  "liban": 1786,
  "hei": 1787,
  "mahal": 1788,
  "pinapa": 1789,
  "halaman": 1790,
  "aqu": 1791,
  "buka": 1792,
  "banda": 1793,
  "tana": 1794,
  "rusya": 1795,
  "kur": 1796,
  "teral": 1797,
  "bakterya": 1798,
  "kura": 1799,
  "sian": 1800,
  "pilosopiya": 1801,
  "kre": 1802,
  "kumaka": 1803,
  "had": 1804,
  "kta": 1805,
  "ado": 1806,
  "nagha": 1807,
  "ct": 1808,
  "eta": 1809,
  "baka": 1810,
  "natural": 1811,
  "igay": 1812,
  "yor": 1813,
  "patul": 1814,
  "lalakbay": 1815,
  "sabay": 1816,
  "bela": 1817,
  "pali": 1818,
  "mple": 1819,
  "rian": 1820,
  "britanya": 1821,
  "hanay": 1822,
  "yod": 1823,
  "manunulat": 1824,
  "likas": 1825,
  "iko": 1826,
  "tine": 1827,
  "60": 1828,
  "80": 1829,
  "gabi": 1830,
  "dato": 1831,
  "let": 1832,
  "yoso": 1833,
  "33": 1834,
  "bir": 1835,
  "ragdag": 1836,
  "mulang": 1837,
  "edukasyon": 1838,
  "saad": 1839,
  "lum": 1840,
  "got": 1841,
  "hapones": 1842,
  "punto": 1843,
  "rey": 1844,
  "ugnayang": 1845,
  "perso": 1846,
  "gres": 1847,
  "programa": 1848,
  "ima": 1849,
  "nara": 1850,
  "herusalem": 1851,
  "toma": 1852,
  "cis": 1853,
  "2000": 1854,
  "mono": 1855,
  "klaw": 1856,
  "konsep": 1857,
  "maliliit": 1858,
  "tinig": 1859,
  "nai": 1860,
  "miko": 1861,
  "latera": 1862,
  "budd": 1863,
  "walang": 1864,
  "puso": 1865,
  "ebolusyon": 1866,
  "abe": 1867,
  "alaga": 1868,
  "habang": 1869,
  "ebidensiya": 1870,
  "lon": 1871,
  "bibig": 1872,
  "peri": 1873,
  "siyenti": 1874,
  "lipat": 1875,
  "linggo": 1876,
  "gayon": 1877,
  "saka": 1878,
  "wig": 1879,
  "bisyo": 1880,
  "perensiya": 1881,
  "unyong": 1882,
  "uma": 1883,
  "pandaigdigang": 1884,
  "constantino": 1885,
  "soci": 1886,
  "siyentipiko": 1887,
  "nuno": 1888,
  "berna": 1889,
  "ted": 1890,
  "karaga": 1891,
  "ugat": 1892,
  "nabu": 1893,
  "watig": 1894,
  "dalub": 1895,
  "hiwatig": 1896,
  "tha": 1897,
  "yer": 1898,
  "gusali": 1899,
  "ish": 1900,
  "kabuuang": 1901,
  "negos": 1902,
  "pagtatang": 1903,
  "kam": 1904,
  "bos": 1905,
  "bento": 1906,
  "hintu": 1907,
  "og": 1908,
  "matematika": 1909,
  "mic": 1910,
  "lagad": 1911,
  "yunal": 1912,
  "ary": 1913,
  "hika": 1914,
  "kataga": 1915,
  "kani": 1916,
  "gana": 1917,
  "husay": 1918,
  "char": 1919,
  "agad": 1920,
  "damaso": 1921,
  "pormal": 1922,
  "2010": 1923,
  "mpluwensiya": 1924,
  "layo": 1925,
  "imp": 1926,
  "win": 1927,
  "mole": 1928,
  "pie": 1929,
  "iwas": 1930,
  "natatang": 1931,
  "seks": 1932,
  "nagta": 1933,
  "sapat": 1934,
  "use": 1935,
  "tindi": 1936,
  "dar": 1937,
  "eu": 1938,
  "ger": 1939,
  "pine": 1940,
  "tit": 1941,
  "diriwang": 1942,
  "guro": 1943,
  "titik": 1944,
  "entral": 1945,
  "buddha": 1946,
  "ulan": 1947,
  "work": 1948,
  "khang": 1949,
  "komuni": 1950,
  "wn": 1951,
  "ilo": 1952,
  "hiyo": 1953,
  "tsino": 1954,
  "tagpuan": 1955,
  "ction": 1956,
  "literal": 1957,
  "yug": 1958,
  "guyod": 1959,
  "hugi": 1960,
  "septem": 1961,
  "universi": 1962,
  "rino": 1963,
  "cre": 1964,
  "plo": 1965,
  "kalaunang": 1966,
  "tagumpay": 1967,
  "lista": 1968,
  "yaman": 1969,
  "september": 1970,
  "ny": 1971,
  "tula": 1972,
  "mul": 1973,
  "mukha": 1974,
  "panahunan": 1975,
  "yugto": 1976,
  "bilidad": 1977,
  "paligi": 1978,
  "mani": 1979,
  "pista": 1980,
  "70": 1981,
  "posible": 1982,
  "gma": 1983,
  "sena": 1984,
  "pinagmulan": 1985,
  "tukoy": 1986,
  "lahi": 1987,
  "apostol": 1988,
  "artista": 1989,
  "ner": 1990,
  "rate": 1991,
  "tulo": 1992,
  "pital": 1993,
  "cus": 1994,
  "utos": 1995,
  "naunang": 1996,
  "world": 1997,
  "bunga": 1998,
  "35": 1999,
  "katimu": 2000,
  "sio": 2001,
  "tos": 2002,
  "heno": 2003,
  "ango": 2004,
  "mahalaang": 2005,
  "lingkod": 2006,
  "dating": 2007,
  "cala": 2008,
  "natatanging": 2009,
  "km": 2010,
  "umuhay": 2011,
  "kore": 2012,
  "espi": 2013,
  "budis": 2014,
  "senso": 2015,
  "dinasti": 2016,
  "magigi": 2017,
  "ket": 2018,
  "die": 2019,
  "kakaya": 2020,
  "hambing": 2021,
  "kundi": 2022,
  "lalaki": 2023,
  "natiling": 2024,
  "tupad": 2025,
  "ff": 2026,
  "kuna": 2027,
  "pisika": 2028,
  "takbo": 2029,
  "2008": 2030,
  "tru": 2031,
  "inte": 2032,
  "serbisyo": 2033,
  "ayo": 2034,
  "kakayahang": 2035,
  "kalakhang": 2036,
  "line": 2037,
  "aug": 2038,
  "saysa": 2039,
  "ktura": 2040,
  "2007": 2041,
  "pagtutu": 2042,
  "dalo": 2043,
  "dulo": 2044,
  "hod": 2045,
  "wis": 2046,
  "suporta": 2047,
  "ngi": 2048,
  "simbo": 2049,
  "hol": 2050,
  "pormasyon": 2051,
  "dinastiya": 2052,
  "wen": 2053,
  "bum": 2054,
  "leo": 2055,
  "antas": 2056,
  "tun": 2057,
  "ls": 2058,
  "india": 2059,
  "palo": 2060,
  "putbol": 2061,
  "sini": 2062,
  "iv": 2063,
  "gh": 2064,
  "nana": 2065,
  "irlanda": 2066,
  "vel": 2067,
  "stra": 2068,
  "publiko": 2069,
  "sup": 2070,
  "dol": 2071,
  "glo": 2072,
  "hila": 2073,
  "industriya": 2074,
  "species": 2075,
  "bidad": 2076,
  "basa": 2077,
  "nao": 2078,
  "pangkaraniwang": 2079,
  "milyon": 2080,
  "tikang": 2081,
  "liham": 2082,
  "nida": 2083,
  "malalaking": 2084,
  "bigat": 2085,
  "gawin": 2086,
  "eng": 2087,
  "ander": 2088,
  "skolar": 2089,
  "mikro": 2090,
  "inam": 2091,
  "port": 2092,
  "alik": 2093,
  "emi": 2094,
  "hid": 2095,
  "hudaismo": 2096,
  "gaga": 2097,
  "panlaba": 2098,
  "flo": 2099,
  "sismo": 2100,
  "tomo": 2101,
  "undan": 2102,
  "2009": 2103,
  "wakang": 2104,
  "alit": 2105,
  "sar": 2106,
  "pamahalaang": 2107,
  "pama": 2108,
  "cris": 2109,
  "bitu": 2110,
  "pagsusuri": 2111,
  "wiki": 2112,
  "ea": 2113,
  "31": 2114,
  "asok": 2115,
  "sty": 2116,
  "langit": 2117,
  "bado": 2118,
  "heidel": 2119,
  "ministro": 2120,
  "cel": 2121,
  "tam": 2122,
  "atawan": 2123,
  "miya": 2124,
  "ordina": 2125,
  "90": 2126,
  "coun": 2127,
  "lamig": 2128,
  "hammad": 2129,
  "pinaniniwalaang": 2130,
  "tuon": 2131,
  "prope": 2132,
  "kulang": 2133,
  "mayan": 2134,
  "sele": 2135,
  "nog": 2136,
  "suli": 2137,
  "lusyon": 2138,
  "tatak": 2139,
  "daling": 2140,
  "laraw": 2141,
  "misa": 2142,
  "ikha": 2143,
  "mung": 2144,
  "university": 2145,
  "baya": 2146,
  "akit": 2147,
  "ning": 2148,
  "stitusyon": 2149,
  "yuter": 2150,
  "duma": 2151,
  "var": 2152,
  "teryal": 2153,
  "sira": 2154,
  "cri": 2155,
  "tinutukoy": 2156,
  "stru": 2157,
  "nalo": 2158,
  "45": 2159,
  "layang": 2160,
  "sundu": 2161,
  "tangiang": 2162,
  "ust": 2163,
  "sor": 2164,
  "quezon": 2165,
  "kilometro": 2166,
  "istan": 2167,
  "totoo": 2168,
  "iso": 2169,
  "ligid": 2170,
  "suliran": 2171,
  "pumapa": 2172,
  "katangiang": 2173,
  "lihim": 2174,
  "mber": 2175,
  "38": 2176,
  "kabuo": 2177,
  "halama": 2178,
  "kti": 2179,
  "muhammad": 2180,
  "panini": 2181,
  "yama": 2182,
  "castel": 2183,
  "normal": 2184,
  "panyo": 2185,
  "gresya": 2186,
  "nloob": 2187,
  "impormasyon": 2188,
  "pangangailangan": 2189,
  "sobyet": 2190,
  "negosyo": 2191,
  "dib": 2192,
  "anggap": 2193,
  "pigil": 2194,
  "namang": 2195,
  "uhan": 2196,
  "lio": 2197,
  "ungkahi": 2198,
  "biya": 2199,
  "yapa": 2200,
  "pulung": 2201,
  "arke": 2202,
  "pru": 2203,
  "ridad": 2204,
  "lambak": 2205,
  "kompyuter": 2206,
  "nabubuhay": 2207,
  "lathala": 2208,
  "heidelberg": 2209,
  "nasan": 2210,
  "damit": 2211,
  "sanggol": 2212,
  "bl": 2213,
  "balita": 2214,
  "saligang": 2215,
  "ken": 2216,
  "ipinapa": 2217,
  "med": 2218,
  "katimugang": 2219,
  "kiya": 2220,
  "bya": 2221,
  "network": 2222,
  "hula": 2223,
  "ipag": 2224,
  "ismong": 2225,
  "sir": 2226,
  "sino": 2227,
  "manga": 2228,
  "rato": 2229,
  "diin": 2230,
  "puwersa": 2231,
  "perat": 2232,
  "display": 2233,
  "sani": 2234,
  "god": 2235,
  "ntala": 2236,
  "antong": 2237,
  "bk": 2238,
  "bert": 2239,
  "bisa": 2240,
  "manu": 2241,
  "gio": 2242,
  "ikilala": 2243,
  "pampu": 2244,
  "temp": 2245,
  "kristo": 2246,
  "kompanya": 2247,
  "tian": 2248,
  "minsang": 2249,
  "talo": 2250,
  "jan": 2251,
  "patang": 2252,
  "sit": 2253,
  "bagsak": 2254,
  "ins": 2255,
  "mental": 2256,
  "kaba": 2257,
  "paa": 2258,
  "aya": 2259,
  "estasyon": 2260,
  "ory": 2261,
  "hira": 2262,
  "ortodok": 2263,
  "dog": 2264,
  "kesa": 2265,
  "entino": 2266,
  "abenida": 2267,
  "likod": 2268,
  "obser": 2269,
  "ligta": 2270,
  "klak": 2271,
  "und": 2272,
  "malawakang": 2273,
  "sisa": 2274,
  "hong": 2275,
  "santiago": 2276,
  "nalala": 2277,
  "turo": 2278,
  "walo": 2279,
  "tunog": 2280,
  "2005": 2281,
  "39": 2282,
  "chris": 2283,
  "relihiyoso": 2284,
  "kolehiyo": 2285,
  "fos": 2286,
  "lamat": 2287,
  "daloy": 2288,
  "lumilitaw": 2289,
  "mumun": 2290,
  "binu": 2291,
  "ef": 2292,
  "arkeo": 2293,
  "pania": 2294,
  "hero": 2295,
  "sikat": 2296,
  "gulo": 2297,
  "zam": 2298,
  "samba": 2299,
  "gala": 2300,
  "hiv": 2301,
  "utak": 2302,
  "produksiyon": 2303,
  "siplina": 2304,
  "gumagawa": 2305,
  "cca": 2306,
  "grapiya": 2307,
  "disenyo": 2308,
  "materyal": 2309,
  "1990": 2310,
  "sintoma": 2311,
  "indon": 2312,
  "sad": 2313,
  "napag": 2314,
  "octo": 2315,
  "saku": 2316,
  "gili": 2317,
  "siyang": 2318,
  "ast": 2319,
  "paglalakbay": 2320,
  "espanyo": 2321,
  "ei": 2322,
  "lahati": 2323,
  "lubha": 2324,
  "mabuti": 2325,
  "hukum": 2326,
  "rangal": 2327,
  "bene": 2328,
  "super": 2329,
  "2011": 2330,
  "suso": 2331,
  "piemonte": 2332,
  "au": 2333,
  "october": 2334,
  "tekno": 2335,
  "odo": 2336,
  "gda": 2337,
  "payak": 2338,
  "pupu": 2339,
  "reso": 2340,
  "style": 2341,
  "kabuuan": 2342,
  "natukla": 2343,
  "diperensiya": 2344,
  "magna": 2345,
  "patakaran": 2346,
  "ite": 2347,
  "wiran": 2348,
  "bulu": 2349,
  "espanyol": 2350,
  "kimika": 2351,
  "impeksiyon": 2352,
  "36": 2353,
  "kuwa": 2354,
  "tayu": 2355,
  "pikal": 2356,
  "inhin": 2357,
  "bug": 2358,
  "petsa": 2359,
  "aquino": 2360,
  "hudas": 2361,
  "marka": 2362,
  "sundalo": 2363,
  "unguna": 2364,
  "lago": 2365,
  "nangyayari": 2366,
  "silbing": 2367,
  "austra": 2368,
  "bayad": 2369,
  "utang": 2370,
  "til": 2371,
  "laun": 2372,
  "magsi": 2373,
  "isinasagawa": 2374,
  "mita": 2375,
  "niko": 2376,
  "phy": 2377,
  "tapat": 2378,
  "enda": 2379,
  "micha": 2380,
  "alex": 2381,
  "homoseksuwal": 2382,
  "scho": 2383,
  "cat": 2384,
  "sto": 2385,
  "apu": 2386,
  "takot": 2387,
  "ameri": 2388,
  "eg": 2389,
  "legal": 2390,
  "ugal": 2391,
  "red": 2392,
  "lansang": 2393,
  "rebolu": 2394,
  "hinga": 2395,
  "sara": 2396,
  "anato": 2397,
  "ginto": 2398,
  "michael": 2399,
  "ndi": 2400,
  "2006": 2401,
  "isyon": 2402,
  "aki": 2403,
  "naninirahan": 2404,
  "westo": 2405,
  "espirit": 2406,
  "opera": 2407,
  "sex": 2408,
  "daantaon": 2409,
  "francis": 2410,
  "hebreo": 2411,
  "lahok": 2412,
  "yar": 2413,
  "bn": 2414,
  "hanga": 2415,
  "bundu": 2416,
  "kutan": 2417,
  "tubo": 2418,
  "hor": 2419,
  "luzon": 2420,
  "tuklas": 2421,
  "chan": 2422,
  "kanon": 2423,
  "bdib": 2424,
  "kailangang": 2425,
  "37": 2426,
  "bahagi": 2427,
  "totoha": 2428,
  "cilia": 2429,
  "zu": 2430,
  "cali": 2431,
  "constantine": 2432,
  "plu": 2433,
  "atiko": 2434,
  "aba": 2435,
  "dr": 2436,
  "jac": 2437,
  "nagdu": 2438,
  "kasyong": 2439,
  "via": 2440,
  "pamba": 2441,
  "nat": 2442,
  "qui": 2443,
  "sampu": 2444,
  "sisyon": 2445,
  "eno": 2446,
  "pasa": 2447,
  "album": 2448,
  "siyam": 2449,
  "aas": 2450,
  "kaisa": 2451,
  "kasun": 2452,
  "tribu": 2453,
  "biyolohiya": 2454,
  "sekta": 2455,
  "teknolohiya": 2456,
  "tradisyon": 2457,
  "dalaga": 2458,
  "hoy": 2459,
  "kalat": 2460,
  "song": 2461,
  "kayat": 2462,
  "umento": 2463,
  "binibig": 2464,
  "yembro": 2465,
  "ah": 2466,
  "cata": 2467,
  "sayaw": 2468,
  "city": 2469,
  "rdy": 2470,
  "relasyon": 2471,
  "unta": 2472,
  "kai": 2473,
  "karagda": 2474,
  "ming": 2475,
  "colle": 2476,
  "bakal": 2477,
  "34": 2478,
  "filipino": 2479,
  "ideya": 2480,
  "lomba": 2481,
  "pamumuhay": 2482,
  "2004": 2483,
  "asido": 2484,
  "libo": 2485,
  "sh": 2486,
  "sud": 2487,
  "karapatang": 2488,
  "sou": 2489,
  "karagdagang": 2490,
  "bru": 2491,
  "zia": 2492,
  "alto": 2493,
  "1981": 2494,
  "hiko": 2495,
  "mitolohiya": 2496,
  "presyo": 2497,
  "ekonomika": 2498,
  "wasyon": 2499,
  "simbolo": 2500,
  "sinasabi": 2501,
  "doon": 2502,
  "kontra": 2503,
  "limbag": 2504,
  "sarili": 2505,
  "paligir": 2506,
  "lungan": 2507,
  "pinamumun": 2508,
  "krus": 2509,
  "united": 2510,
  "ira": 2511,
  "pahiwatig": 2512,
  "pilosopo": 2513,
  "alpa": 2514,
  "siyong": 2515,
  "libe": 2516,
  "garya": 2517,
  "ono": 2518,
  "panan": 2519,
  "sekswal": 2520,
  "miyembro": 2521,
  "pinamumunuan": 2522,
  "displaystyle": 2523,
  "nega": 2524,
  "ence": 2525,
  "kontin": 2526,
  "gulu": 2527,
  "sanib": 2528,
  "ital": 2529,
  "lise": 2530,
  "itlog": 2531,
  "himpapa": 2532,
  "apit": 2533,
  "auto": 2534,
  "kopya": 2535,
  "pede": 2536,
  "komun": 2537,
  "opi": 2538,
  "konsepto": 2539,
  "epi": 2540,
  "ves": 2541,
  "sat": 2542,
  "bali": 2543,
  "dae": 2544,
  "atay": 2545,
  "brit": 2546,
  "campania": 2547,
  "kuku": 2548,
  "linang": 2549,
  "mora": 2550,
  "osta": 2551,
  "sk": 2552,
  "klase": 2553,
  "kasari": 2554,
  "taba": 2555,
  "villa": 2556,
  "deo": 2557,
  "lands": 2558,
  "natuklasan": 2559,
  "suk": 2560,
  "non": 2561,
  "lahatan": 2562,
  "aust": 2563,
  "adminis": 2564,
  "bac": 2565,
  "tano": 2566,
  "diego": 2567,
  "igit": 2568,
  "portu": 2569,
  "himpapawid": 2570,
  "linaw": 2571,
  "hipo": 2572,
  "tugon": 2573,
  "klasiko": 2574,
  "ae": 2575,
  "hap": 2576,
  "unog": 2577,
  "vin": 2578,
  "lie": 2579,
  "ens": 2580,
  "muno": 2581,
  "ingg": 2582,
  "abas": 2583,
  "sipyo": 2584,
  "dayu": 2585,
  "46": 2586,
  "menta": 2587,
  "ortodokso": 2588,
  "bakuna": 2589,
  "sangkutan": 2590,
  "roman": 2591,
  "teri": 2592,
  "tuloy": 2593,
  "inglatera": 2594,
  "subok": 2595,
  "turu": 2596,
  "likong": 2597,
  "nayan": 2598,
  "nobela": 2599,
  "uman": 2600,
  "1980": 2601,
  "1991": 2602,
  "mura": 2603,
  "48": 2604,
  "sp": 2605,
  "dula": 2606,
  "sard": 2607,
  "lagi": 2608,
  "magat": 2609,
  "utus": 2610,
  "yante": 2611,
  "simple": 2612,
  "kinasa": 2613,
  "mik": 2614,
  "temperat": 2615,
  "trina": 2616,
  "75": 2617,
  "pini": 2618,
  "silbi": 2619,
  "dri": 2620,
  "lebel": 2621,
  "gusto": 2622,
  "luk": 2623,
  "kle": 2624,
  "huma": 2625,
  "supl": 2626,
  "sasyon": 2627,
  "yelo": 2628,
  "bumu": 2629,
  "kabi": 2630,
  "hag": 2631,
  "iskolar": 2632,
  "ker": 2633,
  "sardini": 2634,
  "reho": 2635,
  "tuwid": 2636,
  "estra": 2637,
  "inilalarawan": 2638,
  "120": 2639,
  "pira": 2640,
  "sinusu": 2641,
  "anggi": 2642,
  "siyo": 2643,
  "pasyente": 2644,
  "huwag": 2645,
  "iyong": 2646,
  "aari": 2647,
  "are": 2648,
  "templo": 2649,
  "guhit": 2650,
  "laganap": 2651,
  "ruso": 2652,
  "nabuo": 2653,
  "mekani": 2654,
  "abru": 2655,
  "eksperi": 2656,
  "nagda": 2657,
  "tex": 2658,
  "nakaraang": 2659,
  "babil": 2660,
  "nagsimulang": 2661,
  "temperatura": 2662,
  "abruzzo": 2663,
  "eslo": 2664,
  "wikipe": 2665,
  "pantao": 2666,
  "tasyong": 2667,
  "balang": 2668,
  "tabi": 2669,
  "trentino": 2670,
  "peto": 2671,
  "adig": 2672,
  "pamilya": 2673,
  "adige": 2674,
  "186": 2675,
  "monya": 2676,
  "logos": 2677,
  "tirol": 2678,
  "beses": 2679,
  "karne": 2680,
  "prot": 2681,
  "yaya": 2682,
  "piyang": 2683,
  "giu": 2684,
  "kwan": 2685,
  "188": 2686,
  "kauna": 2687,
  "500": 2688,
  "pagdu": 2689,
  "kriti": 2690,
  "intsik": 2691,
  "norte": 2692,
  "sudtirol": 2693,
  "paglili": 2694,
  "philippine": 2695,
  "tupa": 2696,
  "32": 2697,
  "bung": 2698,
  "pisa": 2699,
  "danao": 2700,
  "pananakop": 2701,
  "fossil": 2702,
  "eso": 2703,
  "sulong": 2704,
  "venezia": 2705,
  "alpabe": 2706,
  "anali": 2707,
  "sau": 2708,
  "italyano": 2709,
  "jam": 2710,
  "josep": 2711,
  "matindi": 2712,
  "gran": 2713,
  "lunsad": 2714,
  "teor": 2715,
  "zan": 2716,
  "kahulugang": 2717,
  "asin": 2718,
  "kailan": 2719,
  "cion": 2720,
  "rehiyong": 2721,
  "batas": 2722,
  "sikolohiya": 2723,
  "kahoy": 2724,
  "rok": 2725,
  "lou": 2726,
  "cher": 2727,
  "personal": 2728,
  "histori": 2729,
  "international": 2730,
  "lombardy": 2731,
  "nucle": 2732,
  "veneto": 2733,
  "molise": 2734,
  "binigyang": 2735,
  "minal": 2736,
  "umbria": 2737,
  "hintulot": 2738,
  "mart": 2739,
  "meta": 2740,
  "pangang": 2741,
  "linis": 2742,
  "basilio": 2743,
  "esia": 2744,
  "colo": 2745,
  "yado": 2746,
  "mel": 2747,
  "propes": 2748,
  "doktrina": 2749,
  "gina": 2750,
  "labin": 2751,
  "isina": 2752,
  "nino": 2753,
  "aosta": 2754,
  "saysayang": 2755,
  "negatibo": 2756,
  "ngkap": 2757,
  "march": 2758,
  "ds": 2759,
  "marche": 2760,
  "lalaraw": 2761,
  "kus": 2762,
  "sinasalita": 2763,
  "mungkahi": 2764,
  "taka": 2765,
  "artikulo": 2766,
  "rala": 2767,
  "ref": 2768,
  "alak": 2769,
  "cro": 2770,
  "syal": 2771,
  "umaa": 2772,
  "benta": 2773,
  "bs": 2774,
  "dalu": 2775,
  "try": 2776,
  "tuskanya": 2777,
  "relihiyong": 2778,
  "tesis": 2779,
  "lazi": 2780,
  "mesa": 2781,
  "air": 2782,
  "moso": 2783,
  "geor": 2784,
  "inu": 2785,
  "mano": 2786,
  "pur": 2787,
  "bigla": 2788,
  "reyna": 2789,
  "emilia": 2790,
  "enta": 2791,
  "nagbaba": 2792,
  "gubat": 2793,
  "hawak": 2794,
  "gayong": 2795,
  "ctor": 2796,
  "sisyong": 2797,
  "giulia": 2798,
  "agu": 2799,
  "romagna": 2800,
  "wasak": 2801,
  "canada": 2802,
  "ping": 2803,
  "wagang": 2804,
  "calabria": 2805,
  "kumakatawan": 2806,
  "sahod": 2807,
  "gisag": 2808,
  "kad": 2809,
  "cc": 2810,
  "liga": 2811,
  "espas": 2812,
  "birhen": 2813,
  "masel": 2814,
  "sero": 2815,
  "uniberso": 2816,
  "pribado": 2817,
  "hana": 2818,
  "york": 2819,
  "friuli": 2820,
  "paraang": 2821,
  "lla": 2822,
  "parirala": 2823,
  "prosesong": 2824,
  "str": 2825,
  "nangangailangan": 2826,
  "ktu": 2827,
  "angk": 2828,
  "guria": 2829,
  "kali": 2830,
  "feli": 2831,
  "planeta": 2832,
  "propeta": 2833,
  "ungo": 2834,
  "apulia": 2835,
  "sura": 2836,
  "califor": 2837,
  "basilicata": 2838,
  "ebol": 2839,
  "mb": 2840,
  "rer": 2841,
  "you": 2842,
  "chni": 2843,
  "yunit": 2844,
  "sipa": 2845,
  "materya": 2846,
  "mehiko": 2847,
  "enos": 2848,
  "she": 2849,
  "california": 2850,
  "prote": 2851,
  "abruzzolambak": 2852,
  "aostaapulia": 2853,
  "aostaapuliabasilicata": 2854,
  "asicilia": 2855,
  "calabriacampania": 2856,
  "calabriacampaniaemilia": 2857,
  "gurialombardy": 2858,
  "gurialombardymarche": 2859,
  "lazioli": 2860,
  "lazioligurialombardymarche": 2861,
  "molisepiemonte": 2862,
  "molisepiemontesardini": 2863,
  "molisepiemontesardiniasicilia": 2864,
  "romagnafriuli": 2865,
  "sudtiroltuskanya": 2866,
  "sudtiroltuskanyaumbria": 2867,
  "sudtiroltuskanyaumbriaveneto": 2868,
  "5px": 2869,
  "kail": 2870,
  "ganti": 2871,
  "kanta": 2872,
  "rati": 2873,
  "kson": 2874,
  "olim": 2875,
  "paga": 2876,
  "pagtiti": 2877,
  "hango": 2878,
  "puwesto": 2879,
  "tive": 2880,
  "tanghal": 2881,
  "cs": 2882,
  "proye": 2883,
  "kondisyon": 2884,
  "rt": 2885,
  "ebolb": 2886,
  "halagang": 2887,
  "amang": 2888,
  "ante": 2889,
  "dres": 2890,
  "school": 2891,
  "ental": 2892,
  "lagu": 2893,
  "payapa": 2894,
  "goberna": 2895,
  "agri": 2896,
  "nauugnay": 2897,
  "regula": 2898,
  "buta": 2899,
  "ferrato": 2900,
  "jor": 2901,
  "basi": 2902,
  "monferrato": 2903,
  "zz": 2904,
  "1992": 2905,
  "trono": 2906,
  "masid": 2907,
  "suri": 2908,
  "ture": 2909,
  "landiya": 2910,
  "inom": 2911,
  "ai": 2912,
  "inea": 2913,
  "kilos": 2914,
  "proyekto": 2915,
  "bangko": 2916,
  "stu": 2917,
  "gata": 2918,
  "2003": 2919,
  "banya": 2920,
  "pinangala": 2921,
  "rac": 2922,
  "but": 2923,
  "internas": 2924,
  "py": 2925,
  "kilu": 2926,
  "gia": 2927,
  "panun": 2928,
  "hatid": 2929,
  "maya": 2930,
  "ard": 2931,
  "burg": 2932,
  "bubuo": 2933,
  "kilusang": 2934,
  "ekonomiko": 2935,
  "kratiko": 2936,
  "medisina": 2937,
  "ngkot": 2938,
  "pok": 2939,
  "tibidad": 2940,
  "palaio": 2941,
  "max": 2942,
  "area": 2943,
  "rere": 2944,
  "siyu": 2945,
  "hara": 2946,
  "talu": 2947,
  "aso": 2948,
  "suot": 2949,
  "direkta": 2950,
  "bakit": 2951,
  "rinig": 2952,
  "unahang": 2953,
  "gor": 2954,
  "homoseksuwalidad": 2955,
  "langi": 2956,
  "2001": 2957,
  "lipi": 2958,
  "maraang": 2959,
  "misyon": 2960,
  "prinsipyo": 2961,
  "cra": 2962,
  "maikli": 2963,
  "mam": 2964,
  "palaiologos": 2965,
  "thai": 2966,
  "gilid": 2967,
  "respon": 2968,
  "56": 2969,
  "karang": 2970,
  "kawala": 2971,
  "lipunang": 2972,
  "mona": 2973,
  "naglalarawan": 2974,
  "tanaw": 2975,
  "barko": 2976,
  "1986": 2977,
  "parte": 2978,
  "gong": 2979,
  "bayo": 2980,
  "mahahalagang": 2981,
  "nakabatay": 2982,
  "tv": 2983,
  "impluwensiya": 2984,
  "1989": 2985,
  "aad": 2986,
  "gales": 2987,
  "histor": 2988,
  "ikot": 2989,
  "dilim": 2990,
  "sigla": 2991,
  "alok": 2992,
  "halili": 2993,
  "ms": 2994,
  "panganak": 2995,
  "boto": 2996,
  "juda": 2997,
  "ular": 2998,
  "afri": 2999,
  "ugaliang": 3000,
  "ps": 3001,
  "center": 3002,
  "pong": 3003,
  "star": 3004,
  "tamo": 3005,
  "tsi": 3006,
  "popular": 3007,
  "bc": 3008,
  "davi": 3009,
  "luluwa": 3010,
  "inum": 3011,
  "landes": 3012,
  "karanasan": 3013,
  "pamamaraang": 3014,
  "ee": 3015,
  "palomar": 3016,
  "union": 3017,
  "kis": 3018,
  "jes": 3019,
  "pisyo": 3020,
  "alpabeto": 3021,
  "arabo": 3022,
  "kromoso": 3023,
  "pha": 3024,
  "salu": 3025,
  "blikong": 3026,
  "arian": 3027,
  "kalimit": 3028,
  "gobernador": 3029,
  "ase": 3030,
  "buma": 3031,
  "hangul": 3032,
  "koreano": 3033,
  "pagbabago": 3034,
  "james": 3035,
  "paniniwala": 3036,
  "salvi": 3037,
  "onia": 3038,
  "tle": 3039,
  "uu": 3040,
  "kalimitang": 3041,
  "teryo": 3042,
  "imbento": 3043,
  "sasak": 3044,
  "bagu": 3045,
  "pto": 3046,
  "tawa": 3047,
  "bara": 3048,
  "tanggal": 3049,
  "liam": 3050,
  "bulaklak": 3051,
  "tangway": 3052,
  "unan": 3053,
  "budismo": 3054,
  "buhat": 3055,
  "guinea": 3056,
  "sco": 3057,
  "himag": 3058,
  "itinata": 3059,
  "kasarian": 3060,
  "sosyo": 3061,
  "gus": 3062,
  "ngasiwa": 3063,
  "mont": 3064,
  "payo": 3065,
  "kinasasangkutan": 3066,
  "mpu": 3067,
  "indonesia": 3068,
  "kontinente": 3069,
  "estadis": 3070,
  "pampublikong": 3071,
  "panda": 3072,
  "himagsik": 3073,
  "sanga": 3074,
  "siyudad": 3075,
  "espiritu": 3076,
  "order": 3077,
  "bawas": 3078,
  "labo": 3079,
  "tulu": 3080,
  "libot": 3081,
  "kord": 3082,
  "mbal": 3083,
  "mikal": 3084,
  "lian": 3085,
  "kaing": 3086,
  "binigyan": 3087,
  "wakas": 3088,
  "haw": 3089,
  "lohika": 3090,
  "bibi": 3091,
  "sisyo": 3092,
  "suma": 3093,
  "44": 3094,
  "af": 3095,
  "bad": 3096,
  "hus": 3097,
  "kodi": 3098,
  "peres": 3099,
  "viet": 3100,
  "bawa": 3101,
  "demokratiko": 3102,
  "trasyon": 3103,
  "palitan": 3104,
  "pamantayan": 3105,
  "katawagang": 3106,
  "neo": 3107,
  "pagtuturo": 3108,
  "stein": 3109,
  "ght": 3110,
  "lope": 3111,
  "huhu": 3112,
  "kate": 3113,
  "ises": 3114,
  "solo": 3115,
  "polonya": 3116,
  "tansiya": 3117,
  "cong": 3118,
  "pinaniniwalaan": 3119,
  "78": 3120,
  "william": 3121,
  "francisco": 3122,
  "moro": 3123,
  "napa": 3124,
  "elec": 3125,
  "karagatang": 3126,
  "bilanggo": 3127,
  "kamag": 3128,
  "natatangi": 3129,
  "espesyal": 3130,
  "pagdiriwang": 3131,
  "muta": 3132,
  "dokum": 3133,
  "kinakailangan": 3134,
  "positibo": 3135,
  "talam": 3136,
  "aking": 3137,
  "valley": 3138,
  "batang": 3139,
  "cebu": 3140,
  "kaw": 3141,
  "interpre": 3142,
  "tural": 3143,
  "itis": 3144,
  "ona": 3145,
  "august": 3146,
  "kahulugan": 3147,
  "kapangyarihang": 3148,
  "kasundu": 3149,
  "ligsa": 3150,
  "59": 3151,
  "bumuo": 3152,
  "palag": 3153,
  "gpit": 3154,
  "ws": 3155,
  "eskos": 3156,
  "galing": 3157,
  "key": 3158,
  "sentral": 3159,
  "that": 3160,
  "psiyon": 3161,
  "gyan": 3162,
  "tahan": 3163,
  "erno": 3164,
  "kolonya": 3165,
  "kodigo": 3166,
  "muhay": 3167,
  "nel": 3168,
  "bisi": 3169,
  "eskosya": 3170,
  "1978": 3171,
  "krimen": 3172,
  "2013": 3173,
  "gun": 3174,
  "organo": 3175,
  "real": 3176,
  "aralan": 3177,
  "kukuha": 3178,
  "baboy": 3179,
  "gy": 3180,
  "seleksiyon": 3181,
  "theodo": 3182,
  "abu": 3183,
  "handog": 3184,
  "gasyon": 3185,
  "nararapat": 3186,
  "sana": 3187,
  "tuntu": 3188,
  "sol": 3189,
  "tradisyong": 3190,
  "urban": 3191,
  "away": 3192,
  "eld": 3193,
  "lop": 3194,
  "kahari": 3195,
  "ambag": 3196,
  "puri": 3197,
  "vis": 3198,
  "jer": 3199,
  "deng": 3200,
  "300": 3201,
  "lilikha": 3202,
  "ilala": 3203,
  "kalde": 3204,
  "chur": 3205,
  "mol": 3206,
  "aralang": 3207,
  "oban": 3208,
  "2012": 3209,
  "epis": 3210,
  "tinatanggap": 3211,
  "kuran": 3212,
  "ire": 3213,
  "metal": 3214,
  "dinal": 3215,
  "ibon": 3216,
  "1960": 3217,
  "mikong": 3218,
  "isyu": 3219,
  "korte": 3220,
  "tern": 3221,
  "dako": 3222,
  "ngipin": 3223,
  "cur": 3224,
  "paghahari": 3225,
  "hitler": 3226,
  "maganda": 3227,
  "rasya": 3228,
  "alperes": 3229,
  "lismo": 3230,
  "tradisyonal": 3231,
  "alba": 3232,
  "american": 3233,
  "nk": 3234,
  "hak": 3235,
  "hersisyo": 3236,
  "tagpu": 3237,
  "portugal": 3238,
  "karagatan": 3239,
  "sinu": 3240,
  "ngan": 3241,
  "kabihas": 3242,
  "tuwirang": 3243,
  "metri": 3244,
  "arab": 3245,
  "kip": 3246,
  "igle": 3247,
  "moises": 3248,
  "oc": 3249,
  "rosa": 3250,
  "nababa": 3251,
  "apoy": 3252,
  "henetiko": 3253,
  "bersiyon": 3254,
  "malaysia": 3255,
  "atak": 3256,
  "manuel": 3257,
  "pasipiko": 3258,
  "1945": 3259,
  "fernan": 3260,
  "47": 3261,
  "angalan": 3262,
  "komunikasyon": 3263,
  "uugnay": 3264,
  "politiko": 3265,
  "dp": 3266,
  "sch": 3267,
  "bangka": 3268,
  "buhok": 3269,
  "sr": 3270,
  "panig": 3271,
  "posisyong": 3272,
  "nasi": 3273,
  "kasu": 3274,
  "gitnaan": 3275,
  "natutu": 3276,
  "ure": 3277,
  "58": 3278,
  "migu": 3279,
  "inian": 3280,
  "usan": 3281,
  "aspeto": 3282,
  "naya": 3283,
  "turing": 3284,
  "david": 3285,
  "depende": 3286,
  "mapang": 3287,
  "kaunti": 3288,
  "gawaran": 3289,
  "alkalde": 3290,
  "rina": 3291,
  "bigy": 3292,
  "rom": 3293,
  "alat": 3294,
  "anatomiya": 3295,
  "sibo": 3296,
  "associ": 3297,
  "interes": 3298,
  "ers": 3299,
  "apar": 3300,
  "kimikal": 3301,
  "titulo": 3302,
  "kabit": 3303,
  "kumple": 3304,
  "naniniwalang": 3305,
  "lakay": 3306,
  "ight": 3307,
  "sius": 3308,
  "pagpupu": 3309,
  "vol": 3310,
  "alakal": 3311,
  "iran": 3312,
  "nagsisimula": 3313,
  "ahayag": 3314,
  "patri": 3315,
  "pir": 3316,
  "west": 3317,
  "sultan": 3318,
  "chnij": 3319,
  "nauchnij": 3320,
  "kongreso": 3321,
  "marin": 3322,
  "akade": 3323,
  "tuyo": 3324,
  "biyet": 3325,
  "ndidato": 3326,
  "anton": 3327,
  "eksperimento": 3328,
  "sci": 3329,
  "punda": 3330,
  "sinus": 3331,
  "college": 3332,
  "nangangahulugan": 3333,
  "jackson": 3334,
  "lakbay": 3335,
  "mamal": 3336,
  "dahon": 3337,
  "north": 3338,
  "kalye": 3339,
  "mika": 3340,
  "galit": 3341,
  "tagump": 3342,
  "iter": 3343,
  "kulan": 3344,
  "molekula": 3345,
  "ella": 3346,
  "rasyong": 3347,
  "patakarang": 3348,
  "sandal": 3349,
  "jr": 3350,
  "mindanao": 3351,
  "boni": 3352,
  "kusa": 3353,
  "patungo": 3354,
  "koro": 3355,
  "virus": 3356,
  "ukat": 3357,
  "hetero": 3358,
  "gla": 3359,
  "binuo": 3360,
  "kid": 3361,
  "natin": 3362,
  "diko": 3363,
  "jing": 3364,
  "republic": 3365,
  "sugat": 3366,
  "muna": 3367,
  "biru": 3368,
  "talata": 3369,
  "analisis": 3370,
  "sere": 3371,
  "sipalidad": 3372,
  "vat": 3373,
  "naryo": 3374,
  "dote": 3375,
  "ebreo": 3376,
  "humi": 3377,
  "kurso": 3378,
  "top": 3379,
  "wikipedia": 3380,
  "66": 3381,
  "ret": 3382,
  "atlan": 3383,
  "bihira": 3384,
  "wol": 3385,
  "vie": 3386,
  "anan": 3387,
  "halin": 3388,
  "kasama": 3389,
  "tali": 3390,
  "tud": 3391,
  "atom": 3392,
  "hindu": 3393,
  "kini": 3394,
  "yero": 3395,
  "agawa": 3396,
  "manus": 3397,
  "hur": 3398,
  "cord": 3399,
  "akop": 3400,
  "hout": 3401,
  "media": 3402,
  "anggit": 3403,
  "kapulu": 3404,
  "elektron": 3405,
  "1995": 3406,
  "logy": 3407,
  "ences": 3408,
  "pampang": 3409,
  "akay": 3410,
  "amba": 3411,
  "alta": 3412,
  "pamantayang": 3413,
  "tanong": 3414,
  "jun": 3415,
  "gorya": 3416,
  "nagtata": 3417,
  "samang": 3418,
  "1993": 3419,
  "dian": 3420,
  "husto": 3421,
  "pilosopiyang": 3422,
  "unah": 3423,
  "intera": 3424,
  "99": 3425,
  "len": 3426,
  "istra": 3427,
  "lumilikha": 3428,
  "polo": 3429,
  "coordina": 3430,
  "patag": 3431,
  "amo": 3432,
  "alon": 3433,
  "siyasat": 3434,
  "kido": 3435,
  "vera": 3436,
  "heng": 3437,
  "field": 3438,
  "church": 3439,
  "liano": 3440,
  "komisyon": 3441,
  "lutas": 3442,
  "ngay": 3443,
  "low": 3444,
  "magne": 3445,
  "lubo": 3446,
  "byerno": 3447,
  "epek": 3448,
  "lakad": 3449,
  "tigil": 3450,
  "54": 3451,
  "puli": 3452,
  "paglulu": 3453,
  "vir": 3454,
  "2002": 3455,
  "deu": 3456,
  "liwas": 3457,
  "kapuluang": 3458,
  "sahe": 3459,
  "bigkas": 3460,
  "paaralang": 3461,
  "himpil": 3462,
  "gno": 3463,
  "saser": 3464,
  "kalagitnaan": 3465,
  "lasa": 3466,
  "sundo": 3467,
  "monar": 3468,
  "japan": 3469,
  "sinundan": 3470,
  "tagu": 3471,
  "nani": 3472,
  "gtong": 3473,
  "pami": 3474,
  "tom": 3475,
  "sangkap": 3476,
  "kemikal": 3477,
  "piraso": 3478,
  "poly": 3479,
  "kyat": 3480,
  "unung": 3481,
  "munisipalidad": 3482,
  "ntig": 3483,
  "nangunguna": 3484,
  "palad": 3485,
  "1984": 3486,
  "central": 3487,
  "kukunan": 3488,
  "tinag": 3489,
  "bantog": 3490,
  "charles": 3491,
  "lawig": 3492,
  "nukle": 3493,
  "hiwa": 3494,
  "krito": 3495,
  "likido": 3496,
  "naig": 3497,
  "polohiya": 3498,
  "turkiya": 3499,
  "isabel": 3500,
  "high": 3501,
  "punsiyon": 3502,
  "nove": 3503,
  "alitan": 3504,
  "wasyong": 3505,
  "kagawaran": 3506,
  "kumbento": 3507,
  "nami": 3508,
  "palasyo": 3509,
  "samar": 3510,
  "taguyod": 3511,
  "alay": 3512,
  "siyal": 3513,
  "puwit": 3514,
  "gaanong": 3515,
  "refer": 3516,
  "cd": 3517,
  "nikal": 3518,
  "dilaw": 3519,
  "yah": 3520,
  "eri": 3521,
  "bilog": 3522,
  "lic": 3523,
  "nakaw": 3524,
  "award": 3525,
  "beth": 3526,
  "institusyon": 3527,
  "tugtug": 3528,
  "masama": 3529,
  "187": 3530,
  "panin": 3531,
  "om": 3532,
  "bint": 3533,
  "istru": 3534,
  "mangang": 3535,
  "moral": 3536,
  "dokumento": 3537,
  "proto": 3538,
  "saserdote": 3539,
  "tions": 3540,
  "sobra": 3541,
  "bahagya": 3542,
  "talakay": 3543,
  "angel": 3544,
  "kastila": 3545,
  "dalang": 3546,
  "erto": 3547,
  "tunggali": 3548,
  "klara": 3549,
  "umaasa": 3550,
  "grap": 3551,
  "ipinakilala": 3552,
  "amun": 3553,
  "ehersisyo": 3554,
  "pagba": 3555,
  "plas": 3556,
  "brun": 3557,
  "cru": 3558,
  "kahing": 3559,
  "1970": 3560,
  "gura": 3561,
  "kolon": 3562,
  "dila": 3563,
  "tuku": 3564,
  "manuskrito": 3565,
  "55": 3566,
  "diplo": 3567,
  "kataw": 3568,
  "nananatiling": 3569,
  "olo": 3570,
  "bigo": 3571,
  "febru": 3572,
  "february": 3573,
  "maca": 3574,
  "arap": 3575,
  "bilyong": 3576,
  "probin": 3577,
  "robert": 3578,
  "atas": 3579,
  "alexand": 3580,
  "sys": 3581,
  "klima": 3582,
  "oksi": 3583,
  "paning": 3584,
  "silid": 3585,
  "persona": 3586,
  "pagbubu": 3587,
  "stre": 3588,
  "wagi": 3589,
  "dena": 3590,
  "tanakh": 3591,
  "ipon": 3592,
  "miguel": 3593,
  "ear": 3594,
  "makipag": 3595,
  "paris": 3596,
  "rah": 3597,
  "sandata": 3598,
  "pasya": 3599,
  "south": 3600,
  "aan": 3601,
  "ford": 3602,
  "kategorya": 3603,
  "bulubundu": 3604,
  "pasig": 3605,
  "prepek": 3606,
  "0px": 3607,
  "iniha": 3608,
  "dara": 3609,
  "paghahanap": 3610,
  "victo": 3611,
  "ual": 3612,
  "mediter": 3613,
  "hagi": 3614,
  "ice": 3615,
  "reres": 3616,
  "cep": 3617,
  "proba": 3618,
  "ungusap": 3619,
  "ania": 3620,
  "code": 3621,
  "radyo": 3622,
  "cedon": 3623,
  "neu": 3624,
  "inang": 3625,
  "salo": 3626,
  "gobyerno": 3627,
  "australia": 3628,
  "raang": 3629,
  "65": 3630,
  "harlika": 3631,
  "ingi": 3632,
  "nasyon": 3633,
  "1997": 3634,
  "nilalaman": 3635,
  "clara": 3636,
  "mase": 3637,
  "sunog": 3638,
  "grego": 3639,
  "liberal": 3640,
  "banta": 3641,
  "sic": 3642,
  "hente": 3643,
  "ido": 3644,
  "sisi": 3645,
  "well": 3646,
  "november": 3647,
  "roni": 3648,
  "prinsi": 3649,
  "timba": 3650,
  "pig": 3651,
  "1979": 3652,
  "bangkay": 3653,
  "coordinates": 3654,
  "tuwal": 3655,
  "drama": 3656,
  "rius": 3657,
  "1982": 3658,
  "lalagyan": 3659,
  "tipu": 3660,
  "tuwa": 3661,
  "instr": 3662,
  "kare": 3663,
  "cav": 3664,
  "tado": 3665,
  "maharlika": 3666,
  "rein": 3667,
  "lutu": 3668,
  "tulay": 3669,
  "uning": 3670,
  "ic": 3671,
  "1988": 3672,
  "tim": 3673,
  "mine": 3674,
  "repres": 3675,
  "bomba": 3676,
  "bigka": 3677,
  "sumusu": 3678,
  "kim": 3679,
  "kury": 3680,
  "aris": 3681,
  "zambo": 3682,
  "austria": 3683,
  "espasyo": 3684,
  "terna": 3685,
  "panitik": 3686,
  "ward": 3687,
  "1973": 3688,
  "aparato": 3689,
  "ibini": 3690,
  "abo": 3691,
  "minasyon": 3692,
  "tren": 3693,
  "gue": 3694,
  "odis": 3695,
  "sasakyang": 3696,
  "tuber": 3697,
  "49": 3698,
  "agsak": 3699,
  "cti": 3700,
  "organismong": 3701,
  "ain": 3702,
  "kasing": 3703,
  "salamin": 3704,
  "iya": 3705,
  "tulog": 3706,
  "turis": 3707,
  "reporma": 3708,
  "hinto": 3709,
  "mila": 3710,
  "loka": 3711,
  "mini": 3712,
  "press": 3713,
  "gn": 3714,
  "pansarili": 3715,
  "silangan": 3716,
  "pormula": 3717,
  "sapit": 3718,
  "inc": 3719,
  "tuhan": 3720,
  "abs": 3721,
  "1987": 3722,
  "alang": 3723,
  "matematikal": 3724,
  "1975": 3725,
  "daw": 3726,
  "joseph": 3727,
  "ktibo": 3728,
  "tela": 3729,
  "1950": 3730,
  "km2": 3731,
  "olimpiko": 3732,
  "pederal": 3733,
  "takda": 3734,
  "casti": 3735,
  "67": 3736,
  "balangka": 3737,
  "kaay": 3738,
  "kapal": 3739,
  "paghahanda": 3740,
  "paghahati": 3741,
  "karam": 3742,
  "layuning": 3743,
  "matata": 3744,
  "corin": 3745,
  "ela": 3746,
  "gdp": 3747,
  "pagbabalik": 3748,
  "pinuno": 3749,
  "tiyago": 3750,
  "pagtukoy": 3751,
  "1998": 3752,
  "karunung": 3753,
  "siyento": 3754,
  "85": 3755,
  "aling": 3756,
  "great": 3757,
  "laguna": 3758,
  "association": 3759,
  "dalam": 3760,
  "obserba": 3761,
  "espe": 3762,
  "jesus": 3763,
  "karak": 3764,
  "sagot": 3765,
  "tukuy": 3766,
  "yagan": 3767,
  "bawal": 3768,
  "zation": 3769,
  "1977": 3770,
  "leng": 3771,
  "nakalili": 3772,
  "halintulad": 3773,
  "pangkasalukuyang": 3774,
  "dora": 3775,
  "look": 3776,
  "luna": 3777,
  "stansiya": 3778,
  "tigas": 3779,
  "kumpara": 3780,
  "gayan": 3781,
  "waka": 3782,
  "magda": 3783,
  "alaw": 3784,
  "tahi": 3785,
  "zamboanga": 3786,
  "lusob": 3787,
  "wolf": 3788,
  "az": 3789,
  "kikita": 3790,
  "medikal": 3791,
  "ipat": 3792,
  "labindalawa": 3793,
  "apekto": 3794,
  "ipinapakita": 3795,
  "oryo": 3796,
  "tempo": 3797,
  "diyosa": 3798,
  "oriental": 3799,
  "solu": 3800,
  "hita": 3801,
  "hos": 3802,
  "indiya": 3803,
  "natiti": 3804,
  "kado": 3805,
  "lunti": 3806,
  "roas": 3807,
  "agus": 3808,
  "not": 3809,
  "mait": 3810,
  "masedonya": 3811,
  "porsiyento": 3812,
  "kultural": 3813,
  "byo": 3814,
  "mac": 3815,
  "ndata": 3816,
  "rna": 3817,
  "side": 3818,
  "ugh": 3819,
  "sinimulan": 3820,
  "kilan": 3821,
  "ney": 3822,
  "janu": 3823,
  "rawang": 3824,
  "populasyong": 3825,
  "rebel": 3826,
  "etika": 3827,
  "pagku": 3828,
  "tical": 3829,
  "balisa": 3830,
  "kalenda": 3831,
  "pamantasang": 3832,
  "rekord": 3833,
  "tisyu": 3834,
  "naga": 3835,
  "dios": 3836,
  "tapon": 3837,
  "ngalaga": 3838,
  "pambata": 3839,
  "system": 3840,
  "cun": 3841,
  "edukasyong": 3842,
  "roo": 3843,
  "atu": 3844,
  "fin": 3845,
  "january": 3846,
  "palaran": 3847,
  "susunod": 3848,
  "kalendaryo": 3849,
  "laan": 3850,
  "stitu": 3851,
  "thailand": 3852,
  "troni": 3853,
  "mamalya": 3854,
  "belhika": 3855,
  "kda": 3856,
  "lalay": 3857,
  "partikulo": 3858,
  "ason": 3859,
  "darwin": 3860,
  "demok": 3861,
  "rot": 3862,
  "inhinye": 3863,
  "record": 3864,
  "duwal": 3865,
  "houten": 3866,
  "ingglatera": 3867,
  "matiko": 3868,
  "nae": 3869,
  "nakit": 3870,
  "andro": 3871,
  "sakupan": 3872,
  "gasto": 3873,
  "siyas": 3874,
  "hilig": 3875,
  "constantinople": 3876,
  "internet": 3877,
  "hahambing": 3878,
  "multi": 3879,
  "olanda": 3880,
  "42": 3881,
  "tanung": 3882,
  "itinutu": 3883,
  "ruta": 3884,
  "stat": 3885,
  "tradisyunal": 3886,
  "human": 3887,
  "litis": 3888,
  "rafa": 3889,
  "hine": 3890,
  "inf": 3891,
  "kasunduang": 3892,
  "hisla": 3893,
  "senado": 3894,
  "east": 3895,
  "metriya": 3896,
  "pagpi": 3897,
  "yas": 3898,
  "mado": 3899,
  "ksyon": 3900,
  "lehisla": 3901,
  "nagsisilbing": 3902,
  "tain": 3903,
  "ll": 3904,
  "pila": 3905,
  "quia": 3906,
  "indibi": 3907,
  "kano": 3908,
  "ora": 3909,
  "antro": 3910,
  "kontrober": 3911,
  "kawa": 3912,
  "lish": 3913,
  "alo": 3914,
  "bei": 3915,
  "love": 3916,
  "persian": 3917,
  "rafael": 3918,
  "diksiyon": 3919,
  "esa": 3920,
  "gamitan": 3921,
  "hantong": 3922,
  "babasa": 3923,
  "hawig": 3924,
  "kanismo": 3925,
  "katha": 3926,
  "desisyon": 3927,
  "umuunlad": 3928,
  "impor": 3929,
  "sey": 3930,
  "kulong": 3931,
  "tiwa": 3932,
  "57": 3933,
  "intra": 3934,
  "manya": 3935,
  "lipad": 3936,
  "moralidad": 3937,
  "unggarya": 3938,
  "cation": 3939,
  "karakter": 3940,
  "nagdudulot": 3941,
  "buwi": 3942,
  "mann": 3943,
  "pwersa": 3944,
  "hr": 3945,
  "kanoni": 3946,
  "piling": 3947,
  "references": 3948,
  "katawang": 3949,
  "nasasakupan": 3950,
  "hangad": 3951,
  "interpretasyon": 3952,
  "umaga": 3953,
  "geno": 3954,
  "krusa": 3955,
  "lilipat": 3956,
  "napapa": 3957,
  "umang": 3958,
  "apek": 3959,
  "marahil": 3960,
  "anghel": 3961,
  "pagbuo": 3962,
  "cil": 3963,
  "dinan": 3964,
  "estilo": 3965,
  "pandagat": 3966,
  "russia": 3967,
  "tibe": 3968,
  "agrikultura": 3969,
  "arkit": 3970,
  "dimen": 3971,
  "eston": 3972,
  "mok": 3973,
  "tai": 3974,
  "olohiya": 3975,
  "with": 3976,
  "portahan": 3977,
  "kataru": 3978,
  "dikit": 3979,
  "lac": 3980,
  "nagreres": 3981,
  "edsa": 3982,
  "thi": 3983,
  "1994": 3984,
  "mei": 3985,
  "sident": 3986,
  "prinsipe": 3987,
  "1976": 3988,
  "tuto": 3989,
  "paul": 3990,
  "pines": 3991,
  "bababa": 3992,
  "mc": 3993,
  "tidad": 3994,
  "pilit": 3995,
  "sinag": 3996,
  "cagayan": 3997,
  "portug": 3998,
  "dent": 3999,
  "fernando": 4000,
  "daliri": 4001,
  "congo": 4002,
  "hanapbuhay": 4003,
  "fil": 4004,
  "portuges": 4005,
  "sikap": 4006,
  "alig": 4007,
  "bagyo": 4008,
  "ian": 4009,
  "time": 4010,
  "corinto": 4011,
  "agdiriwang": 4012,
  "vese": 4013,
  "1983": 4014,
  "haligi": 4015,
  "parusa": 4016,
  "karunungan": 4017,
  "teolohiya": 4018,
  "web": 4019,
  "agal": 4020,
  "administr": 4021,
  "akwil": 4022,
  "british": 4023,
  "cruz": 4024,
  "ging": 4025,
  "pampagtatalik": 4026,
  "amunuan": 4027,
  "balu": 4028,
  "lito": 4029,
  "tumpak": 4030,
  "rano": 4031,
  "adala": 4032,
  "69": 4033,
  "dahila": 4034,
  "dalawampu": 4035,
  "likasyon": 4036,
  "general": 4037,
  "kwe": 4038,
  "state": 4039,
  "yi": 4040,
  "pasko": 4041,
  "disyong": 4042,
  "taiwan": 4043,
  "mesiyas": 4044,
  "nagu": 4045,
  "demon": 4046,
  "gustu": 4047,
  "likado": 4048,
  "salimu": 4049,
  "tul": 4050,
  "tono": 4051,
  "disiplina": 4052,
  "canavese": 4053,
  "pagsusulat": 4054,
  "samu": 4055,
  "here": 4056,
  "mensahe": 4057,
  "estud": 4058,
  "ngaral": 4059,
  "pader": 4060,
  "hanggan": 4061,
  "into": 4062,
  "light": 4063,
  "neuro": 4064,
  "nagtutu": 4065,
  "pio": 4066,
  "karga": 4067,
  "bian": 4068,
  "geria": 4069,
  "deri": 4070,
  "kut": 4071,
  "soli": 4072,
  "tanim": 4073,
  "ange": 4074,
  "batik": 4075,
  "nasus": 4076,
  "brunei": 4077,
  "komunidad": 4078,
  "napo": 4079,
  "salimuot": 4080,
  "ster": 4081,
  "septu": 4082,
  "sitwasyon": 4083,
  "instrumento": 4084,
  "riko": 4085,
  "natitirang": 4086,
  "tia": 4087,
  "yat": 4088,
  "ches": 4089,
  "mentaryo": 4090,
  "dou": 4091,
  "karyo": 4092,
  "tot": 4093,
  "krusada": 4094,
  "nis": 4095,
  "protest": 4096,
  "septuag": 4097,
  "tapus": 4098,
  "rini": 4099,
  "tumatanggap": 4100,
  "mia": 4101,
  "tanggi": 4102,
  "naldo": 4103,
  "ungkahing": 4104,
  "gawad": 4105,
  "tenyente": 4106,
  "free": 4107,
  "kardinal": 4108,
  "nit": 4109,
  "damang": 4110,
  "monas": 4111,
  "sw": 4112,
  "89": 4113,
  "rep": 4114,
  "41": 4115,
  "alth": 4116,
  "kturang": 4117,
  "nico": 4118,
  "ensiyal": 4119,
  "from": 4120,
  "pansamantala": 4121,
  "hre": 4122,
  "kilik": 4123,
  "lantad": 4124,
  "mekanismo": 4125,
  "aut": 4126,
  "dul": 4127,
  "henry": 4128,
  "pray": 4129,
  "sakay": 4130,
  "septuagint": 4131,
  "vic": 4132,
  "1985": 4133,
  "kopon": 4134,
  "lor": 4135,
  "mao": 4136,
  "nakalilipas": 4137,
  "omiya": 4138,
  "tumata": 4139,
  "eva": 4140,
  "hain": 4141,
  "ibong": 4142,
  "pagano": 4143,
  "hra": 4144,
  "ters": 4145,
  "dava": 4146,
  "komple": 4147,
  "mada": 4148,
  "pundamental": 4149,
  "grado": 4150,
  "bakya": 4151,
  "bikti": 4152,
  "gayunman": 4153,
  "43": 4154,
  "iglesia": 4155,
  "dovi": 4156,
  "estudyante": 4157,
  "burgo": 4158,
  "teorya": 4159,
  "rou": 4160,
  "estimula": 4161,
  "puwa": 4162,
  "dalampasi": 4163,
  "gad": 4164,
  "tinaguri": 4165,
  "islands": 4166,
  "siwaan": 4167,
  "meso": 4168,
  "labag": 4169,
  "panrelihiyon": 4170,
  "tiyan": 4171,
  "berte": 4172,
  "cul": 4173,
  "labing": 4174,
  "amino": 4175,
  "ey": 4176,
  "rante": 4177,
  "shu": 4178,
  "segu": 4179,
  "basyon": 4180,
  "puro": 4181,
  "tago": 4182,
  "hanggang": 4183,
  "pr": 4184,
  "philippines": 4185,
  "ayaw": 4186,
  "bisaya": 4187,
  "kahariang": 4188,
  "tiwala": 4189,
  "dumi": 4190,
  "121": 4191,
  "mid": 4192,
  "bagkus": 4193,
  "indepen": 4194,
  "makapangyari": 4195,
  "silo": 4196,
  "angeles": 4197,
  "davao": 4198,
  "mak": 4199,
  "bisita": 4200,
  "estadistika": 4201,
  "tasyo": 4202,
  "dasal": 4203,
  "sca": 4204,
  "antonio": 4205,
  "etniko": 4206,
  "ety": 4207,
  "tuparan": 4208,
  "ferdinan": 4209,
  "indibiduwal": 4210,
  "louis": 4211,
  "syn": 4212,
  "atlantiko": 4213,
  "kahalili": 4214,
  "binasyon": 4215,
  "ikli": 4216,
  "hintulu": 4217,
  "pilak": 4218,
  "cbn": 4219,
  "lee": 4220,
  "all": 4221,
  "protina": 4222,
  "puna": 4223,
  "ospital": 4224,
  "anya": 4225,
  "makapangyarihang": 4226,
  "perman": 4227,
  "ngal": 4228,
  "naryong": 4229,
  "ferdinand": 4230,
  "rektor": 4231,
  "teore": 4232,
  "nanatiling": 4233,
  "ress": 4234,
  "tulak": 4235,
  "1930": 4236,
  "aktibong": 4237,
  "biktima": 4238,
  "galak": 4239,
  "hakba": 4240,
  "hand": 4241,
  "ngunah": 4242,
  "valen": 4243,
  "konser": 4244,
  "pagkaraang": 4245,
  "tipon": 4246,
  "pumapayag": 4247,
  "yanong": 4248,
  "bensiyon": 4249,
  "huwa": 4250,
  "sakup": 4251,
  "1935": 4252,
  "kingdom": 4253,
  "konsum": 4254,
  "back": 4255,
  "wood": 4256,
  "1996": 4257,
  "sant": 4258,
  "direksiyon": 4259,
  "historikal": 4260,
  "sober": 4261,
  "unong": 4262,
  "binabaybay": 4263,
  "gting": 4264,
  "linares": 4265,
  "pandama": 4266,
  "ville": 4267,
  "bank": 4268,
  "kwa": 4269,
  "biko": 4270,
  "solusyon": 4271,
  "aksiyon": 4272,
  "gua": 4273,
  "soft": 4274,
  "chil": 4275,
  "carlos": 4276,
  "pinamaga": 4277,
  "ded": 4278,
  "george": 4279,
  "kinabuka": 4280,
  "150": 4281,
  "tomas": 4282,
  "tanso": 4283,
  "tabl": 4284,
  "syria": 4285,
  "esh": 4286,
  "vas": 4287,
  "weh": 4288,
  "51": 4289,
  "av": 4290,
  "dge": 4291,
  "suntok": 4292,
  "pagpupulong": 4293,
  "ratoryo": 4294,
  "heograpiya": 4295,
  "litwan": 4296,
  "montene": 4297,
  "probinsiya": 4298,
  "angka": 4299,
  "house": 4300,
  "upo": 4301,
  "arro": 4302,
  "ebolusyo": 4303,
  "limang": 4304,
  "muth": 4305,
  "saint": 4306,
  "alip": 4307,
  "tius": 4308,
  "end": 4309,
  "ktok": 4310,
  "ape": 4311,
  "paningin": 4312,
  "ruwe": 4313,
  "mya": 4314,
  "prepektura": 4315,
  "ritwal": 4316,
  "ilocos": 4317,
  "integ": 4318,
  "mayor": 4319,
  "meto": 4320,
  "pic": 4321,
  "doro": 4322,
  "mahalaan": 4323,
  "pagtatangka": 4324,
  "thro": 4325,
  "agdag": 4326,
  "nakamit": 4327,
  "pagbu": 4328,
  "spa": 4329,
  "april": 4330,
  "batibo": 4331,
  "talsik": 4332,
  "kaayusan": 4333,
  "chard": 4334,
  "elektri": 4335,
  "nalalaman": 4336,
  "reprodu": 4337,
  "linggu": 4338,
  "nagreresulta": 4339,
  "saky": 4340,
  "teria": 4341,
  "suwes": 4342,
  "tribo": 4343,
  "eslobakya": 4344,
  "gao": 4345,
  "rial": 4346,
  "lisasyon": 4347,
  "nalang": 4348,
  "spi": 4349,
  "tb": 4350,
  "ball": 4351,
  "height": 4352,
  "paraan": 4353,
  "cial": 4354,
  "letto": 4355,
  "besti": 4356,
  "hura": 4357,
  "anderson": 4358,
  "imahe": 4359,
  "kinig": 4360,
  "aca": 4361,
  "hiro": 4362,
  "mera": 4363,
  "daga": 4364,
  "quar": 4365,
  "baligta": 4366,
  "jus": 4367,
  "68": 4368,
  "bayong": 4369,
  "ekwasyong": 4370,
  "madla": 4371,
  "ox": 4372,
  "pisyal": 4373,
  "nykh": 4374,
  "sudan": 4375,
  "thomas": 4376,
  "kinabukasan": 4377,
  "agui": 4378,
  "hug": 4379,
  "mpan": 4380,
  "mekanik": 4381,
  "cano": 4382,
  "kono": 4383,
  "lino": 4384,
  "paktor": 4385,
  "power": 4386,
  "montenegro": 4387,
  "kalidad": 4388,
  "bagal": 4389,
  "tsipre": 4390,
  "1972": 4391,
  "kabanata": 4392,
  "cir": 4393,
  "suwesya": 4394,
  "taasang": 4395,
  "saw": 4396,
  "sulok": 4397,
  "bulacan": 4398,
  "elektro": 4399,
  "mena": 4400,
  "apay": 4401,
  "yahweh": 4402,
  "53": 4403,
  "rates": 4404,
  "siklo": 4405,
  "kumakain": 4406,
  "parta": 4407,
  "regular": 4408,
  "tulung": 4409,
  "ua": 4410,
  "jin": 4411,
  "ortodo": 4412,
  "sexual": 4413,
  "limita": 4414,
  "ryong": 4415,
  "tinuturing": 4416,
  "under": 4417,
  "hensiya": 4418,
  "stri": 4419,
  "chernykh": 4420,
  "ligu": 4421,
  "paglalagay": 4422,
  "makamit": 4423,
  "met": 4424,
  "antio": 4425,
  "gabay": 4426,
  "ids": 4427,
  "maur": 4428,
  "market": 4429,
  "depres": 4430,
  "98": 4431,
  "botan": 4432,
  "inus": 4433,
  "nut": 4434,
  "pales": 4435,
  "uz": 4436,
  "johan": 4437,
  "dea": 4438,
  "kino": 4439,
  "kumi": 4440,
  "larangang": 4441,
  "bayar": 4442,
  "bukas": 4443,
  "ayag": 4444,
  "baligtaran": 4445,
  "gulay": 4446,
  "klasipi": 4447,
  "prak": 4448,
  "zoroas": 4449,
  "nanirahan": 4450,
  "sukal": 4451,
  "pinangalanan": 4452,
  "dalampasigan": 4453,
  "erba": 4454,
  "ism": 4455,
  "pagpa": 4456,
  "inhinyero": 4457,
  "alle": 4458,
  "noruwe": 4459,
  "pagtatayo": 4460,
  "pampanga": 4461,
  "sumasakop": 4462,
  "bayag": 4463,
  "chang": 4464,
  "enri": 4465,
  "ip": 4466,
  "pore": 4467,
  "riano": 4468,
  "felipe": 4469,
  "gumaganap": 4470,
  "pwer": 4471,
  "rega": 4472,
  "vati": 4473,
  "sona": 4474,
  "sosyal": 4475,
  "text": 4476,
  "henerasyon": 4477,
  "kredo": 4478,
  "budista": 4479,
  "internasyonal": 4480,
  "odiseo": 4481,
  "baryo": 4482,
  "black": 4483,
  "eroplano": 4484,
  "korona": 4485,
  "riyang": 4486,
  "timpala": 4487,
  "wirang": 4488,
  "damo": 4489,
  "seremonya": 4490,
  "ngatawan": 4491,
  "green": 4492,
  "sky": 4493,
  "iwalay": 4494,
  "sue": 4495,
  "mr": 4496,
  "nano": 4497,
  "hingi": 4498,
  "kinakailangang": 4499,
  "tanggol": 4500,
  "ngit": 4501,
  "komn": 4502,
  "komnenos": 4503,
  "katuparan": 4504,
  "nada": 4505,
  "von": 4506,
  "malo": 4507,
  "sumasaklaw": 4508,
  "estrada": 4509,
  "ginagamitan": 4510,
  "isasyon": 4511,
  "katarungan": 4512,
  "ys": 4513,
  "kompu": 4514,
  "parla": 4515,
  "pinamagatang": 4516,
  "struksiyon": 4517,
  "susi": 4518,
  "1920": 4519,
  "igil": 4520,
  "indo": 4521,
  "kanong": 4522,
  "mut": 4523,
  "tondo": 4524,
  "paghuhu": 4525,
  "lumalabas": 4526,
  "marino": 4527,
  "pagsisimula": 4528,
  "isan": 4529,
  "katoli": 4530,
  "tsek": 4531,
  "dai": 4532,
  "hilagaang": 4533,
  "kagubat": 4534,
  "1939": 4535,
  "micro": 4536,
  "glu": 4537,
  "kinakatawan": 4538,
  "monote": 4539,
  "duktor": 4540,
  "pene": 4541,
  "ngayong": 4542,
  "basan": 4543,
  "payag": 4544,
  "nagtatag": 4545,
  "richard": 4546,
  "saksi": 4547,
  "ibaba": 4548,
  "pinta": 4549,
  "lena": 4550,
  "pinlandiya": 4551,
  "tuli": 4552,
  "hesu": 4553,
  "zar": 4554,
  "pt": 4555,
  "albanya": 4556,
  "crispin": 4557,
  "gumagalaw": 4558,
  "nser": 4559,
  "tangkilik": 4560,
  "persa": 4561,
  "2014": 4562,
  "kwantum": 4563,
  "nganga": 4564,
  "reinmuth": 4565,
  "yule": 4566,
  "sable": 4567,
  "cian": 4568,
  "kababai": 4569,
  "numero": 4570,
  "palaro": 4571,
  "peop": 4572,
  "demokrasya": 4573,
  "malta": 4574,
  "mangangalakal": 4575,
  "vietnam": 4576,
  "kabihasnan": 4577,
  "rulot": 4578,
  "ep": 4579,
  "singa": 4580,
  "400": 4581,
  "scri": 4582,
  "susu": 4583,
  "1941": 4584,
  "bagama": 4585,
  "interaksiyon": 4586,
  "konseptong": 4587,
  "arabia": 4588,
  "tahimik": 4589,
  "kuryent": 4590,
  "saysayan": 4591,
  "tipo": 4592,
  "augus": 4593,
  "karaha": 4594,
  "masyong": 4595,
  "bilisang": 4596,
  "silla": 4597,
  "alterna": 4598,
  "islamiko": 4599,
  "lav": 4600,
  "tagpo": 4601,
  "gland": 4602,
  "tsu": 4603,
  "pp": 4604,
  "whit": 4605,
  "180": 4606,
  "matutu": 4607,
  "patriar": 4608,
  "katolisismo": 4609,
  "sabih": 4610,
  "klu": 4611,
  "kinu": 4612,
  "bola": 4613,
  "aposto": 4614,
  "panag": 4615,
  "pambabae": 4616,
  "prutas": 4617,
  "api": 4618,
  "rumanya": 4619,
  "tuan": 4620,
  "tumataas": 4621,
  "mabilisang": 4622,
  "park": 4623,
  "radio": 4624,
  "vii": 4625,
  "benya": 4626,
  "ngang": 4627,
  "pampubliko": 4628,
  "79": 4629,
  "benedi": 4630,
  "tandaan": 4631,
  "2015": 4632,
  "aon": 4633,
  "astron": 4634,
  "das": 4635,
  "klo": 4636,
  "puerto": 4637,
  "radi": 4638,
  "responsable": 4639,
  "vio": 4640,
  "sauro": 4641,
  "malubha": 4642,
  "marunong": 4643,
  "milagro": 4644,
  "sea": 4645,
  "cau": 4646,
  "who": 4647,
  "bron": 4648,
  "bp": 4649,
  "blg": 4650,
  "kinalaman": 4651,
  "sinabing": 4652,
  "vig": 4653,
  "babawal": 4654,
  "kompe": 4655,
  "lapat": 4656,
  "lobo": 4657,
  "arso": 4658,
  "beria": 4659,
  "dolyar": 4660,
  "absolu": 4661,
  "lius": 4662,
  "board": 4663,
  "manana": 4664,
  "bersyon": 4665,
  "ree": 4666,
  "zeus": 4667,
  "chal": 4668,
  "alternatibo": 4669,
  "bonifa": 4670,
  "dalaw": 4671,
  "sano": 4672,
  "cambri": 4673,
  "ith": 4674,
  "naiiba": 4675,
  "toku": 4676,
  "tuntunin": 4677,
  "age": 4678,
  "mpus": 4679,
  "right": 4680,
  "biti": 4681,
  "kritiko": 4682,
  "istiko": 4683,
  "lao": 4684,
  "pola": 4685,
  "ilong": 4686,
  "rebolusyong": 4687,
  "62": 4688,
  "aktibidad": 4689,
  "bosnia": 4690,
  "tics": 4691,
  "1938": 4692,
  "bulgarya": 4693,
  "manok": 4694,
  "fal": 4695,
  "mary": 4696,
  "pinan": 4697,
  "proton": 4698,
  "nakata": 4699,
  "pagbi": 4700,
  "bigan": 4701,
  "sinta": 4702,
  "henesis": 4703,
  "bonifacio": 4704,
  "karera": 4705,
  "matataas": 4706,
  "stor": 4707,
  "emba": 4708,
  "mosyon": 4709,
  "sulu": 4710,
  "zy": 4711,
  "galacia": 4712,
  "kailanman": 4713,
  "nice": 4714,
  "ranggo": 4715,
  "dahan": 4716,
  "ahente": 4717,
  "ibinibigay": 4718,
  "bakla": 4719,
  "laon": 4720,
  "lega": 4721,
  "siga": 4722,
  "64": 4723,
  "paghahambing": 4724,
  "putok": 4725,
  "nabig": 4726,
  "pinakaunang": 4727,
  "kasarin": 4728,
  "kilus": 4729,
  "1940": 4730,
  "1948": 4731,
  "anay": 4732,
  "probabilidad": 4733,
  "mami": 4734,
  "alabas": 4735,
  "ehipsiyo": 4736,
  "empi": 4737,
  "guan": 4738,
  "hatol": 4739,
  "tuluy": 4740,
  "esko": 4741,
  "1971": 4742,
  "enna": 4743,
  "korpo": 4744,
  "cent": 4745,
  "riles": 4746,
  "season": 4747,
  "uru": 4748,
  "align": 4749,
  "come": 4750,
  "talang": 4751,
  "urong": 4752,
  "ev": 4753,
  "luma": 4754,
  "trang": 4755,
  "ao": 4756,
  "dhar": 4757,
  "pagpapa": 4758,
  "bacteria": 4759,
  "repor": 4760,
  "edisyon": 4761,
  "gaano": 4762,
  "ikaw": 4763,
  "luhan": 4764,
  "senador": 4765,
  "wata": 4766,
  "fut": 4767,
  "ikong": 4768,
  "shia": 4769,
  "ship": 4770,
  "alsa": 4771,
  "hentil": 4772,
  "sandatahang": 4773,
  "ist": 4774,
  "lea": 4775,
  "mexi": 4776,
  "kabundu": 4777,
  "medya": 4778,
  "menor": 4779,
  "opisina": 4780,
  "ngha": 4781,
  "people": 4782,
  "beijing": 4783,
  "hiling": 4784,
  "ries": 4785,
  "singapore": 4786,
  "sumai": 4787,
  "ceae": 4788,
  "glandula": 4789,
  "karis": 4790,
  "angking": 4791,
  "soma": 4792,
  "kel": 4793,
  "nagdadala": 4794,
  "verde": 4795,
  "alaki": 4796,
  "pangat": 4797,
  "barya": 4798,
  "napu": 4799,
  "1999": 4800,
  "baw": 4801,
  "mamas": 4802,
  "balak": 4803,
  "ilaw": 4804,
  "impluwensiyahan": 4805,
  "karamdamang": 4806,
  "kasarinlan": 4807,
  "ou": 4808,
  "erra": 4809,
  "ngil": 4810,
  "panlaban": 4811,
  "tokyo": 4812,
  "landas": 4813,
  "tto": 4814,
  "baria": 4815,
  "lagnat": 4816,
  "mea": 4817,
  "grapo": 4818,
  "hangganang": 4819,
  "heli": 4820,
  "ik": 4821,
  "aksi": 4822,
  "abra": 4823,
  "aktor": 4824,
  "natili": 4825,
  "sabog": 4826,
  "sumailalim": 4827,
  "book": 4828,
  "eslobenya": 4829,
  "ful": 4830,
  "madre": 4831,
  "1949": 4832,
  "balan": 4833,
  "cavite": 4834,
  "kasaysayan": 4835,
  "karbon": 4836,
  "katauhan": 4837,
  "lap": 4838,
  "negro": 4839,
  "52": 4840,
  "drado": 4841,
  "aprikano": 4842,
  "kasaysayang": 4843,
  "kantidad": 4844,
  "vatory": 4845,
  "ach": 4846,
  "isenyo": 4847,
  "kagubatan": 4848,
  "arg": 4849,
  "nasyong": 4850,
  "doktor": 4851,
  "hall": 4852,
  "heometriya": 4853,
  "parok": 4854,
  "paskuwa": 4855,
  "siyonal": 4856,
  "eden": 4857,
  "nagli": 4858,
  "0000": 4859,
  "1946": 4860,
  "observatory": 4861,
  "perma": 4862,
  "yin": 4863,
  "clo": 4864,
  "coc": 4865,
  "humahantong": 4866,
  "leeg": 4867,
  "lux": 4868,
  "oce": 4869,
  "estonya": 4870,
  "mm": 4871,
  "proteksiyon": 4872,
  "tamang": 4873,
  "britaniko": 4874,
  "ristan": 4875,
  "simon": 4876,
  "iel": 4877,
  "sei": 4878,
  "vice": 4879,
  "habi": 4880,
  "nica": 4881,
  "kilanl": 4882,
  "latbiya": 4883,
  "pinakamahalaga": 4884,
  "hima": 4885,
  "uti": 4886,
  "densiya": 4887,
  "putol": 4888,
  "regi": 4889,
  "uko": 4890,
  "1917": 4891,
  "binibigyan": 4892,
  "rod": 4893,
  "nova": 4894,
  "halik": 4895,
  "1965": 4896,
  "akita": 4897,
  "alaala": 4898,
  "maituturing": 4899,
  "represen": 4900,
  "channel": 4901,
  "zue": 4902,
  "bizan": 4903,
  "kolonyal": 4904,
  "lunan": 4905,
  "now": 4906,
  "obando": 4907,
  "africa": 4908,
  "kayo": 4909,
  "pilitang": 4910,
  "nakaugaliang": 4911,
  "pagtatakda": 4912,
  "gkaka": 4913,
  "alexandria": 4914,
  "form": 4915,
  "latag": 4916,
  "lyero": 4917,
  "mentar": 4918,
  "noruwega": 4919,
  "pagtatanggol": 4920,
  "artipisyal": 4921,
  "bulo": 4922,
  "personalidad": 4923,
  "propor": 4924,
  "unawaan": 4925,
  "chel": 4926,
  "daglat": 4927,
  "hydro": 4928,
  "kiti": 4929,
  "nauukol": 4930,
  "nim": 4931,
  "pinama": 4932,
  "tsekya": 4933,
  "bine": 4934,
  "fir": 4935,
  "160": 4936,
  "fla": 4937,
  "gli": 4938,
  "kitang": 4939,
  "prayle": 4940,
  "uin": 4941,
  "resis": 4942,
  "maxim": 4943,
  "sas": 4944,
  "sias": 4945,
  "1929": 4946,
  "dumadaan": 4947,
  "futbol": 4948,
  "rad": 4949,
  "aktuwal": 4950,
  "gwagi": 4951,
  "tuktok": 4952,
  "ampon": 4953,
  "exe": 4954,
  "stol": 4955,
  "arsobis": 4956,
  "bulok": 4957,
  "carbon": 4958,
  "komplikado": 4959,
  "ness": 4960,
  "alexi": 4961,
  "mediteran": 4962,
  "moto": 4963,
  "tore": 4964,
  "equ": 4965,
  "gkakakilanl": 4966,
  "hidro": 4967,
  "newton": 4968,
  "psy": 4969,
  "sangguni": 4970,
  "tolohiya": 4971,
  "wisa": 4972,
  "basket": 4973,
  "ony": 4974,
  "rocca": 4975,
  "ess": 4976,
  "seguridad": 4977,
  "95": 4978,
  "agbabawal": 4979,
  "altapresyon": 4980,
  "pagbabawa": 4981,
  "rei": 4982,
  "teng": 4983,
  "uugali": 4984,
  "1898": 4985,
  "ngatwiran": 4986,
  "92": 4987,
  "imahen": 4988,
  "katam": 4989,
  "lupon": 4990,
  "1933": 4991,
  "over": 4992,
  "pikasyon": 4993,
  "sensi": 4994,
  "aguinaldo": 4995,
  "bulubundukin": 4996,
  "relasyong": 4997,
  "cin": 4998,
  "econ": 4999,
  "ensiyon": 5000,
  "iyak": 5001,
  "lata": 5002,
  "muros": 5003,
  "istruktura": 5004,
  "nagsisilbi": 5005,
  "titira": 5006,
  "toryo": 5007,
  "torre": 5008,
  "trado": 5009,
  "arsobispo": 5010,
  "itina": 5011,
  "ume": 5012,
  "karami": 5013,
  "transport": 5014,
  "hanang": 5015,
  "pinsala": 5016,
  "sektor": 5017,
  "dece": 5018,
  "namuhay": 5019,
  "oper": 5020,
  "teknikal": 5021,
  "arko": 5022,
  "hena": 5023,
  "tulungan": 5024,
  "binuk": 5025,
  "komon": 5026,
  "londres": 5027,
  "palatandaan": 5028,
  "pikong": 5029,
  "sab": 5030,
  "sermon": 5031,
  "volu": 5032,
  "zer": 5033,
  "gaan": 5034,
  "panu": 5035,
  "tadeo": 5036,
  "group": 5037,
  "medyo": 5038,
  "year": 5039,
  "awak": 5040,
  "matatanda": 5041,
  "binuksan": 5042,
  "mark": 5043,
  "napatu": 5044,
  "sekwensiya": 5045,
  "sug": 5046,
  "road": 5047,
  "substansiya": 5048,
  "77": 5049,
  "bughaw": 5050,
  "dagan": 5051,
  "ema": 5052,
  "gantimpala": 5053,
  "ilalim": 5054,
  "katamtamang": 5055,
  "libro": 5056,
  "buntis": 5057,
  "inhinyeriyang": 5058,
  "motor": 5059,
  "kosmo": 5060,
  "pano": 5061,
  "pangatlo": 5062,
  "batangas": 5063,
  "clas": 5064,
  "bour": 5065,
  "kalan": 5066,
  "kromosoma": 5067,
  "pisal": 5068,
  "ski": 5069,
  "kabati": 5070,
  "nagkamit": 5071,
  "praktikal": 5072,
  "1969": 5073,
  "como": 5074,
  "intramuros": 5075,
  "kalakal": 5076,
  "ved": 5077,
  "aktibo": 5078,
  "polar": 5079,
  "hua": 5080,
  "fic": 5081,
  "gada": 5082,
  "ihi": 5083,
  "isipang": 5084,
  "patriarka": 5085,
  "suwisa": 5086,
  "88": 5087,
  "diyente": 5088,
  "gampanin": 5089,
  "hibo": 5090,
  "meng": 5091,
  "mentum": 5092,
  "debat": 5093,
  "katay": 5094,
  "talampak": 5095,
  "yugos": 5096,
  "allele": 5097,
  "1936": 5098,
  "inggles": 5099,
  "bahagdan": 5100,
  "cap": 5101,
  "kwela": 5102,
  "laboratoryo": 5103,
  "museo": 5104,
  "tt": 5105,
  "tinda": 5106,
  "alexios": 5107,
  "hista": 5108,
  "sem": 5109,
  "larawang": 5110,
  "oksiheno": 5111,
  "pagtatapos": 5112,
  "tik": 5113,
  "jul": 5114,
  "kron": 5115,
  "kababaihang": 5116,
  "dhi": 5117,
  "ubo": 5118,
  "mbayan": 5119,
  "peryo": 5120,
  "bait": 5121,
  "tambal": 5122,
  "oto": 5123,
  "aban": 5124,
  "aliwanag": 5125,
  "administrati": 5126,
  "orden": 5127,
  "panlu": 5128,
  "zuela": 5129,
  "express": 5130,
  "riang": 5131,
  "sikolohikal": 5132,
  "welt": 5133,
  "bule": 5134,
  "disorder": 5135,
  "kalahati": 5136,
  "paglilingkod": 5137,
  "tinang": 5138,
  "heni": 5139,
  "post": 5140,
  "20px": 5141,
  "arte": 5142,
  "diperensiyal": 5143,
  "este": 5144,
  "zee": 5145,
  "turko": 5146,
  "pagwa": 5147,
  "apostoliko": 5148,
  "babala": 5149,
  "babilonia": 5150,
  "inga": 5151,
  "kumu": 5152,
  "nawalan": 5153,
  "sri": 5154,
  "talye": 5155,
  "bran": 5156,
  "broad": 5157,
  "daung": 5158,
  "pananampalataya": 5159,
  "senti": 5160,
  "ced": 5161,
  "tutuli": 5162,
  "eti": 5163,
  "eskwela": 5164,
  "lom": 5165,
  "lyn": 5166,
  "pagdaka": 5167,
  "esyo": 5168,
  "mith": 5169,
  "protek": 5170,
  "pusa": 5171,
  "london": 5172,
  "nilalarawan": 5173,
  "rilya": 5174,
  "dona": 5175,
  "constantius": 5176,
  "ktong": 5177,
  "kababa": 5178,
  "ninyo": 5179,
  "bertebra": 5180,
  "elektroni": 5181,
  "petro": 5182,
  "pinagsamang": 5183,
  "baut": 5184,
  "music": 5185,
  "nun": 5186,
  "onary": 5187,
  "russian": 5188,
  "tipikal": 5189,
  "arme": 5190,
  "shin": 5191,
  "deve": 5192,
  "katayuang": 5193,
  "minor": 5194,
  "slang": 5195,
  "this": 5196,
  "unahan": 5197,
  "austral": 5198,
  "istraktura": 5199,
  "tres": 5200,
  "mondovi": 5201,
  "nari": 5202,
  "upuan": 5203,
  "vision": 5204,
  "lini": 5205,
  "pandaray": 5206,
  "butil": 5207,
  "kanonikal": 5208,
  "thern": 5209,
  "lah": 5210,
  "takas": 5211,
  "ahe": 5212,
  "kana": 5213,
  "led": 5214,
  "panau": 5215,
  "siru": 5216,
  "yum": 5217,
  "zei": 5218,
  "libri": 5219,
  "luther": 5220,
  "nueva": 5221,
  "ethi": 5222,
  "pinakama": 5223,
  "pinangalanang": 5224,
  "ibn": 5225,
  "kabundukan": 5226,
  "kampo": 5227,
  "saudi": 5228,
  "trus": 5229,
  "duda": 5230,
  "nagba": 5231,
  "occi": 5232,
  "asahan": 5233,
  "chin": 5234,
  "kapaligi": 5235,
  "kob": 5236,
  "viii": 5237,
  "common": 5238,
  "komonwelt": 5239,
  "1916": 5240,
  "androni": 5241,
  "biyolohikal": 5242,
  "rico": 5243,
  "roc": 5244,
  "industri": 5245,
  "karu": 5246,
  "engine": 5247,
  "tugma": 5248,
  "glio": 5249,
  "internasyunal": 5250,
  "trangkaso": 5251,
  "andronikos": 5252,
  "december": 5253,
  "mediteraneo": 5254,
  "tir": 5255,
  "asyano": 5256,
  "banyaga": 5257,
  "dental": 5258,
  "mias": 5259,
  "alas": 5260,
  "kinikilala": 5261,
  "ein": 5262,
  "nos": 5263,
  "pita": 5264,
  "mbata": 5265,
  "tech": 5266,
  "nasusulat": 5267,
  "act": 5268,
  "child": 5269,
  "eas": 5270,
  "libang": 5271,
  "sagi": 5272,
  "lohiyang": 5273,
  "uusap": 5274,
  "aids": 5275,
  "ranas": 5276,
  "vina": 5277,
  "krea": 5278,
  "kreasyon": 5279,
  "makukuha": 5280,
  "pirma": 5281,
  "walan": 5282,
  "chimpan": 5283,
  "organisasyong": 5284,
  "dado": 5285,
  "ekwasyon": 5286,
  "ensis": 5287,
  "hebra": 5288,
  "hog": 5289,
  "sihay": 5290,
  "along": 5291,
  "binan": 5292,
  "daman": 5293,
  "heteroseksuwal": 5294,
  "krisis": 5295,
  "pung": 5296,
  "balahibo": 5297,
  "malas": 5298,
  "malayo": 5299,
  "yog": 5300,
  "giang": 5301,
  "vale": 5302,
  "arkitek": 5303,
  "bile": 5304,
  "inip": 5305,
  "semi": 5306,
  "sog": 5307,
  "kapalaran": 5308,
  "kaugaliang": 5309,
  "kalinang": 5310,
  "nabi": 5311,
  "dino": 5312,
  "pagsisiyasat": 5313,
  "sapiens": 5314,
  "lev": 5315,
  "ngangalang": 5316,
  "institu": 5317,
  "golpo": 5318,
  "laho": 5319,
  "uran": 5320,
  "baro": 5321,
  "dugtong": 5322,
  "society": 5323,
  "genesis": 5324,
  "kriminal": 5325,
  "mate": 5326,
  "compu": 5327,
  "iling": 5328,
  "ware": 5329,
  "aven": 5330,
  "neander": 5331,
  "amoy": 5332,
  "halu": 5333,
  "kami": 5334,
  "karahasan": 5335,
  "christian": 5336,
  "halang": 5337,
  "lipar": 5338,
  "nauna": 5339,
  "trian": 5340,
  "lion": 5341,
  "ligure": 5342,
  "baril": 5343,
  "dyat": 5344,
  "fra": 5345,
  "gandang": 5346,
  "fon": 5347,
  "katoto": 5348,
  "efeso": 5349,
  "nini": 5350,
  "nagngangalang": 5351,
  "potensiyal": 5352,
  "76": 5353,
  "hudaismong": 5354,
  "paro": 5355,
  "sipikong": 5356,
  "arkitektura": 5357,
  "embaha": 5358,
  "epektibong": 5359,
  "pse": 5360,
  "rias": 5361,
  "rid": 5362,
  "estru": 5363,
  "ugon": 5364,
  "princi": 5365,
  "angasiwaan": 5366,
  "butih": 5367,
  "cota": 5368,
  "magdalena": 5369,
  "pop": 5370,
  "taunang": 5371,
  "tawad": 5372,
  "eko": 5373,
  "ise": 5374,
  "liwasang": 5375,
  "ric": 5376,
  "berlin": 5377,
  "iz": 5378,
  "imbesti": 5379,
  "kromosomang": 5380,
  "lyum": 5381,
  "organization": 5382,
  "kahilagaang": 5383,
  "klasipika": 5384,
  "lera": 5385,
  "pigura": 5386,
  "pupunta": 5387,
  "1931": 5388,
  "71": 5389,
  "bitiw": 5390,
  "sund": 5391,
  "daniel": 5392,
  "kg": 5393,
  "alexander": 5394,
  "chimpanzee": 5395,
  "gram": 5396,
  "konserbatibo": 5397,
  "sansk": 5398,
  "bant": 5399,
  "brazi": 5400,
  "glit": 5401,
  "humaha": 5402,
  "makasaysayang": 5403,
  "nagutan": 5404,
  "estasyong": 5405,
  "indian": 5406,
  "naglalaro": 5407,
  "pako": 5408,
  "sine": 5409,
  "tase": 5410,
  "600": 5411,
  "nayon": 5412,
  "ranya": 5413,
  "tinaguriang": 5414,
  "tribong": 5415,
  "wasto": 5416,
  "ahedres": 5417,
  "buntot": 5418,
  "ix": 5419,
  "padding": 5420,
  "grasyon": 5421,
  "dinig": 5422,
  "inaasahan": 5423,
  "ition": 5424,
  "tensiya": 5425,
  "antropolohiya": 5426,
  "domin": 5427,
  "kalinangang": 5428,
  "konstitusyon": 5429,
  "naimpluwensiyahan": 5430,
  "pangako": 5431,
  "permanente": 5432,
  "reaksiyon": 5433,
  "kpak": 5434,
  "karamihang": 5435,
  "konsen": 5436,
  "ligaw": 5437,
  "tante": 5438,
  "akas": 5439,
  "balakang": 5440,
  "dez": 5441,
  "kabatiran": 5442,
  "ngisda": 5443,
  "pwe": 5444,
  "rong": 5445,
  "tagpuang": 5446,
  "deuter": 5447,
  "misyong": 5448,
  "kanan": 5449,
  "kumpleto": 5450,
  "nagsilbing": 5451,
  "pabor": 5452,
  "bizantino": 5453,
  "abstra": 5454,
  "pilya": 5455,
  "sobiyet": 5456,
  "huris": 5457,
  "science": 5458,
  "tempora": 5459,
  "african": 5460,
  "bino": 5461,
  "hard": 5462,
  "namumuhay": 5463,
  "1918": 5464,
  "kasala": 5465,
  "luto": 5466,
  "paglilinaw": 5467,
  "bulkan": 5468,
  "itinuturo": 5469,
  "valent": 5470,
  "alej": 5471,
  "konstruksiyon": 5472,
  "more": 5473,
  "som": 5474,
  "arroyo": 5475,
  "home": 5476,
  "ami": 5477,
  "hibla": 5478,
  "linyar": 5479,
  "macedon": 5480,
  "pirasyon": 5481,
  "hintulutan": 5482,
  "libu": 5483,
  "kinakain": 5484,
  "memo": 5485,
  "munan": 5486,
  "nagtataglay": 5487,
  "pigi": 5488,
  "ceno": 5489,
  "list": 5490,
  "pukaw": 5491,
  "isah": 5492,
  "isti": 5493,
  "leyte": 5494,
  "pagtitipon": 5495,
  "tial": 5496,
  "demonyo": 5497,
  "hipotesis": 5498,
  "olandes": 5499,
  "sula": 5500,
  "gagawin": 5501,
  "gamitang": 5502,
  "unido": 5503,
  "silyo": 5504,
  "arkeolohikal": 5505,
  "routema": 5506,
  "routemap": 5507,
  "bisig": 5508,
  "ena": 5509,
  "nobel": 5510,
  "pananagutan": 5511,
  "pono": 5512,
  "hem": 5513,
  "river": 5514,
  "brazil": 5515,
  "eliza": 5516,
  "episo": 5517,
  "ila": 5518,
  "seo": 5519,
  "uc": 5520,
  "white": 5521,
  "lalamunan": 5522,
  "pany": 5523,
  "alan": 5524,
  "dikta": 5525,
  "hamak": 5526,
  "hukom": 5527,
  "pund": 5528,
  "sakto": 5529,
  "distribu": 5530,
  "hesukristo": 5531,
  "ninoy": 5532,
  "rata": 5533,
  "thala": 5534,
  "tumutulong": 5535,
  "unlar": 5536,
  "wensiyang": 5537,
  "country": 5538,
  "kagamitang": 5539,
  "vian": 5540,
  "armen": 5541,
  "tant": 5542,
  "belarus": 5543,
  "cco": 5544,
  "parokya": 5545,
  "radya": 5546,
  "thy": 5547,
  "ehe": 5548,
  "hed": 5549,
  "ondo": 5550,
  "pagal": 5551,
  "pagtatanghal": 5552,
  "washing": 5553,
  "atbp": 5554,
  "autoridad": 5555,
  "life": 5556,
  "politikal": 5557,
  "viral": 5558,
  "ctus": 5559,
  "rock": 5560,
  "cora": 5561,
  "hulog": 5562,
  "kumpol": 5563,
  "alhebra": 5564,
  "bill": 5565,
  "fron": 5566,
  "offi": 5567,
  "smith": 5568,
  "erya": 5569,
  "dow": 5570,
  "espesyeng": 5571,
  "alala": 5572,
  "company": 5573,
  "cotabato": 5574,
  "rine": 5575,
  "spesipikong": 5576,
  "alyado": 5577,
  "jean": 5578,
  "torin": 5579,
  "1932": 5580,
  "pauna": 5581,
  "pondo": 5582,
  "torinese": 5583,
  "umpa": 5584,
  "wawala": 5585,
  "bihag": 5586,
  "diplomatiko": 5587,
  "eksakto": 5588,
  "otto": 5589,
  "ratig": 5590,
  "supre": 5591,
  "tropikal": 5592,
  "bulebar": 5593,
  "pagbabawal": 5594,
  "burn": 5595,
  "first": 5596,
  "ihahambing": 5597,
  "mah": 5598,
  "nio": 5599,
  "tungkuling": 5600,
  "cture": 5601,
  "far": 5602,
  "hai": 5603,
  "kipot": 5604,
  "maari": 5605,
  "angaw": 5606,
  "hou": 5607,
  "makro": 5608,
  "yansa": 5609,
  "mesopo": 5610,
  "sadya": 5611,
  "sakra": 5612,
  "andres": 5613,
  "lason": 5614,
  "ligiran": 5615,
  "medal": 5616,
  "single": 5617,
  "akbo": 5618,
  "aser": 5619,
  "host": 5620,
  "pagluluto": 5621,
  "taguig": 5622,
  "yuan": 5623,
  "caro": 5624,
  "dies": 5625,
  "main": 5626,
  "sios": 5627,
  "bahala": 5628,
  "colum": 5629,
  "down": 5630,
  "klusyon": 5631,
  "minuto": 5632,
  "parisukat": 5633,
  "gir": 5634,
  "buso": 5635,
  "acade": 5636,
  "july": 5637,
  "kari": 5638,
  "salig": 5639,
  "1942": 5640,
  "dependensiya": 5641,
  "hukay": 5642,
  "myo": 5643,
  "sierra": 5644,
  "corpor": 5645,
  "iri": 5646,
  "lya": 5647,
  "lanes": 5648,
  "opia": 5649,
  "sibong": 5650,
  "tini": 5651,
  "83": 5652,
  "salinwika": 5653,
  "zone": 5654,
  "pareha": 5655,
  "ath": 5656,
  "einstein": 5657,
  "enter": 5658,
  "gical": 5659,
  "lalake": 5660,
  "sumisi": 5661,
  "ulaklak": 5662,
  "1974": 5663,
  "alehand": 5664,
  "blu": 5665,
  "fol": 5666,
  "hini": 5667,
  "papunta": 5668,
  "talas": 5669,
  "water": 5670,
  "alehandriya": 5671,
  "ated": 5672,
  "phen": 5673,
  "bita": 5674,
  "henetikong": 5675,
  "nabawa": 5676,
  "number": 5677,
  "pante": 5678,
  "president": 5679,
  "babilonya": 5680,
  "espesya": 5681,
  "nakaranas": 5682,
  "chus": 5683,
  "iro": 5684,
  "maxi": 5685,
  "rida": 5686,
  "alakay": 5687,
  "hubog": 5688,
  "konteksto": 5689,
  "sibi": 5690,
  "bolyum": 5691,
  "masyado": 5692,
  "ope": 5693,
  "ving": 5694,
  "vienna": 5695,
  "2016": 5696,
  "economi": 5697,
  "lansangang": 5698,
  "mounta": 5699,
  "nagtatrabaho": 5700,
  "quran": 5701,
  "kaibig": 5702,
  "opti": 5703,
  "rox": 5704,
  "tumatagal": 5705,
  "inde": 5706,
  "inta": 5707,
  "1944": 5708,
  "63": 5709,
  "elizabeth": 5710,
  "theodosius": 5711,
  "cae": 5712,
  "linga": 5713,
  "pakistan": 5714,
  "washington": 5715,
  "watawat": 5716,
  "700": 5717,
  "ales": 5718,
  "epiko": 5719,
  "mpanya": 5720,
  "monarkiya": 5721,
  "arkeolohiya": 5722,
  "entasyong": 5723,
  "katwiran": 5724,
  "rural": 5725,
  "zza": 5726,
  "1964": 5727,
  "just": 5728,
  "kroasya": 5729,
  "pagbubukas": 5730,
  "loo": 5731,
  "konstan": 5732,
  "lano": 5733,
  "victorina": 5734,
  "1953": 5735,
  "hitsura": 5736,
  "hung": 5737,
  "ktot": 5738,
  "metodo": 5739,
  "protesta": 5740,
  "sai": 5741,
  "cop": 5742,
  "lambot": 5743,
  "pik": 5744,
  "view": 5745,
  "1937": 5746,
  "asia": 5747,
  "gulugod": 5748,
  "macapagal": 5749,
  "meron": 5750,
  "nukleyar": 5751,
  "tangka": 5752,
  "health": 5753,
  "partamento": 5754,
  "perpekto": 5755,
  "tte": 5756,
  "72": 5757,
  "cell": 5758,
  "darating": 5759,
  "ligaya": 5760,
  "propesor": 5761,
  "sinusuportahan": 5762,
  "dak": 5763,
  "ktibong": 5764,
  "pwersang": 5765,
  "sintesis": 5766,
  "tate": 5767,
  "anuman": 5768,
  "duke": 5769,
  "genome": 5770,
  "kuta": 5771,
  "memb": 5772,
  "pagsa": 5773,
  "sambahay": 5774,
  "fen": 5775,
  "umano": 5776,
  "langan": 5777,
  "marines": 5778,
  "pagdara": 5779,
  "hormon": 5780,
  "komedya": 5781,
  "reto": 5782,
  "integral": 5783,
  "manda": 5784,
  "molekular": 5785,
  "daluyan": 5786,
  "eheku": 5787,
  "estro": 5788,
  "koru": 5789,
  "mur": 5790,
  "neutron": 5791,
  "93": 5792,
  "ans": 5793,
  "bukid": 5794,
  "mall": 5795,
  "video": 5796,
  "1896": 5797,
  "genus": 5798,
  "hig": 5799,
  "lg": 5800,
  "pagsisikap": 5801,
  "colom": 5802,
  "goy": 5803,
  "paglilitis": 5804,
  "strate": 5805,
  "aguyod": 5806,
  "komer": 5807,
  "midya": 5808,
  "valle": 5809,
  "regalo": 5810,
  "romantiko": 5811,
  "wahe": 5812,
  "ehekutibo": 5813,
  "institute": 5814,
  "kapareha": 5815,
  "nilay": 5816,
  "maaga": 5817,
  "unyon": 5818,
  "nalig": 5819,
  "pinangunahan": 5820,
  "tantiya": 5821,
  "atomiko": 5822,
  "iberia": 5823,
  "irlandes": 5824,
  "made": 5825,
  "nik": 5826,
  "oro": 5827,
  "pagpo": 5828,
  "mahay": 5829,
  "konklusyon": 5830,
  "relatibong": 5831,
  "eskoses": 5832,
  "territo": 5833,
  "cape": 5834,
  "lopez": 5835,
  "nagmum": 5836,
  "dows": 5837,
  "arhen": 5838,
  "kayum": 5839,
  "kayumanggi": 5840,
  "siby": 5841,
  "antibiyo": 5842,
  "jere": 5843,
  "nukala": 5844,
  "rayuma": 5845,
  "1922": 5846,
  "lingguwis": 5847,
  "nota": 5848,
  "dente": 5849,
  "kia": 5850,
  "maramihang": 5851,
  "adan": 5852,
  "helen": 5853,
  "hinu": 5854,
  "tutol": 5855,
  "nakukuha": 5856,
  "oo": 5857,
  "occidental": 5858,
  "rie": 5859,
  "schi": 5860,
  "salay": 5861,
  "hamon": 5862,
  "konek": 5863,
  "plasma": 5864,
  "binibigyang": 5865,
  "gampanan": 5866,
  "kunang": 5867,
  "leta": 5868,
  "lity": 5869,
  "peter": 5870,
  "pinto": 5871,
  "anggulo": 5872,
  "aklat": 5873,
  "reino": 5874,
  "eho": 5875,
  "iceland": 5876,
  "kumpletong": 5877,
  "mau": 5878,
  "momentum": 5879,
  "timoteo": 5880,
  "1900": 5881,
  "diskri": 5882,
  "tumutugon": 5883,
  "lasyon": 5884,
  "tuldok": 5885,
  "1947": 5886,
  "domini": 5887,
  "klab": 5888,
  "marcion": 5889,
  "teles": 5890,
  "vada": 5891,
  "atia": 5892,
  "hapu": 5893,
  "kuro": 5894,
  "ques": 5895,
  "sumusuporta": 5896,
  "intu": 5897,
  "metriko": 5898,
  "sap": 5899,
  "awtori": 5900,
  "departamento": 5901,
  "pagpu": 5902,
  "kahulug": 5903,
  "lei": 5904,
  "arhentina": 5905,
  "astro": 5906,
  "hano": 5907,
  "lehislatura": 5908,
  "sibyla": 5909,
  "umpay": 5910,
  "aganap": 5911,
  "aserbayan": 5912,
  "lug": 5913,
  "bituka": 5914,
  "herodes": 5915,
  "hik": 5916,
  "left": 5917,
  "nakatatanda": 5918,
  "onood": 5919,
  "pada": 5920,
  "palamu": 5921,
  "part": 5922,
  "pinsan": 5923,
  "1968": 5924,
  "body": 5925,
  "chlo": 5926,
  "hot": 5927,
  "limitado": 5928,
  "nilalapat": 5929,
  "space": 5930,
  "zoroastrian": 5931,
  "develop": 5932,
  "fun": 5933,
  "kauri": 5934,
  "nasang": 5935,
  "nigeria": 5936,
  "pagma": 5937,
  "pangpagtatalik": 5938,
  "windows": 5939,
  "kasula": 5940,
  "nazi": 5941,
  "pulmonya": 5942,
  "rum": 5943,
  "sisid": 5944,
  "arkeologo": 5945,
  "computer": 5946,
  "jon": 5947,
  "kalaga": 5948,
  "kalagayang": 5949,
  "libre": 5950,
  "ortodoks": 5951,
  "sale": 5952,
  "istang": 5953,
  "meo": 5954,
  "quan": 5955,
  "spring": 5956,
  "bowell": 5957,
  "cristo": 5958,
  "game": 5959,
  "komen": 5960,
  "gumagana": 5961,
  "hito": 5962,
  "tapang": 5963,
  "terminal": 5964,
  "island": 5965,
  "jaco": 5966,
  "kyu": 5967,
  "social": 5968,
  "tampok": 5969,
  "lati": 5970,
  "mago": 5971,
  "orgas": 5972,
  "sinusundan": 5973,
  "yun": 5974,
  "australya": 5975,
  "mikrobyo": 5976,
  "stitusyong": 5977,
  "sustansiya": 5978,
  "alipin": 5979,
  "judas": 5980,
  "distansiya": 5981,
  "mission": 5982,
  "responsi": 5983,
  "test": 5984,
  "tinggil": 5985,
  "ichi": 5986,
  "kasulatang": 5987,
  "pilato": 5988,
  "pinu": 5989,
  "tria": 5990,
  "epektibo": 5991,
  "hera": 5992,
  "dyok": 5993,
  "gold": 5994,
  "materyales": 5995,
  "sm": 5996,
  "thal": 5997,
  "87": 5998,
  "akto": 5999,
  "cli": 6000,
  "iyo": 6001,
  "anas": 6002,
  "ec": 6003,
  "nakikipag": 6004,
  "numbalik": 6005,
  "pamili": 6006,
  "parang": 6007,
  "utusan": 6008,
  "ebolusyonaryo": 6009,
  "kreto": 6010,
  "posibilidad": 6011,
  "talum": 6012,
  "bebenta": 6013,
  "eros": 6014,
  "jeremias": 6015,
  "memor": 6016,
  "onimo": 6017,
  "argumento": 6018,
  "korupsiyon": 6019,
  "lindol": 6020,
  "nad": 6021,
  "awst": 6022,
  "nate": 6023,
  "sangguniang": 6024,
  "aristo": 6025,
  "kapareho": 6026,
  "panlalaki": 6027,
  "provin": 6028,
  "roxas": 6029,
  "christ": 6030,
  "1913": 6031,
  "1914": 6032,
  "briton": 6033,
  "diyos": 6034,
  "eukaryo": 6035,
  "global": 6036,
  "its": 6037,
  "kitid": 6038,
  "luwal": 6039,
  "pangangalaga": 6040,
  "pinakamarami": 6041,
  "stro": 6042,
  "uusig": 6043,
  "chia": 6044,
  "pithe": 6045,
  "ahensiya": 6046,
  "euse": 6047,
  "ease": 6048,
  "impeksiyong": 6049,
  "kabata": 6050,
  "nidad": 6051,
  "tuwiran": 6052,
  "diber": 6053,
  "eneo": 6054,
  "input": 6055,
  "inspirasyon": 6056,
  "konsilyo": 6057,
  "lapad": 6058,
  "sidi": 6059,
  "agi": 6060,
  "camarines": 6061,
  "haya": 6062,
  "pulgada": 6063,
  "nucleus": 6064,
  "takdang": 6065,
  "teror": 6066,
  "250": 6067,
  "alu": 6068,
  "cambrian": 6069,
  "hiram": 6070,
  "bagamat": 6071,
  "disease": 6072,
  "gau": 6073,
  "trol": 6074,
  "mexico": 6075,
  "nations": 6076,
  "wana": 6077,
  "dine": 6078,
  "ikap": 6079,
  "lysis": 6080,
  "lagaan": 6081,
  "solar": 6082,
  "bam": 6083,
  "inten": 6084,
  "mikros": 6085,
  "pagtitiwala": 6086,
  "pena": 6087,
  "kalang": 6088,
  "tuluyang": 6089,
  "galaksiya": 6090,
  "tnan": 6091,
  "wave": 6092,
  "batid": 6093,
  "konsumo": 6094,
  "pia": 6095,
  "tunghay": 6096,
  "valentinian": 6097,
  "zano": 6098,
  "ethiopia": 6099,
  "inapo": 6100,
  "niceno": 6101,
  "utol": 6102,
  "alinsunod": 6103,
  "bungo": 6104,
  "kaisipang": 6105,
  "tora": 6106,
  "pintor": 6107,
  "sabado": 6108,
  "1906": 6109,
  "neanderthal": 6110,
  "roonan": 6111,
  "america": 6112,
  "ever": 6113,
  "ipinakikita": 6114,
  "sop": 6115,
  "tax": 6116,
  "laskaris": 6117,
  "parlamento": 6118,
  "ston": 6119,
  "zzano": 6120,
  "1967": 6121,
  "dulang": 6122,
  "reproduksiyon": 6123,
  "agot": 6124,
  "aliw": 6125,
  "doukas": 6126,
  "hum": 6127,
  "rail": 6128,
  "ramon": 6129,
  "ukranya": 6130,
  "kasalanang": 6131,
  "lamn": 6132,
  "binabanggit": 6133,
  "execu": 6134,
  "isaac": 6135,
  "mood": 6136,
  "tatalaga": 6137,
  "tawi": 6138,
  "amp": 6139,
  "buk": 6140,
  "oryentasyong": 6141,
  "sweden": 6142,
  "yerba": 6143,
  "hawakan": 6144,
  "likuran": 6145,
  "royal": 6146,
  "dyum": 6147,
  "mass": 6148,
  "mod": 6149,
  "opin": 6150,
  "representasyon": 6151,
  "sanskrit": 6152,
  "cast": 6153,
  "frank": 6154,
  "nagmumungkahing": 6155,
  "pagrere": 6156,
  "table": 6157,
  "gunita": 6158,
  "lapag": 6159,
  "lungkot": 6160,
  "uso": 6161,
  "fede": 6162,
  "misteryo": 6163,
  "nagpasya": 6164,
  "pep": 6165,
  "relatibidad": 6166,
  "1934": 6167,
  "61": 6168,
  "corporation": 6169,
  "haiti": 6170,
  "lisya": 6171,
  "takip": 6172,
  "latino": 6173,
  "pne": 6174,
  "ez": 6175,
  "plasti": 6176,
  "wari": 6177,
  "army": 6178,
  "cuba": 6179,
  "mida": 6180,
  "squ": 6181,
  "bawi": 6182,
  "labang": 6183,
  "nakakaapekto": 6184,
  "persia": 6185,
  "ace": 6186,
  "film": 6187,
  "daluyong": 6188,
  "gehre": 6189,
  "gehrels": 6190,
  "historyan": 6191,
  "lisadong": 6192,
  "nie": 6193,
  "pagkakamit": 6194,
  "swa": 6195,
  "sinang": 6196,
  "sawi": 6197,
  "arius": 6198,
  "campo": 6199,
  "kautu": 6200,
  "kurba": 6201,
  "pagtatatag": 6202,
  "urbano": 6203,
  "atro": 6204,
  "layag": 6205,
  "nars": 6206,
  "rikal": 6207,
  "akma": 6208,
  "best": 6209,
  "ntimpala": 6210,
  "panahunang": 6211,
  "pinagtata": 6212,
  "sosyolohiya": 6213,
  "trate": 6214,
  "alfre": 6215,
  "franco": 6216,
  "magal": 6217,
  "pandiwa": 6218,
  "responsibilidad": 6219,
  "balikat": 6220,
  "bisyong": 6221,
  "english": 6222,
  "kombinasyon": 6223,
  "magnetiko": 6224,
  "marya": 6225,
  "box": 6226,
  "iiba": 6227,
  "birheng": 6228,
  "nod": 6229,
  "rismo": 6230,
  "rup": 6231,
  "sipiko": 6232,
  "tsang": 6233,
  "tz": 6234,
  "tabla": 6235,
  "tauhang": 6236,
  "bwe": 6237,
  "ering": 6238,
  "fit": 6239,
  "laping": 6240,
  "pab": 6241,
  "pagdadala": 6242,
  "usapan": 6243,
  "nalilikha": 6244,
  "droga": 6245,
  "tunaw": 6246,
  "tugtog": 6247,
  "binag": 6248,
  "bulag": 6249,
  "nicaea": 6250,
  "ahok": 6251,
  "basikong": 6252,
  "grapiko": 6253,
  "karta": 6254,
  "salaysay": 6255,
  "tito": 6256,
  "barba": 6257,
  "flu": 6258,
  "idina": 6259,
  "suportahan": 6260,
  "ahas": 6261,
  "atwiran": 6262,
  "australo": 6263,
  "bell": 6264,
  "crimea": 6265,
  "domesti": 6266,
  "kabahagi": 6267,
  "kulto": 6268,
  "panauhin": 6269,
  "ramos": 6270,
  "ross": 6271,
  "alejandro": 6272,
  "dulan": 6273,
  "historya": 6274,
  "nilag": 6275,
  "pantas": 6276,
  "sukdulan": 6277,
  "veld": 6278,
  "binibigkas": 6279,
  "eneveld": 6280,
  "groeneveld": 6281,
  "inan": 6282,
  "madagas": 6283,
  "county": 6284,
  "ekspe": 6285,
  "henetika": 6286,
  "insid": 6287,
  "kapanahunang": 6288,
  "komposi": 6289,
  "kontrobersiya": 6290,
  "etni": 6291,
  "naglilingkod": 6292,
  "putik": 6293,
  "ramdaman": 6294,
  "yona": 6295,
  "cham": 6296,
  "gari": 6297,
  "rebolusyo": 6298,
  "kume": 6299,
  "kunin": 6300,
  "mindoro": 6301,
  "simulan": 6302,
  "usig": 6303,
  "atomic": 6304,
  "170": 6305,
  "sayan": 6306,
  "sakramento": 6307,
  "atake": 6308,
  "bet": 6309,
  "mamimili": 6310,
  "pagmi": 6311,
  "ddle": 6312,
  "depin": 6313,
  "histrado": 6314,
  "rtir": 6315,
  "tahe": 6316,
  "1907": 6317,
  "adul": 6318,
  "kayariang": 6319,
  "kopyo": 6320,
  "nether": 6321,
  "nian": 6322,
  "oty": 6323,
  "ramih": 6324,
  "rena": 6325,
  "antibiyotiko": 6326,
  "border": 6327,
  "pagdaragdag": 6328,
  "pipigil": 6329,
  "rug": 6330,
  "sepsiyon": 6331,
  "france": 6332,
  "kinaro": 6333,
  "korporasyon": 6334,
  "panlupa": 6335,
  "aktres": 6336,
  "kra": 6337,
  "kanal": 6338,
  "mamuhay": 6339,
  "masang": 6340,
  "meis": 6341,
  "zed": 6342,
  "pansan": 6343,
  "yoshi": 6344,
  "ermita": 6345,
  "ges": 6346,
  "pier": 6347,
  "sibilisa": 6348,
  "beni": 6349,
  "iloilo": 6350,
  "mountain": 6351,
  "luwag": 6352,
  "avi": 6353,
  "cit": 6354,
  "cum": 6355,
  "kinalalagyan": 6356,
  "turismo": 6357,
  "kasunud": 6358,
  "town": 6359,
  "yena": 6360,
  "aplikasyon": 6361,
  "ency": 6362,
  "krist": 6363,
  "lekto": 6364,
  "babalik": 6365,
  "cambo": 6366,
  "diyose": 6367,
  "repu": 6368,
  "solomon": 6369,
  "monghe": 6370,
  "puki": 6371,
  "vana": 6372,
  "dumadaloy": 6373,
  "entidad": 6374,
  "industriyal": 6375,
  "mumulan": 6376,
  "ninilay": 6377,
  "siyahan": 6378,
  "troya": 6379,
  "1961": 6380,
  "bono": 6381,
  "looban": 6382,
  "siasyon": 6383,
  "trum": 6384,
  "turang": 6385,
  "1905": 6386,
  "pisiko": 6387,
  "reporm": 6388,
  "bayb": 6389,
  "espasyong": 6390,
  "laru": 6391,
  "pagtatalo": 6392,
  "rel": 6393,
  "uld": 6394,
  "binete": 6395,
  "gabinete": 6396,
  "kontempora": 6397,
  "migrante": 6398,
  "sica": 6399,
  "european": 6400,
  "gulang": 6401,
  "kabihasnang": 6402,
  "nood": 6403,
  "apri": 6404,
  "biga": 6405,
  "elementar": 6406,
  "pinagsa": 6407,
  "puma": 6408,
  "sive": 6409,
  "trya": 6410,
  "ada": 6411,
  "binagong": 6412,
  "operasyong": 6413,
  "panandali": 6414,
  "tangkang": 6415,
  "udo": 6416,
  "usbong": 6417,
  "zen": 6418,
  "lupang": 6419,
  "muha": 6420,
  "nipis": 6421,
  "position": 6422,
  "trini": 6423,
  "turista": 6424,
  "1952": 6425,
  "absolutong": 6426,
  "brid": 6427,
  "kabataang": 6428,
  "lipa": 6429,
  "ole": 6430,
  "polite": 6431,
  "quirino": 6432,
  "eksplo": 6433,
  "libya": 6434,
  "panukala": 6435,
  "sure": 6436,
  "trade": 6437,
  "administrasyon": 6438,
  "inia": 6439,
  "langu": 6440,
  "pod": 6441,
  "ungkulan": 6442,
  "middle": 6443,
  "netherlands": 6444,
  "states": 6445,
  "tiro": 6446,
  "xis": 6447,
  "head": 6448,
  "kalam": 6449,
  "medalya": 6450,
  "abog": 6451,
  "amin": 6452,
  "bano": 6453,
  "exodo": 6454,
  "panlipunang": 6455,
  "bilyon": 6456,
  "hani": 6457,
  "kinaroroonan": 6458,
  "liter": 6459,
  "nasyonal": 6460,
  "1966": 6461,
  "cow": 6462,
  "fore": 6463,
  "hudyat": 6464,
  "matematiko": 6465,
  "taran": 6466,
  "cr": 6467,
  "pawi": 6468,
  "tumuturing": 6469,
  "800": 6470,
  "dalis": 6471,
  "matri": 6472,
  "makaka": 6473,
  "pagdurusa": 6474,
  "utong": 6475,
  "cauca": 6476,
  "piye": 6477,
  "boro": 6478,
  "castelletto": 6479,
  "layas": 6480,
  "lingguwistika": 6481,
  "luklok": 6482,
  "piso": 6483,
  "uhunan": 6484,
  "major": 6485,
  "sukdulang": 6486,
  "agah": 6487,
  "klasikal": 6488,
  "rado": 6489,
  "abay": 6490,
  "dil": 6491,
  "imbi": 6492,
  "insek": 6493,
  "semilya": 6494,
  "upa": 6495,
  "berto": 6496,
  "mabuo": 6497,
  "site": 6498,
  "albert": 6499,
  "komenda": 6500,
  "meral": 6501,
  "tta": 6502,
  "81": 6503,
  "gamitin": 6504,
  "natagpuang": 6505,
  "naturang": 6506,
  "segun": 6507,
  "belbo": 6508,
  "ola": 6509,
  "titiyak": 6510,
  "entertain": 6511,
  "lider": 6512,
  "malat": 6513,
  "napapaligiran": 6514,
  "tras": 6515,
  "emer": 6516,
  "engineering": 6517,
  "have": 6518,
  "naghahanap": 6519,
  "diyosesis": 6520,
  "hawai": 6521,
  "kwen": 6522,
  "magallanes": 6523,
  "nagtuturo": 6524,
  "ortodoksong": 6525,
  "tugu": 6526,
  "cid": 6527,
  "dura": 6528,
  "kondisyong": 6529,
  "last": 6530,
  "litera": 6531,
  "oly": 6532,
  "pinagmumulan": 6533,
  "wing": 6534,
  "development": 6535,
  "iraq": 6536,
  "wu": 6537,
  "yaw": 6538,
  "xide": 6539,
  "zea": 6540,
  "academy": 6541,
  "hippo": 6542,
  "inilalagay": 6543,
  "lukas": 6544,
  "maso": 6545,
  "pinamamahalaan": 6546,
  "tiwakal": 6547,
  "napoleon": 6548,
  "raha": 6549,
  "syang": 6550,
  "there": 6551,
  "user": 6552,
  "gamu": 6553,
  "implu": 6554,
  "kine": 6555,
  "lisan": 6556,
  "metropoli": 6557,
  "nabibilang": 6558,
  "pagbubuntis": 6559,
  "prusisyon": 6560,
  "sekular": 6561,
  "andre": 6562,
  "electron": 6563,
  "kurang": 6564,
  "amahan": 6565,
  "gover": 6566,
  "saloob": 6567,
  "eksu": 6568,
  "ground": 6569,
  "interbal": 6570,
  "kushi": 6571,
  "lex": 6572,
  "lolo": 6573,
  "montal": 6574,
  "sung": 6575,
  "gregorio": 6576,
  "inog": 6577,
  "lupangyelo": 6578,
  "pamangkin": 6579,
  "damb": 6580,
  "hayagang": 6581,
  "hili": 6582,
  "kaun": 6583,
  "ngu": 6584,
  "shan": 6585,
  "ugalian": 6586,
  "amen": 6587,
  "amot": 6588,
  "anus": 6589,
  "bic": 6590,
  "ekume": 6591,
  "paraon": 6592,
  "rho": 6593,
  "rich": 6594,
  "june": 6595,
  "1962": 6596,
  "armenya": 6597,
  "cara": 6598,
  "enteng": 6599,
  "insula": 6600,
  "nilagdaan": 6601,
  "vit": 6602,
  "atin": 6603,
  "chten": 6604,
  "ashi": 6605,
  "benepisyo": 6606,
  "chalcedon": 6607,
  "fung": 6608,
  "kenya": 6609,
  "ponti": 6610,
  "punsiyong": 6611,
  "executive": 6612,
  "istilo": 6613,
  "kabalyero": 6614,
  "kulu": 6615,
  "mansa": 6616,
  "phe": 6617,
  "propesiya": 6618,
  "94": 6619,
  "chae": 6620,
  "estruktura": 6621,
  "ion": 6622,
  "rodri": 6623,
  "tist": 6624,
  "antioquia": 6625,
  "inis": 6626,
  "nutris": 6627,
  "palamuti": 6628,
  "pantelebisyon": 6629,
  "tigda": 6630,
  "chtenstein": 6631,
  "inoo": 6632,
  "osi": 6633,
  "bah": 6634,
  "baluktot": 6635,
  "benedicto": 6636,
  "diskriminasyon": 6637,
  "klusibo": 6638,
  "mekanikal": 6639,
  "prefe": 6640,
  "dayuhang": 6641,
  "drome": 6642,
  "enco": 6643,
  "male": 6644,
  "pinayagan": 6645,
  "dosis": 6646,
  "grand": 6647,
  "realidad": 6648,
  "silb": 6649,
  "luis": 6650,
  "miy": 6651,
  "opinyon": 6652,
  "sola": 6653,
  "trinidad": 6654,
  "tuk": 6655,
  "1943": 6656,
  "biseksu": 6657,
  "kontrata": 6658,
  "orgasmo": 6659,
  "poke": 6660,
  "bagong": 6661,
  "chester": 6662,
  "gloria": 6663,
  "open": 6664,
  "organisado": 6665,
  "pintuan": 6666,
  "liechtenstein": 6667,
  "munti": 6668,
  "qing": 6669,
  "achil": 6670,
  "federal": 6671,
  "twa": 6672,
  "uhang": 6673,
  "73": 6674,
  "serbya": 6675,
  "96": 6676,
  "ipinapala": 6677,
  "peno": 6678,
  "1959": 6679,
  "ciano": 6680,
  "henus": 6681,
  "himpi": 6682,
  "mansanas": 6683,
  "cambodia": 6684,
  "kapan": 6685,
  "kaibigan": 6686,
  "lugad": 6687,
  "palestina": 6688,
  "tures": 6689,
  "ww": 6690,
  "bida": 6691,
  "corazon": 6692,
  "hurisdiksiyon": 6693,
  "moda": 6694,
  "astronomiya": 6695,
  "clau": 6696,
  "kulisa": 6697,
  "kulisap": 6698,
  "metabo": 6699,
  "nagsisi": 6700,
  "ordinaryo": 6701,
  "akademiko": 6702,
  "apektuhan": 6703,
  "atanaw": 6704,
  "ibat": 6705,
  "kalusugang": 6706,
  "see": 6707,
  "zealand": 6708,
  "baling": 6709,
  "communi": 6710,
  "ghana": 6711,
  "java": 6712,
  "johannes": 6713,
  "sagu": 6714,
  "tari": 6715,
  "late": 6716,
  "pagninilay": 6717,
  "bilangguan": 6718,
  "bormida": 6719,
  "china": 6720,
  "colombia": 6721,
  "kinabang": 6722,
  "lt": 6723,
  "mailala": 6724,
  "nisa": 6725,
  "pamilihang": 6726,
  "karanasang": 6727,
  "techno": 6728,
  "vard": 6729,
  "xvi": 6730,
  "binansa": 6731,
  "forte": 6732,
  "lines": 6733,
  "miss": 6734,
  "awtoridad": 6735,
  "chen": 6736,
  "mandiri": 6737,
  "miting": 6738,
  "130": 6739,
  "imam": 6740,
  "mian": 6741,
  "varia": 6742,
  "zania": 6743,
  "croatia": 6744,
  "imbensiyon": 6745,
  "pumapasok": 6746,
  "quark": 6747,
  "tse": 6748,
  "uling": 6749,
  "1957": 6750,
  "clar": 6751,
  "ked": 6752,
  "ninga": 6753,
  "patnu": 6754,
  "presensiya": 6755,
  "ubog": 6756,
  "berde": 6757,
  "expressway": 6758,
  "german": 6759,
  "isinus": 6760,
  "diyalekto": 6761,
  "erectus": 6762,
  "foun": 6763,
  "vor": 6764,
  "hardin": 6765,
  "plata": 6766,
  "ivo": 6767,
  "kwar": 6768,
  "kaaya": 6769,
  "malolos": 6770,
  "naeus": 6771,
  "palagiang": 6772,
  "wento": 6773,
  "biyaya": 6774,
  "laos": 6775,
  "pagkakasunud": 6776,
  "yerno": 6777,
  "1919": 6778,
  "kulosis": 6779,
  "later": 6780,
  "litwanya": 6781,
  "night": 6782,
  "tuberkulosis": 6783,
  "1902": 6784,
  "74": 6785,
  "bha": 6786,
  "russel": 6787,
  "cour": 6788,
  "dre": 6789,
  "fras": 6790,
  "pampook": 6791,
  "pneum": 6792,
  "puwe": 6793,
  "teatro": 6794,
  "1951": 6795,
  "bihan": 6796,
  "marahas": 6797,
  "memorya": 6798,
  "awards": 6799,
  "biblia": 6800,
  "eksklusibo": 6801,
  "kampe": 6802,
  "tara": 6803,
  "mation": 6804,
  "mamasdang": 6805,
  "ngalan": 6806,
  "whi": 6807,
  "alabasan": 6808,
  "andar": 6809,
  "kunan": 6810,
  "mati": 6811,
  "medina": 6812,
  "show": 6813,
  "independiyente": 6814,
  "nutrisyon": 6815,
  "teologo": 6816,
  "turku": 6817,
  "augustus": 6818,
  "dakip": 6819,
  "koleksiyon": 6820,
  "mand": 6821,
  "nic": 6822,
  "1899": 6823,
  "apokri": 6824,
  "estrate": 6825,
  "italya": 6826,
  "bernard": 6827,
  "kiling": 6828,
  "kinata": 6829,
  "kuwar": 6830,
  "napagmas": 6831,
  "ore": 6832,
  "prefecture": 6833,
  "sibol": 6834,
  "version": 6835,
  "bektor": 6836,
  "edi": 6837,
  "himpilang": 6838,
  "pederasyon": 6839,
  "ukra": 6840,
  "dug": 6841,
  "hemis": 6842,
  "kahu": 6843,
  "kasak": 6844,
  "kated": 6845,
  "katedral": 6846,
  "asang": 6847,
  "dox": 6848,
  "force": 6849,
  "balot": 6850,
  "ebi": 6851,
  "ekumenikal": 6852,
  "gul": 6853,
  "rugo": 6854,
  "secon": 6855,
  "vul": 6856,
  "will": 6857,
  "achilles": 6858,
  "drag": 6859,
  "htt": 6860,
  "jeho": 6861,
  "ocean": 6862,
  "ork": 6863,
  "yaang": 6864,
  "zoroastrianismo": 6865,
  "aksidente": 6866,
  "dron": 6867,
  "enrique": 6868,
  "kuwadrado": 6869,
  "milenyo": 6870,
  "sada": 6871,
  "uth": 6872,
  "900": 6873,
  "florida": 6874,
  "esto": 6875,
  "ipas": 6876,
  "kape": 6877,
  "kanin": 6878,
  "masya": 6879,
  "solido": 6880,
  "wani": 6881,
  "kautusang": 6882,
  "pokemon": 6883,
  "agustin": 6884,
  "bersiyong": 6885,
  "ello": 6886,
  "masasamang": 6887,
  "mineral": 6888,
  "buho": 6889,
  "cay": 6890,
  "filipo": 6891,
  "kumikilos": 6892,
  "nsing": 6893,
  "salubong": 6894,
  "sign": 6895,
  "entertainment": 6896,
  "genetic": 6897,
  "gutom": 6898,
  "jah": 6899,
  "jordan": 6900,
  "luksem": 6901,
  "otype": 6902,
  "topo": 6903,
  "ego": 6904,
  "impormasyong": 6905,
  "justin": 6906,
  "rhe": 6907,
  "isita": 6908,
  "bukan": 6909,
  "dengue": 6910,
  "kulasyon": 6911,
  "nagsus": 6912,
  "yuki": 6913,
  "zimba": 6914,
  "libut": 6915,
  "naglalakbay": 6916,
  "82": 6917,
  "alyansa": 6918,
  "bourg": 6919,
  "doble": 6920,
  "move": 6921,
  "synod": 6922,
  "1927": 6923,
  "datu": 6924,
  "ekstin": 6925,
  "gis": 6926,
  "magno": 6927,
  "noo": 6928,
  "party": 6929,
  "asam": 6930,
  "bertebrado": 6931,
  "ias": 6932,
  "institusyong": 6933,
  "judah": 6934,
  "pinahi": 6935,
  "sumasang": 6936,
  "tanzania": 6937,
  "tou": 6938,
  "tunayan": 6939,
  "tuberc": 6940,
  "balo": 6941,
  "kogn": 6942,
  "organiko": 6943,
  "prus": 6944,
  "planta": 6945,
  "rivera": 6946,
  "trin": 6947,
  "akong": 6948,
  "dation": 6949,
  "karno": 6950,
  "mongol": 6951,
  "opya": 6952,
  "pasilidad": 6953,
  "zimbabwe": 6954,
  "1910": 6955,
  "bique": 6956,
  "comoros": 6957,
  "ekwi": 6958,
  "ikina": 6959,
  "ilos": 6960,
  "igen": 6961,
  "luksemburgo": 6962,
  "medical": 6963,
  "mozam": 6964,
  "mozambique": 6965,
  "nike": 6966,
  "paglalaro": 6967,
  "paglisan": 6968,
  "sego": 6969,
  "thesis": 6970,
  "imperyal": 6971,
  "kalaki": 6972,
  "kompositor": 6973,
  "kripsiyon": 6974,
  "lehem": 6975,
  "limu": 6976,
  "mandirigma": 6977,
  "plato": 6978,
  "romu": 6979,
  "yn": 6980,
  "bai": 6981,
  "cine": 6982,
  "dentista": 6983,
  "kak": 6984,
  "kinala": 6985,
  "reyes": 6986,
  "scrivia": 6987,
  "transmit": 6988,
  "bintang": 6989,
  "cht": 6990,
  "densidad": 6991,
  "emple": 6992,
  "software": 6993,
  "86": 6994,
  "ders": 6995,
  "eeee": 6996,
  "ilyo": 6997,
  "physi": 6998,
  "kasakistan": 6999,
  "liligaw": 7000,
  "paglalapat": 7001,
  "tungkulan": 7002,
  "undi": 7003,
  "diy": 7004,
  "espiritwal": 7005,
  "tatsulok": 7006,
  "vy": 7007,
  "gamesh": 7008,
  "paya": 7009,
  "tuhod": 7010,
  "tunan": 7011,
  "victoria": 7012,
  "ekonomik": 7013,
  "espirito": 7014,
  "kompeti": 7015,
  "molda": 7016,
  "oda": 7017,
  "sakristan": 7018,
  "1903": 7019,
  "abri": 7020,
  "analysis": 7021,
  "gono": 7022,
  "kyo": 7023,
  "mangyayari": 7024,
  "obhe": 7025,
  "sebas": 7026,
  "tutan": 7027,
  "belo": 7028,
  "nagtatapos": 7029,
  "palay": 7030,
  "pinagtatalunan": 7031,
  "sf": 7032,
  "dic": 7033,
  "guar": 7034,
  "pian": 7035,
  "xiii": 7036,
  "ant": 7037,
  "baguio": 7038,
  "lohista": 7039,
  "row": 7040,
  "tapo": 7041,
  "zio": 7042,
  "bautista": 7043,
  "merkado": 7044,
  "2018": 7045,
  "borgo": 7046,
  "hubad": 7047,
  "istikong": 7048,
  "tinu": 7049,
  "umpu": 7050,
  "asiwa": 7051,
  "cing": 7052,
  "ginintu": 7053,
  "konsul": 7054,
  "lusog": 7055,
  "pn": 7056,
  "shel": 7057,
  "unggoy": 7058,
  "anne": 7059,
  "ator": 7060,
  "espada": 7061,
  "homosekswal": 7062,
  "namibia": 7063,
  "1963": 7064,
  "langoy": 7065,
  "pasay": 7066,
  "austrya": 7067,
  "dik": 7068,
  "dung": 7069,
  "etrus": 7070,
  "lanao": 7071,
  "naglalagay": 7072,
  "bible": 7073,
  "bidyo": 7074,
  "face": 7075,
  "ksik": 7076,
  "reptil": 7077,
  "sever": 7078,
  "tutulog": 7079,
  "western": 7080,
  "arts": 7081,
  "biro": 7082,
  "burol": 7083,
  "erotiko": 7084,
  "gilgamesh": 7085,
  "syndrome": 7086,
  "buhang": 7087,
  "eroon": 7088,
  "front": 7089,
  "imposible": 7090,
  "lahad": 7091,
  "ntal": 7092,
  "tirya": 7093,
  "aprikanong": 7094,
  "cameroon": 7095,
  "onomi": 7096,
  "tainga": 7097,
  "konde": 7098,
  "neg": 7099,
  "sapilitang": 7100,
  "zare": 7101,
  "earth": 7102,
  "ensya": 7103,
  "heyor": 7104,
  "hidwa": 7105,
  "hotel": 7106,
  "monako": 7107,
  "ply": 7108,
  "slo": 7109,
  "bud": 7110,
  "konstitus": 7111,
  "konsentrasyon": 7112,
  "ktibidad": 7113,
  "maii": 7114,
  "nomen": 7115,
  "pagtatag": 7116,
  "pandinig": 7117,
  "div": 7118,
  "papaano": 7119,
  "petis": 7120,
  "supot": 7121,
  "tarsilo": 7122,
  "telepono": 7123,
  "udyok": 7124,
  "pangunguna": 7125,
  "pinagmulang": 7126,
  "salamuha": 7127,
  "borneo": 7128,
  "edward": 7129,
  "episodyo": 7130,
  "maguin": 7131,
  "monasteryo": 7132,
  "tec": 7133,
  "84": 7134,
  "cess": 7135,
  "chad": 7136,
  "kdal": 7137,
  "lady": 7138,
  "mulat": 7139,
  "poland": 7140,
  "times": 7141,
  "diony": 7142,
  "gumaga": 7143,
  "madrid": 7144,
  "norma": 7145,
  "ostomo": 7146,
  "atmos": 7147,
  "gard": 7148,
  "kasapi": 7149,
  "mond": 7150,
  "osiris": 7151,
  "paglalahad": 7152,
  "pamumu": 7153,
  "fat": 7154,
  "mira": 7155,
  "bakula": 7156,
  "foot": 7157,
  "foundation": 7158,
  "kaharian": 7159,
  "oh": 7160,
  "sand": 7161,
  "tinatalakay": 7162,
  "1000": 7163,
  "2017": 7164,
  "ampi": 7165,
  "ghan": 7166,
  "kots": 7167,
  "madagascar": 7168,
  "prek": 7169,
  "prostitusyon": 7170,
  "andora": 7171,
  "mecca": 7172,
  "mente": 7173,
  "nago": 7174,
  "paliparang": 7175,
  "tuberculo": 7176,
  "tunghayan": 7177,
  "victor": 7178,
  "yuhan": 7179,
  "bakulaw": 7180,
  "biolohikal": 7181,
  "dium": 7182,
  "garo": 7183,
  "insekto": 7184,
  "katotohanang": 7185,
  "layaw": 7186,
  "nh": 7187,
  "teoretikal": 7188,
  "tour": 7189,
  "administratibo": 7190,
  "bulubunduking": 7191,
  "ginintuang": 7192,
  "pheno": 7193,
  "pagpipili": 7194,
  "stock": 7195,
  "coccus": 7196,
  "jim": 7197,
  "kump": 7198,
  "nabigyan": 7199,
  "propesyonal": 7200,
  "siddhar": 7201,
  "spec": 7202,
  "stress": 7203,
  "tulis": 7204,
  "ginagampanan": 7205,
  "heyorhiya": 7206,
  "liang": 7207,
  "pta": 7208,
  "pinoy": 7209,
  "sekwensiyang": 7210,
  "care": 7211,
  "kalkulo": 7212,
  "nahan": 7213,
  "tansiyang": 7214,
  "zambia": 7215,
  "bana": 7216,
  "tadong": 7217,
  "asak": 7218,
  "arturo": 7219,
  "ikano": 7220,
  "liber": 7221,
  "panganganak": 7222,
  "sc": 7223,
  "tatlum": 7224,
  "teoryang": 7225,
  "140": 7226,
  "avenue": 7227,
  "gastos": 7228,
  "1921": 7229,
  "diana": 7230,
  "guang": 7231,
  "hersego": 7232,
  "hersegobina": 7233,
  "jacob": 7234,
  "nanguna": 7235,
  "triasiko": 7236,
  "bona": 7237,
  "ities": 7238,
  "lupit": 7239,
  "marie": 7240,
  "prag": 7241,
  "pika": 7242,
  "protinang": 7243,
  "qur": 7244,
  "commer": 7245,
  "kaz": 7246,
  "oka": 7247,
  "pupunan": 7248,
  "taw": 7249,
  "were": 7250,
  "brother": 7251,
  "cular": 7252,
  "depre": 7253,
  "hiti": 7254,
  "inyo": 7255,
  "kumo": 7256,
  "sche": 7257,
  "takwil": 7258,
  "bibigyan": 7259,
  "norman": 7260,
  "talastas": 7261,
  "alemang": 7262,
  "antar": 7263,
  "polyo": 7264,
  "righ": 7265,
  "sesa": 7266,
  "sukarno": 7267,
  "ateneo": 7268,
  "hasang": 7269,
  "patos": 7270,
  "pandigma": 7271,
  "sumasalungat": 7272,
  "uganda": 7273,
  "1908": 7274,
  "bissau": 7275,
  "bulwag": 7276,
  "dius": 7277,
  "eki": 7278,
  "isk": 7279,
  "lois": 7280,
  "paci": 7281,
  "sunni": 7282,
  "arianismo": 7283,
  "awstron": 7284,
  "celo": 7285,
  "francia": 7286,
  "gordian": 7287,
  "pinangangasiwaan": 7288,
  "pua": 7289,
  "segundo": 7290,
  "tod": 7291,
  "1901": 7292,
  "apol": 7293,
  "graph": 7294,
  "nasco": 7295,
  "tab": 7296,
  "taun": 7297,
  "talon": 7298,
  "thera": 7299,
  "anghal": 7300,
  "angelos": 7301,
  "bots": 7302,
  "iss": 7303,
  "our": 7304,
  "pid": 7305,
  "prince": 7306,
  "floren": 7307,
  "konduktor": 7308,
  "litur": 7309,
  "rando": 7310,
  "harmon": 7311,
  "mananakop": 7312,
  "onita": 7313,
  "pagbabayad": 7314,
  "sene": 7315,
  "anasta": 7316,
  "cius": 7317,
  "endo": 7318,
  "balyena": 7319,
  "katungkulan": 7320,
  "luxem": 7321,
  "polako": 7322,
  "sigasig": 7323,
  "tarlac": 7324,
  "trapiko": 7325,
  "ugtog": 7326,
  "bt": 7327,
  "distri": 7328,
  "eci": 7329,
  "emosyon": 7330,
  "estadistikal": 7331,
  "habag": 7332,
  "moldabya": 7333,
  "ports": 7334,
  "quin": 7335,
  "biglaang": 7336,
  "matatandang": 7337,
  "trato": 7338,
  "1954": 7339,
  "lesya": 7340,
  "sla": 7341,
  "sinapupunan": 7342,
  "tagl": 7343,
  "tuni": 7344,
  "biyetnam": 7345,
  "brown": 7346,
  "dinamarka": 7347,
  "nagko": 7348,
  "nov": 7349,
  "salik": 7350,
  "sed": 7351,
  "sigaw": 7352,
  "ios": 7353,
  "tibet": 7354,
  "unda": 7355,
  "arki": 7356,
  "blan": 7357,
  "luxembourg": 7358,
  "naglalakad": 7359,
  "uwi": 7360,
  "akademya": 7361,
  "armenya2": 7362,
  "aserbayan1": 7363,
  "biyahe": 7364,
  "dinamarka3": 7365,
  "espanya1": 7366,
  "gresya1": 7367,
  "heyorhiya1": 7368,
  "italya3": 7369,
  "kaharian3": 7370,
  "kasakistan1": 7371,
  "matu": 7372,
  "noruwega3": 7373,
  "olanda3": 7374,
  "pagtatanggal": 7375,
  "portugal3": 7376,
  "pransiya1": 7377,
  "rusya1": 7378,
  "tsipre2": 7379,
  "turkiya1": 7380,
  "1958": 7381,
  "alko": 7382,
  "emili": 7383,
  "klini": 7384,
  "olitiko": 7385,
  "pangangalakal": 7386,
  "tomano": 7387,
  "1956": 7388,
  "bugtong": 7389,
  "dalubhasa": 7390,
  "lawi": 7391,
  "nikepho": 7392,
  "sinung": 7393,
  "bangon": 7394,
  "club": 7395,
  "lv": 7396,
  "lalawigang": 7397,
  "lugan": 7398,
  "strain": 7399,
  "visa": 7400,
  "fried": 7401,
  "ipinag": 7402,
  "mathe": 7403,
  "samaritan": 7404,
  "auna": 7405,
  "asno": 7406,
  "degri": 7407,
  "jazz": 7408,
  "tonin": 7409,
  "nagdurulot": 7410,
  "pinyin": 7411,
  "vari": 7412,
  "algo": 7413,
  "eni": 7414,
  "eastern": 7415,
  "frac": 7416,
  "ginoo": 7417,
  "geo": 7418,
  "gerilya": 7419,
  "kasalan": 7420,
  "kinum": 7421,
  "lambat": 7422,
  "mori": 7423,
  "trasyong": 7424,
  "97": 7425,
  "elena": 7426,
  "gupit": 7427,
  "puwede": 7428,
  "sarado": 7429,
  "sugo": 7430,
  "electri": 7431,
  "kaibigang": 7432,
  "maguindanao": 7433,
  "ngayo": 7434,
  "surigao": 7435,
  "aku": 7436,
  "enza": 7437,
  "ahon": 7438,
  "atakbo": 7439,
  "allah": 7440,
  "canaan": 7441,
  "ester": 7442,
  "galilea": 7443,
  "gamma": 7444,
  "govina": 7445,
  "kasi": 7446,
  "otho": 7447,
  "tage": 7448,
  "tasyonal": 7449,
  "hirapan": 7450,
  "mesopota": 7451,
  "pambibig": 7452,
  "bath": 7453,
  "bello": 7454,
  "cari": 7455,
  "dicti": 7456,
  "gale": 7457,
  "hanan": 7458,
  "ketong": 7459,
  "psycho": 7460,
  "fis": 7461,
  "name": 7462,
  "nazare": 7463,
  "nalalabi": 7464,
  "rs": 7465,
  "traksiyon": 7466,
  "dalisay": 7467,
  "mandaluyong": 7468,
  "robin": 7469,
  "talaang": 7470,
  "umaapekto": 7471,
  "bethlehem": 7472,
  "gib": 7473,
  "giovan": 7474,
  "hismo": 7475,
  "kampus": 7476,
  "therap": 7477,
  "turkey": 7478,
  "yagang": 7479,
  "ailangan": 7480,
  "asamba": 7481,
  "gs": 7482,
  "panta": 7483,
  "tamis": 7484,
  "aragon": 7485,
  "embahador": 7486,
  "galli": 7487,
  "guer": 7488,
  "krip": 7489,
  "magbibigay": 7490,
  "news": 7491,
  "ortho": 7492,
  "qi": 7493,
  "inhen": 7494,
  "isinusulat": 7495,
  "lanka": 7496,
  "nagrere": 7497,
  "panay": 7498,
  "pwedeng": 7499,
  "run": 7500,
  "comple": 7501,
  "digri": 7502,
  "fire": 7503,
  "kubo": 7504,
  "machi": 7505,
  "momo": 7506,
  "program": 7507,
  "yen": 7508,
  "1892": 7509,
  "crisostomo": 7510,
  "dalh": 7511,
  "kito": 7512,
  "labon": 7513,
  "primit": 7514,
  "sinasadya": 7515,
  "georgia": 7516,
  "history": 7517,
  "istrakturang": 7518,
  "kaugalian": 7519,
  "mambabasa": 7520,
  "meno": 7521,
  "migrasyon": 7522,
  "serra": 7523,
  "sinop": 7524,
  "algeria": 7525,
  "blis": 7526,
  "gautama": 7527,
  "klama": 7528,
  "langhe": 7529,
  "online": 7530,
  "oxford": 7531,
  "testi": 7532,
  "tso": 7533,
  "alika": 7534,
  "bubunga": 7535,
  "final": 7536,
  "kapaligirang": 7537,
  "olona": 7538,
  "primado": 7539,
  "quiapo": 7540,
  "radyasyon": 7541,
  "soviet": 7542,
  "suko": 7543,
  "yaon": 7544,
  "alikabok": 7545,
  "bayang": 7546,
  "glab": 7547,
  "kero": 7548,
  "kling": 7549,
  "lyido": 7550,
  "atwirang": 7551,
  "bius": 7552,
  "carbo": 7553,
  "eryo": 7554,
  "johannesburg": 7555,
  "mongo": 7556,
  "moscow": 7557,
  "apon": 7558,
  "bahid": 7559,
  "daya": 7560,
  "filipina": 7561,
  "grabi": 7562,
  "pabo": 7563,
  "ruan": 7564,
  "swe": 7565,
  "samo": 7566,
  "tide": 7567,
  "dictionary": 7568,
  "ekwilibri": 7569,
  "ikapito": 7570,
  "minan": 7571,
  "paglalayag": 7572,
  "simboliko": 7573,
  "wita": 7574,
  "bury": 7575,
  "klet": 7576,
  "kalamnang": 7577,
  "pananim": 7578,
  "ugnayan": 7579,
  "virg": 7580,
  "fan": 7581,
  "gradu": 7582,
  "insidente": 7583,
  "kababalag": 7584,
  "pris": 7585,
  "valens": 7586,
  "yung": 7587,
  "adulto": 7588,
  "blue": 7589,
  "desi": 7590,
  "desh": 7591,
  "emilio": 7592,
  "lamu": 7593,
  "nerbiyo": 7594,
  "parasi": 7595,
  "swit": 7596,
  "saryo": 7597,
  "service": 7598,
  "tinutulan": 7599,
  "boses": 7600,
  "bunti": 7601,
  "caesar": 7602,
  "elo": 7603,
  "halaan": 7604,
  "impi": 7605,
  "samuel": 7606,
  "casal": 7607,
  "daangbakal": 7608,
  "luha": 7609,
  "peninsula": 7610,
  "sikologo": 7611,
  "awtono": 7612,
  "awstronesyo": 7613,
  "bantay": 7614,
  "cyto": 7615,
  "ebionita": 7616,
  "kawi": 7617,
  "nya": 7618,
  "oso": 7619,
  "palawan": 7620,
  "umpaman": 7621,
  "gambia": 7622,
  "haha": 7623,
  "liti": 7624,
  "nakipag": 7625,
  "nganib": 7626,
  "other": 7627,
  "ondena": 7628,
  "pasuk": 7629,
  "scan": 7630,
  "gly": 7631,
  "misasyon": 7632,
  "nahi": 7633,
  "pabrika": 7634,
  "pangung": 7635,
  "wild": 7636,
  "ambakal": 7637,
  "atomikong": 7638,
  "kone": 7639,
  "talud": 7640,
  "afghan": 7641,
  "biswal": 7642,
  "constans": 7643,
  "daambakal": 7644,
  "dimensiyon": 7645,
  "kuko": 7646,
  "nilulu": 7647,
  "pemin": 7648,
  "roroon": 7649,
  "aslang": 7650,
  "banaya": 7651,
  "banayad": 7652,
  "britanikong": 7653,
  "distribusyon": 7654,
  "pithecus": 7655,
  "siden": 7656,
  "tuberculosis": 7657,
  "baliw": 7658,
  "kontrobersiyal": 7659,
  "oposisyon": 7660,
  "pato": 7661,
  "pangino": 7662,
  "porte": 7663,
  "rama": 7664,
  "serotonin": 7665,
  "talab": 7666,
  "virginia": 7667,
  "agaw": 7668,
  "angola": 7669,
  "bulkang": 7670,
  "eksplora": 7671,
  "hugis": 7672,
  "impormal": 7673,
  "inteli": 7674,
  "kabuhay": 7675,
  "kadahila": 7676,
  "nagtatak": 7677,
  "sumasailalim": 7678,
  "ux": 7679,
  "jack": 7680,
  "indones": 7681,
  "mongolia": 7682,
  "pangangailangang": 7683,
  "tangga": 7684,
  "tual": 7685,
  "agno": 7686,
  "finland": 7687,
  "gayumpaman": 7688,
  "kdaan": 7689,
  "morocco": 7690,
  "pumi": 7691,
  "patron": 7692,
  "resident": 7693,
  "tetra": 7694,
  "325": 7695,
  "hep": 7696,
  "klinikal": 7697,
  "schiz": 7698,
  "suga": 7699,
  "girl": 7700,
  "isaias": 7701,
  "statis": 7702,
  "talumpat": 7703,
  "buwa": 7704,
  "gramo": 7705,
  "higa": 7706,
  "pagtatala": 7707,
  "piyesa": 7708,
  "apokripa": 7709,
  "caloo": 7710,
  "herze": 7711,
  "iden": 7712,
  "lil": 7713,
  "malakihang": 7714,
  "musik": 7715,
  "nama": 7716,
  "sibilyan": 7717,
  "talino": 7718,
  "tulin": 7719,
  "tumutungo": 7720,
  "ubok": 7721,
  "caloocan": 7722,
  "herzegovina": 7723,
  "kaway": 7724,
  "kupan": 7725,
  "nung": 7726,
  "ous": 7727,
  "pagan": 7728,
  "pinansiyal": 7729,
  "valenzuela": 7730,
  "alaysay": 7731,
  "brook": 7732,
  "esian": 7733,
  "gamo": 7734,
  "hybrid": 7735,
  "linangan": 7736,
  "matsu": 7737,
  "napatunayan": 7738,
  "panginoong": 7739,
  "portang": 7740,
  "sampol": 7741,
  "zhu": 7742,
  "aero": 7743,
  "bate": 7744,
  "botswana": 7745,
  "buwag": 7746,
  "commercial": 7747,
  "keso": 7748,
  "kadahilanang": 7749,
  "kimiko": 7750,
  "marikina": 7751,
  "okasyon": 7752,
  "abriol": 7753,
  "algorit": 7754,
  "denomi": 7755,
  "fel": 7756,
  "lakan": 7757,
  "naghahayag": 7758,
  "simo": 7759,
  "suka": 7760,
  "technology": 7761,
  "wasan": 7762,
  "alitang": 7763,
  "artr": 7764,
  "artritis": 7765,
  "ekstra": 7766,
  "idinaos": 7767,
  "noe": 7768,
  "rebelde": 7769,
  "rila": 7770,
  "span": 7771,
  "ss": 7772,
  "sakupbayan": 7773,
  "says": 7774,
  "territory": 7775,
  "eda": 7776,
  "eusebio": 7777,
  "gipit": 7778,
  "ibah": 7779,
  "koordina": 7780,
  "pagdurugo": 7781,
  "sipsip": 7782,
  "taliwas": 7783,
  "bb": 7784,
  "basketball": 7785,
  "dum": 7786,
  "ekonom": 7787,
  "gabri": 7788,
  "good": 7789,
  "lohiko": 7790,
  "master": 7791,
  "nakapagdu": 7792,
  "110": 7793,
  "auro": 7794,
  "district": 7795,
  "hepburn": 7796,
  "kama": 7797,
  "ottoman": 7798,
  "censo": 7799,
  "council": 7800,
  "series": 7801,
  "tutulong": 7802,
  "ule": 7803,
  "volution": 7804,
  "coast": 7805,
  "eklara": 7806,
  "judea": 7807,
  "khan": 7808,
  "lf": 7809,
  "naghahangad": 7810,
  "reperensiya": 7811,
  "serbiya": 7812,
  "tayog": 7813,
  "tower": 7814,
  "jehova": 7815,
  "metropolitan": 7816,
  "molekulang": 7817,
  "quantum": 7818,
  "sao": 7819,
  "semit": 7820,
  "ject": 7821,
  "melo": 7822,
  "sentimetro": 7823,
  "asama": 7824,
  "eksperimental": 7825,
  "garcia": 7826,
  "giovanni": 7827,
  "mahistrado": 7828,
  "sustansiyang": 7829,
  "alerhiya": 7830,
  "hilaw": 7831,
  "kup": 7832,
  "pagbibi": 7833,
  "sumus": 7834,
  "agimat": 7835,
  "bakr": 7836,
  "empleyado": 7837,
  "herac": 7838,
  "igh": 7839,
  "kilalang": 7840,
  "koman": 7841,
  "kongre": 7842,
  "laure": 7843,
  "ligtad": 7844,
  "limampu": 7845,
  "nuo": 7846,
  "pinagsasalu": 7847,
  "puson": 7848,
  "rium": 7849,
  "akka": 7850,
  "cabo": 7851,
  "della": 7852,
  "itang": 7853,
  "kalayaang": 7854,
  "lumu": 7855,
  "nepal": 7856,
  "perse": 7857,
  "prekwensiya": 7858,
  "rity": 7859,
  "romania": 7860,
  "toro": 7861,
  "asul": 7862,
  "boli": 7863,
  "bumababa": 7864,
  "kwil": 7865,
  "meter": 7866,
  "naglalabas": 7867,
  "pagpapasya": 7868,
  "sima": 7869,
  "bob": 7870,
  "canan": 7871,
  "clemente": 7872,
  "ekspedisyon": 7873,
  "galingan": 7874,
  "khamun": 7875,
  "mithi": 7876,
  "mud": 7877,
  "sui": 7878,
  "1911": 7879,
  "mortal": 7880,
  "puntirya": 7881,
  "republikano": 7882,
  "tinanggi": 7883,
  "togo": 7884,
  "tome": 7885,
  "won": 7886,
  "your": 7887,
  "atra": 7888,
  "benigno": 7889,
  "koso": 7890,
  "movement": 7891,
  "pampuli": 7892,
  "rikit": 7893,
  "sapalaran": 7894,
  "aph": 7895,
  "creta": 7896,
  "erit": 7897,
  "katolika": 7898,
  "kompleks": 7899,
  "kristiyan": 7900,
  "mn": 7901,
  "munggo": 7902,
  "pagko": 7903,
  "petisyon": 7904,
  "sistematiko": 7905,
  "tee": 7906,
  "xy": 7907,
  "yugoslav": 7908,
  "abong": 7909,
  "alkohol": 7910,
  "dip": 7911,
  "ekto": 7912,
  "idea": 7913,
  "magagandang": 7914,
  "seksiyon": 7915,
  "stalin": 7916,
  "tumatalakay": 7917,
  "yok": 7918,
  "akin": 7919,
  "bd": 7920,
  "keng": 7921,
  "lakh": 7922,
  "leban": 7923,
  "libra": 7924,
  "rista": 7925,
  "tice": 7926,
  "apelyido": 7927,
  "ingat": 7928,
  "patnugot": 7929,
  "pinapayagan": 7930,
  "umpisal": 7931,
  "amy": 7932,
  "gapi": 7933,
  "humihi": 7934,
  "literat": 7935,
  "manlalakbay": 7936,
  "margin": 7937,
  "sensitibo": 7938,
  "band": 7939,
  "chief": 7940,
  "deuteronomi": 7941,
  "nazareth": 7942,
  "ophre": 7943,
  "pascu": 7944,
  "abraham": 7945,
  "atana": 7946,
  "cote": 7947,
  "dalangtao": 7948,
  "debe": 7949,
  "geni": 7950,
  "hinatnan": 7951,
  "malulu": 7952,
  "pagtataguyod": 7953,
  "perto": 7954,
  "poot": 7955,
  "schizophre": 7956,
  "somalia": 7957,
  "tupar": 7958,
  "cai": 7959,
  "kaganda": 7960,
  "lagpas": 7961,
  "ngita": 7962,
  "northern": 7963,
  "pinagha": 7964,
  "protes": 7965,
  "sapin": 7966,
  "schizophrenia": 7967,
  "uss": 7968,
  "alituntunin": 7969,
  "bihasa": 7970,
  "cross": 7971,
  "dut": 7972,
  "fair": 7973,
  "higan": 7974,
  "itania": 7975,
  "kritikal": 7976,
  "negosyante": 7977,
  "niger": 7978,
  "cker": 7979,
  "hinog": 7980,
  "inuuri": 7981,
  "orkestra": 7982,
  "pinalawig": 7983,
  "rhan": 7984,
  "semen": 7985,
  "tea": 7986,
  "uuna": 7987,
  "bean": 7988,
  "hop": 7989,
  "huwaran": 7990,
  "lead": 7991,
  "lesotho": 7992,
  "nur": 7993,
  "brasil": 7994,
  "buil": 7995,
  "dji": 7996,
  "diang": 7997,
  "kamp": 7998,
  "lehiti": 7999,
  "magpaka": 8000,
  "mous": 8001,
  "pseudo": 8002,
  "puke": 8003,
  "supil": 8004,
  "termo": 8005,
  "dakilang": 8006,
  "hermani": 8007,
  "jiang": 8008,
  "pamimin": 8009,
  "pananda": 8010,
  "sasco": 8011,
  "daha": 8012,
  "empire": 8013,
  "immuno": 8014,
  "kakaunti": 8015,
  "nahawa": 8016,
  "parana": 8017,
  "piloto": 8018,
  "sagip": 8019,
  "uusapan": 8020,
  "armado": 8021,
  "ecija": 8022,
  "ekspresyon": 8023,
  "komik": 8024,
  "panatili": 8025,
  "turk": 8026,
  "ult": 8027,
  "bruno": 8028,
  "derick": 8029,
  "hapd": 8030,
  "lake": 8031,
  "lila": 8032,
  "pambiyolohiya": 8033,
  "point": 8034,
  "sagrado": 8035,
  "sede": 8036,
  "simeis": 8037,
  "basil": 8038,
  "heswita": 8039,
  "justinian": 8040,
  "pinakadakilang": 8041,
  "reproduksiyong": 8042,
  "tsan": 8043,
  "vs": 8044,
  "1912": 8045,
  "1955": 8046,
  "arit": 8047,
  "depensa": 8048,
  "hangarin": 8049,
  "konstitusyonal": 8050,
  "sugal": 8051,
  "yerto": 8052,
  "clave": 8053,
  "diocle": 8054,
  "fish": 8055,
  "haka": 8056,
  "inhawa": 8057,
  "manupak": 8058,
  "masore": 8059,
  "moti": 8060,
  "paligsa": 8061,
  "peru": 8062,
  "suwe": 8063,
  "twirang": 8064,
  "bale": 8065,
  "fren": 8066,
  "kahon": 8067,
  "kau": 8068,
  "lagak": 8069,
  "lubog": 8070,
  "makaranas": 8071,
  "mauriti": 8072,
  "pagwawakas": 8073,
  "paranaque": 8074,
  "phone": 8075,
  "place": 8076,
  "scre": 8077,
  "yos": 8078,
  "balag": 8079,
  "buluto": 8080,
  "fur": 8081,
  "nagsusu": 8082,
  "ortodoksiya": 8083,
  "titan": 8084,
  "tignan": 8085,
  "impiyerno": 8086,
  "ns": 8087,
  "ppe": 8088,
  "senegal": 8089,
  "torah": 8090,
  "anes": 8091,
  "ekonomista": 8092,
  "kasariang": 8093,
  "mars": 8094,
  "pipi": 8095,
  "sarap": 8096,
  "siang": 8097,
  "1904": 8098,
  "cide": 8099,
  "glione": 8100,
  "kalakalang": 8101,
  "kumukuha": 8102,
  "kwenta": 8103,
  "mais": 8104,
  "monumento": 8105,
  "nicolas": 8106,
  "villar": 8107,
  "byzan": 8108,
  "cole": 8109,
  "humu": 8110,
  "kabuhayan": 8111,
  "kagandahang": 8112,
  "malalayong": 8113,
  "soberanong": 8114,
  "talento": 8115,
  "terium": 8116,
  "thra": 8117,
  "they": 8118,
  "ultra": 8119,
  "wealth": 8120,
  "bahan": 8121,
  "get": 8122,
  "loyd": 8123,
  "mauritius": 8124,
  "stone": 8125,
  "tanto": 8126,
  "accoun": 8127,
  "culture": 8128,
  "indigan": 8129,
  "kame": 8130,
  "logical": 8131,
  "poto": 8132,
  "terorismo": 8133,
  "123": 8134,
  "dumaraan": 8135,
  "guho": 8136,
  "iskala": 8137,
  "katimugan": 8138,
  "paco": 8139,
  "prinsesa": 8140,
  "trabaha": 8141,
  "tutankhamun": 8142,
  "xin": 8143,
  "aten": 8144,
  "duk": 8145,
  "hukumang": 8146,
  "kota": 8147,
  "limutan": 8148,
  "ml": 8149,
  "otang": 8150,
  "sinuportahan": 8151,
  "wangi": 8152,
  "bouti": 8153,
  "braso": 8154,
  "hic": 8155,
  "iminum": 8156,
  "trabahador": 8157,
  "tunisia": 8158,
  "wanda": 8159,
  "1928": 8160,
  "layon": 8161,
  "nucleo": 8162,
  "prody": 8163,
  "produktibidad": 8164,
  "tise": 8165,
  "cate": 8166,
  "dionysus": 8167,
  "massa": 8168,
  "trahe": 8169,
  "binabasa": 8170,
  "neur": 8171,
  "mbo": 8172,
  "pilitan": 8173,
  "pinaunlad": 8174,
  "reproduktibo": 8175,
  "ukit": 8176,
  "kumpisal": 8177,
  "lisensiya": 8178,
  "panibago": 8179,
  "renasi": 8180,
  "transmitter": 8181,
  "wall": 8182,
  "yunaryo": 8183,
  "1861": 8184,
  "estratehiya": 8185,
  "iit": 8186,
  "ivoire": 8187,
  "naa": 8188,
  "usin": 8189,
  "1915": 8190,
  "binata": 8191,
  "djibouti": 8192,
  "ekwilibrium": 8193,
  "fied": 8194,
  "karanas": 8195,
  "nobe": 8196,
  "signal": 8197,
  "cart": 8198,
  "dt": 8199,
  "karugtong": 8200,
  "minorya": 8201,
  "narara": 8202,
  "oku": 8203,
  "pwesto": 8204,
  "pascual": 8205,
  "pulisya": 8206,
  "ramo": 8207,
  "salmo": 8208,
  "sut": 8209,
  "terno": 8210,
  "aurora": 8211,
  "bras": 8212,
  "benin": 8213,
  "confu": 8214,
  "dioxide": 8215,
  "globo": 8216,
  "ksiyang": 8217,
  "linear": 8218,
  "helin": 8219,
  "ipang": 8220,
  "nirah": 8221,
  "region": 8222,
  "regulasyon": 8223,
  "tinit": 8224,
  "takasi": 8225,
  "tanga": 8226,
  "topher": 8227,
  "dero": 8228,
  "iniuugnay": 8229,
  "kov": 8230,
  "legaz": 8231,
  "legazpi": 8232,
  "lumalaban": 8233,
  "anggal": 8234,
  "astrono": 8235,
  "emp": 8236,
  "gawiang": 8237,
  "kontribu": 8238,
  "ndatah": 8239,
  "papua": 8240,
  "square": 8241,
  "alahas": 8242,
  "bubuhat": 8243,
  "comp": 8244,
  "dela": 8245,
  "istrukturang": 8246,
  "old": 8247,
  "pinakahuli": 8248,
  "uka": 8249,
  "buno": 8250,
  "bias": 8251,
  "bukang": 8252,
  "dangal": 8253,
  "helm": 8254,
  "humahawak": 8255,
  "juana": 8256,
  "marx": 8257,
  "masus": 8258,
  "medes": 8259,
  "quo": 8260,
  "tungan": 8261,
  "yosong": 8262,
  "dard": 8263,
  "labor": 8264,
  "nulat": 8265,
  "pumu": 8266,
  "teros": 8267,
  "tibis": 8268,
  "vu": 8269,
  "bble": 8270,
  "biyer": 8271,
  "biyernes": 8272,
  "eigen": 8273,
  "maihahambing": 8274,
  "ndila": 8275,
  "ariano": 8276,
  "matatawag": 8277,
  "nayam": 8278,
  "salinlahi": 8279,
  "acid": 8280,
  "anu": 8281,
  "atanasio": 8282,
  "cino": 8283,
  "casting": 8284,
  "epide": 8285,
  "hispano": 8286,
  "jour": 8287,
  "kinondena": 8288,
  "litwaniya": 8289,
  "loren": 8290,
  "pagsuporta": 8291,
  "peryodiko": 8292,
  "swazi": 8293,
  "angu": 8294,
  "batasang": 8295,
  "catho": 8296,
  "ctions": 8297,
  "education": 8298,
  "elementarya": 8299,
  "lakip": 8300,
  "napatunayang": 8301,
  "aritme": 8302,
  "beet": 8303,
  "hospital": 8304,
  "itinda": 8305,
  "punt": 8306,
  "talambuhay": 8307,
  "bush": 8308,
  "emaker": 8309,
  "inirere": 8310,
  "jones": 8311,
  "kil": 8312,
  "lm": 8313,
  "lamb": 8314,
  "manonood": 8315,
  "neut": 8316,
  "cp": 8317,
  "espesipiko": 8318,
  "kaan": 8319,
  "kosovo": 8320,
  "nakakaranas": 8321,
  "palayok": 8322,
  "tarang": 8323,
  "ukraine": 8324,
  "aran": 8325,
  "bilin": 8326,
  "bulati": 8327,
  "numeri": 8328,
  "plum": 8329,
  "pado": 8330,
  "sunud": 8331,
  "afghanistan": 8332,
  "bella": 8333,
  "buhangin": 8334,
  "josue": 8335,
  "little": 8336,
  "lupalop": 8337,
  "pakinabang": 8338,
  "ratang": 8339,
  "salan": 8340,
  "umuwi": 8341,
  "disyerto": 8342,
  "ginam": 8343,
  "influ": 8344,
  "japanese": 8345,
  "kaang": 8346,
  "pandaraya": 8347,
  "pertili": 8348,
  "respeto": 8349,
  "storya": 8350,
  "taryo": 8351,
  "ungunahan": 8352,
  "yemen": 8353,
  "buntal": 8354,
  "etimo": 8355,
  "grabidad": 8356,
  "ilokano": 8357,
  "luc": 8358,
  "maz": 8359,
  "namin": 8360,
  "nardo": 8361,
  "ngun": 8362,
  "paglu": 8363,
  "pulong": 8364,
  "ways": 8365,
  "atikos": 8366,
  "blado": 8367,
  "entablado": 8368,
  "julius": 8369,
  "konstante": 8370,
  "lehitimo": 8371,
  "perm": 8372,
  "sagut": 8373,
  "young": 8374,
  "buko": 8375,
  "charlois": 8376,
  "chelles": 8377,
  "darama": 8378,
  "ensik": 8379,
  "isinasaad": 8380,
  "know": 8381,
  "kondena": 8382,
  "natatagpuan": 8383,
  "nuovo": 8384,
  "obaryo": 8385,
  "pical": 8386,
  "pinakakilalang": 8387,
  "pinangungunahan": 8388,
  "rison": 8389,
  "swaziland": 8390,
  "tinatagu": 8391,
  "wikipediang": 8392,
  "banglad": 8393,
  "bise": 8394,
  "contra": 8395,
  "ern": 8396,
  "estatwa": 8397,
  "harang": 8398,
  "halata": 8399,
  "homer": 8400,
  "itus": 8401,
  "lebanon": 8402,
  "mango": 8403,
  "monastero": 8404,
  "ryal": 8405,
  "sesyon": 8406,
  "suportang": 8407,
  "tropa": 8408,
  "turbasyon": 8409,
  "yugosla": 8410,
  "   ": 8411,
  "antidepres": 8412,
  "bura": 8413,
  "dika": 8414,
  "domes": 8415,
  "julian": 8416,
  "kaliwa": 8417,
  "most": 8418,
  "nitro": 8419,
  "nordiko": 8420,
  "pinalawak": 8421,
  "sahan": 8422,
  "testa": 8423,
  "tyla": 8424,
  "uloy": 8425,
  "antidepressant": 8426,
  "commission": 8427,
  "heolohiya": 8428,
  "mesopotamia": 8429,
  "pinipili": 8430,
  "sq": 8431,
  "sasabi": 8432,
  "sosya": 8433,
  "aming": 8434,
  "baligtad": 8435,
  "bariasyon": 8436,
  "cere": 8437,
  "felix": 8438,
  "grapikal": 8439,
  "imbestigasyon": 8440,
  "komposisyon": 8441,
  "mediterran": 8442,
  "pinanggalingan": 8443,
  "rmas": 8444,
  "salle": 8445,
  "teolohikal": 8446,
  "watch": 8447,
  "burundi": 8448,
  "kinukuha": 8449,
  "langaw": 8450,
  "live": 8451,
  "mauri": 8452,
  "pansin": 8453,
  "siguro": 8454,
  "tanaro": 8455,
  "tumang": 8456,
  "borg": 8457,
  "castelnuovo": 8458,
  "ida": 8459,
  "kapulung": 8460,
  "lalab": 8461,
  "mabi": 8462,
  "masidhi": 8463,
  "sym": 8464,
  "ugang": 8465,
  "fungi": 8466,
  "gtog": 8467,
  "galen": 8468,
  "intindi": 8469,
  "mpok": 8470,
  "misamis": 8471,
  "mosyonal": 8472,
  "public": 8473,
  "seychelles": 8474,
  "alad": 8475,
  "civil": 8476,
  "dao": 8477,
  "dello": 8478,
  "esco": 8479,
  "gara": 8480,
  "nathan": 8481,
  "taman": 8482,
  "uccle": 8483,
  "xii": 8484,
  "christopher": 8485,
  "debo": 8486,
  "ece": 8487,
  "glas": 8488,
  "gabon": 8489,
  "itinatakwil": 8490,
  "kie": 8491,
  "nangang": 8492,
  "napakalaki": 8493,
  "particle": 8494,
  "plastik": 8495,
  "selan": 8496,
  "two": 8497,
  "woj": 8498,
  "disku": 8499,
  "homin": 8500,
  "iram": 8501,
  "lisado": 8502,
  "maggio": 8503,
  "qa": 8504,
  "rwanda": 8505,
  "salamba": 8506,
  "ulap": 8507,
  "billboard": 8508,
  "doming": 8509,
  "heri": 8510,
  "kumbinasyon": 8511,
  "maw": 8512,
  "maiksi": 8513,
  "pinakamababa": 8514,
  "team": 8515,
  "tiniti": 8516,
  "vla": 8517,
  "amahalaan": 8518,
  "change": 8519,
  "famil": 8520,
  "homopo": 8521,
  "listang": 8522,
  "navo": 8523,
  "pound": 8524,
  "teresa": 8525,
  "transis": 8526,
  "wsaw": 8527,
  "deutero": 8528,
  "kupang": 8529,
  "shang": 8530,
  "sibu": 8531,
  "tatlumpu": 8532,
  "campus": 8533,
  "guo": 8534,
  "mahahabang": 8535,
  "plasyon": 8536,
  "ekwa": 8537,
  "ekwador": 8538,
  "eritrea": 8539,
  "flight": 8540,
  "itibo": 8541,
  "microsoft": 8542,
  "pagod": 8543,
  "ussr": 8544,
  "1893": 8545,
  "karl": 8546,
  "kontemporaryong": 8547,
  "maru": 8548,
  "reaksiyong": 8549,
  "sagana": 8550,
  "theodore": 8551,
  "turuang": 8552,
  "ypay": 8553,
  "basta": 8554,
  "chy": 8555,
  "ebolusyonaryong": 8556,
  "economic": 8557,
  "haga": 8558,
  "iser": 8559,
  "isport": 8560,
  "kasuotang": 8561,
  "lrt": 8562,
  "magnetic": 8563,
  "nabawasan": 8564,
  "pigu": 8565,
  "sario": 8566,
  "shoemaker": 8567,
  "akhena": 8568,
  "bunsod": 8569,
  "deter": 8570,
  "eksperto": 8571,
  "kapulungang": 8572,
  "kinalaunan": 8573,
  "myan": 8574,
  "mikroskopyo": 8575,
  "navotas": 8576,
  "tae": 8577,
  "topolohiya": 8578,
  "wali": 8579,
  "akdang": 8580,
  "arthur": 8581,
  "biolohiya": 8582,
  "dot": 8583,
  "eto": 8584,
  "orthodox": 8585,
  "uuri": 8586,
  "vier": 8587,
  "walag": 8588,
  "agat": 8589,
  "arkitekto": 8590,
  "atensiyon": 8591,
  "burkina": 8592,
  "etc": 8593,
  "giba": 8594,
  "ginaw": 8595,
  "ipinapalagay": 8596,
  "josephus": 8597,
  "katalin": 8598,
  "lec": 8599,
  "pantubig": 8600,
  "reg": 8601,
  "tasio": 8602,
  "ehr": 8603,
  "egy": 8604,
  "lusyong": 8605,
  "magta": 8606,
  "pasan": 8607,
  "tiyang": 8608,
  "ague": 8609,
  "armenia": 8610,
  "chinese": 8611,
  "dun": 8612,
  "importante": 8613,
  "langin": 8614,
  "pum": 8615,
  "tarya": 8616,
  "thus": 8617,
  "tita": 8618,
  "ulungan": 8619,
  "bangladesh": 8620,
  "lapu": 8621,
  "nacio": 8622,
  "numerikal": 8623,
  "piano": 8624,
  "rant": 8625,
  "separ": 8626,
  "sinusukat": 8627,
  "suprema": 8628,
  "yanang": 8629,
  "apatnapu": 8630,
  "dc": 8631,
  "off": 8632,
  "panlikod": 8633,
  "southern": 8634,
  "tibur": 8635,
  "vag": 8636,
  "xian": 8637,
  "1909": 8638,
  "berso": 8639,
  "bugan": 8640,
  "concep": 8641,
  "eksena": 8642,
  "guil": 8643,
  "ica": 8644,
  "kosa": 8645,
  "myanmar": 8646,
  "paleo": 8647,
  "rahang": 8648,
  "akhenaten": 8649,
  "hormone": 8650,
  "minamahal": 8651,
  "office": 8652,
  "costa": 8653,
  "harry": 8654,
  "hemispero": 8655,
  "huhula": 8656,
  "kritisismo": 8657,
  "manhid": 8658,
  "pintakasi": 8659,
  "ptole": 8660,
  "reserba": 8661,
  "rog": 8662,
  "sansinu": 8663,
  "sansinukob": 8664,
  "sinasalungat": 8665,
  "tatlong": 8666,
  "castiglione": 8667,
  "faso": 8668,
  "ibina": 8669,
  "imbentor": 8670,
  "maggiore": 8671,
  "obliga": 8672,
  "pac": 8673,
  "pagpipinta": 8674,
  "paloc": 8675,
  "rg": 8676,
  "sampaloc": 8677,
  "tayong": 8678,
  "talampas": 8679,
  "ukod": 8680,
  "unaw": 8681,
  "katuruang": 8682,
  "kusahan": 8683,
  "lubid": 8684,
  "mlay": 8685,
  "negrito": 8686,
  "nomina": 8687,
  "sekunda": 8688,
  "tsis": 8689,
  "tx": 8690,
  "1800": 8691,
  "adya": 8692,
  "cananeo": 8693,
  "dragon": 8694,
  "logong": 8695,
  "mandara": 8696,
  "nagebolb": 8697,
  "noli": 8698,
  "phan": 8699,
  "pilgri": 8700,
  "pisyolohiya": 8701,
  "records": 8702,
  "swi": 8703,
  "very": 8704,
  "villanova": 8705,
  "3px": 8706,
  "bansag": 8707,
  "binondo": 8708,
  "ipo": 8709,
  "kho": 8710,
  "kitaan": 8711,
  "language": 8712,
  "less": 8713,
  "litid": 8714,
  "maran": 8715,
  "mentong": 8716,
  "pale": 8717,
  "rehiyonal": 8718,
  "sayt": 8719,
  "theory": 8720,
  "track": 8721,
  "alili": 8722,
  "ggit": 8723,
  "liberia": 8724,
  "lumilipad": 8725,
  "mababasa": 8726,
  "pransis": 8727,
  "vaisa": 8728,
  "arch": 8729,
  "edito": 8730,
  "emosyonal": 8731,
  "empirikal": 8732,
  "equato": 8733,
  "liya": 8734,
  "mauritania": 8735,
  "pion": 8736,
  "pransiskano": 8737,
  "russell": 8738,
  "salva": 8739,
  "zono": 8740,
  "agda": 8741,
  "alaska": 8742,
  "aure": 8743,
  "ginampanan": 8744,
  "nangako": 8745,
  "orient": 8746,
  "page": 8747,
  "pinal": 8748,
  "representa": 8749,
  "rido": 8750,
  "toria": 8751,
  "yebal": 8752,
  "zeki": 8753,
  "125": 8754,
  "ginawa": 8755,
  "humaharap": 8756,
  "magnet": 8757,
  "manupaktura": 8758,
  "nakapagdurulot": 8759,
  "pasidad": 8760,
  "shak": 8761,
  "siping": 8762,
  "thu": 8763,
  "amor": 8764,
  "democ": 8765,
  "eba": 8766,
  "inyong": 8767,
  "lagas": 8768,
  "nisasyon": 8769,
  "paghahayag": 8770,
  "self": 8771,
  "umbayan": 8772,
  "1924": 8773,
  "deta": 8774,
  "harapang": 8775,
  "imel": 8776,
  "komunikasyong": 8777,
  "koreanong": 8778,
  "nage": 8779,
  "sukla": 8780,
  "sungay": 8781,
  "tinanggihan": 8782,
  "akibat": 8783,
  "bap": 8784,
  "bandila": 8785,
  "depinisyon": 8786,
  "ener": 8787,
  "kababalaghan": 8788,
  "lumalaking": 8789,
  "mentasyon": 8790,
  "myce": 8791,
  "ulu": 8792,
  "umpong": 8793,
  "zzolo": 8794,
  "91": 8795,
  "any": 8796,
  "dv": 8797,
  "depression": 8798,
  "enrile": 8799,
  "ginawaran": 8800,
  "hedrin": 8801,
  "inili": 8802,
  "lumo": 8803,
  "mund": 8804,
  "propesyunal": 8805,
  "punla": 8806,
  "sanhedrin": 8807,
  "tw": 8808,
  "westong": 8809,
  "babasahin": 8810,
  "dharma": 8811,
  "gugol": 8812,
  "indig": 8813,
  "model": 8814,
  "mpla": 8815,
  "spas": 8816,
  "also": 8817,
  "archa": 8818,
  "broadcasting": 8819,
  "bulak": 8820,
  "frances": 8821,
  "maang": 8822,
  "paghahatid": 8823,
  "pandarayuhan": 8824,
  "rights": 8825,
  "tableta": 8826,
  "bungad": 8827,
  "dulas": 8828,
  "hebre": 8829,
  "konteks": 8830,
  "macedonian": 8831,
  "nakaba": 8832,
  "prusya": 8833,
  "suran": 8834,
  "than": 8835,
  "timor": 8836,
  "ubos": 8837,
  "uulat": 8838,
  "1923": 8839,
  "asensiyon": 8840,
  "astronomi": 8841,
  "bito": 8842,
  "emerhensiya": 8843,
  "kalsada": 8844,
  "kuwe": 8845,
  "napilitan": 8846,
  "sos": 8847,
  "tensiyon": 8848,
  "cea": 8849,
  "kagat": 8850,
  "lingan": 8851,
  "nagbabagong": 8852,
  "reha": 8853,
  "taft": 8854,
  "bariabulo": 8855,
  "class": 8856,
  "gita": 8857,
  "henri": 8858,
  "nuk": 8859,
  "paglalaba": 8860,
  "principe": 8861,
  "some": 8862,
  "freud": 8863,
  "gior": 8864,
  "gym": 8865,
  "ksa": 8866,
  "kolom": 8867,
  "mistiko": 8868,
  "nagbabayad": 8869,
  "nagpapa": 8870,
  "pataw": 8871,
  "pinakasalan": 8872,
  "tristan": 8873,
  "torino": 8874,
  "wojtyla": 8875,
  "bohol": 8876,
  "dei": 8877,
  "etnikong": 8878,
  "masoretiko": 8879,
  "ments": 8880,
  "montaldo": 8881,
  "napagmasdan": 8882,
  "romansa": 8883,
  "grana": 8884,
  "hidroheno": 8885,
  "imelda": 8886,
  "kongregasyon": 8887,
  "lb": 8888,
  "praksiyon": 8889,
  "pulutong": 8890,
  "television": 8891,
  "ugol": 8892,
  "yant": 8893,
  "crates": 8894,
  "deuteronomio": 8895,
  "dish": 8896,
  "etno": 8897,
  "gamutin": 8898,
  "gui": 8899,
  "kpan": 8900,
  "neuron": 8901,
  "somali": 8902,
  "studio": 8903,
  "1880": 8904,
  "anatolia": 8905,
  "etto": 8906,
  "payat": 8907,
  "sismong": 8908,
  "struck": 8909,
  "chair": 8910,
  "harvard": 8911,
  "lesbi": 8912,
  "nak": 8913,
  "nagku": 8914,
  "tnu": 8915,
  "tiburcio": 8916,
  "tonela": 8917,
  "ulti": 8918,
  "vich": 8919,
  "adam": 8920,
  "basilika": 8921,
  "batu": 8922,
  "dinamika": 8923,
  "dyip": 8924,
  "iksi": 8925,
  "ipinatapon": 8926,
  "masko": 8927,
  "masusu": 8928,
  "nakaupo": 8929,
  "oniko": 8930,
  "unt": 8931,
  "usbo": 8932,
  "alpha": 8933,
  "dagdagan": 8934,
  "domingo": 8935,
  "ensay": 8936,
  "equatorial": 8937,
  "isinaayos": 8938,
  "jen": 8939,
  "katalinuhan": 8940,
  "lesa": 8941,
  "lipsis": 8942,
  "pagbebenta": 8943,
  "paglalathala": 8944,
  "petrolyo": 8945,
  "taling": 8946,
  "walat": 8947,
  "caesa": 8948,
  "koali": 8949,
  "koneksiyon": 8950,
  "kontekstong": 8951,
  "mabubu": 8952,
  "ose": 8953,
  "partikulong": 8954,
  "anna": 8955,
  "basketbol": 8956,
  "brooklyn": 8957,
  "cab": 8958,
  "consola": 8959,
  "cyprus": 8960,
  "henitalya": 8961,
  "ign": 8962,
  "koalisyon": 8963,
  "kombina": 8964,
  "nagtuloy": 8965,
  "rose": 8966,
  "tyr": 8967,
  "yeriya": 8968,
  "cts": 8969,
  "gasa": 8970,
  "kard": 8971,
  "napakarami": 8972,
  "penafrancia": 8973,
  "sita": 8974,
  "talababa": 8975,
  "tumatawag": 8976,
  "vaisala": 8977,
  "aangking": 8978,
  "awi": 8979,
  "bera": 8980,
  "busang": 8981,
  "commonwealth": 8982,
  "nararamdaman": 8983,
  "promis": 8984,
  "resear": 8985,
  "rush": 8986,
  "treat": 8987,
  "valu": 8988,
  "wales": 8989,
  "wanan": 8990,
  "women": 8991,
  "biseksuwal": 8992,
  "carl": 8993,
  "chio": 8994,
  "dante": 8995,
  "halalang": 8996,
  "nagwa": 8997,
  "sahra": 8998,
  "turan": 8999,
  "type": 9000,
  "zamba": 9001,
  "bec": 9002,
  "husga": 9003,
  "itata": 9004,
  "iron": 9005,
  "kasuan": 9006,
  "mato": 9007,
  "minim": 9008,
  "nato": 9009,
  "paglilinis": 9010,
  "rehimeng": 9011,
  "sound": 9012,
  "zambales": 9013,
  "aene": 9014,
  "espesiasyon": 9015,
  "fati": 9016,
  "fes": 9017,
  "gwan": 9018,
  "genes": 9019,
  "highway": 9020,
  "iglesya": 9021,
  "isinasaalang": 9022,
  "mayotte": 9023,
  "nuestra": 9024,
  "plekta": 9025,
  "rita": 9026,
  "severus": 9027,
  "usang": 9028,
  "vello": 9029,
  "constantinopla": 9030,
  "dat": 9031,
  "diano": 9032,
  "kahusayan": 9033,
  "oportu": 9034,
  "pinapatakbo": 9035,
  "austron": 9036,
  "butas": 9037,
  "heim": 9038,
  "ipi": 9039,
  "kasunduan": 9040,
  "langhap": 9041,
  "membrano": 9042,
  "monoteismo": 9043,
  "ndal": 9044,
  "panlulumo": 9045,
  "tamtaman": 9046,
  "wey": 9047,
  "zzi": 9048,
  "bantayog": 9049,
  "deklara": 9050,
  "eug": 9051,
  "etimolohiya": 9052,
  "ference": 9053,
  "ishi": 9054,
  "lukan": 9055,
  "nuclear": 9056,
  "oportunidad": 9057,
  "pangala": 9058,
  "tawid": 9059,
  "tingin": 9060,
  "aspe": 9061,
  "garilyo": 9062,
  "katauhang": 9063,
  "koreo": 9064,
  "ngala": 9065,
  "pamum": 9066,
  "penetrasyon": 9067,
  "reich": 9068,
  "tagi": 9069,
  "ars": 9070,
  "bagoo": 9071,
  "letra": 9072,
  "macra": 9073,
  "maginhawa": 9074,
  "milan": 9075,
  "nggap": 9076,
  "plural": 9077,
  "sebastian": 9078,
  "yeo": 9079,
  "carthur": 9080,
  "clark": 9081,
  "hanja": 9082,
  "modern": 9083,
  "monyang": 9084,
  "nip": 9085,
  "oga": 9086,
  "only": 9087,
  "protektahan": 9088,
  "stef": 9089,
  "take": 9090,
  "tanas": 9091,
  "verage": 9092,
  "control": 9093,
  "enki": 9094,
  "gagana": 9095,
  "hyper": 9096,
  "isipan": 9097,
  "lite": 9098,
  "nakatutulong": 9099,
  "seguro": 9100,
  "soberanya": 9101,
  "bie": 9102,
  "imbestiga": 9103,
  "karwahe": 9104,
  "legasyon": 9105,
  "makatwirang": 9106,
  "pom": 9107,
  "proporsiyon": 9108,
  "rosaryo": 9109,
  "sate": 9110,
  "studies": 9111,
  "venezuela": 9112,
  "wilhelm": 9113,
  "apro": 9114,
  "asse": 9115,
  "ayuno": 9116,
  "busin": 9117,
  "byzantine": 9118,
  "detalya": 9119,
  "family": 9120,
  "kuri": 9121,
  "mean": 9122,
  "mite": 9123,
  "nyaya": 9124,
  "paksiyon": 9125,
  "piga": 9126,
  "puhunan": 9127,
  "retro": 9128,
  "review": 9129,
  "rez": 9130,
  "special": 9131,
  "tribunal": 9132,
  "commit": 9133,
  "destina": 9134,
  "dise": 9135,
  "elektroniko": 9136,
  "gab": 9137,
  "heart": 9138,
  "ideolohiya": 9139,
  "ksil": 9140,
  "patent": 9141,
  "rene": 9142,
  "roero": 9143,
  "sumasalamin": 9144,
  "taktika": 9145,
  "tumba": 9146,
  "usad": 9147,
  "cze": 9148,
  "inv": 9149,
  "jar": 9150,
  "mekanika": 9151,
  "parali": 9152,
  "photo": 9153,
  "punung": 9154,
  "sasabihin": 9155,
  "sinte": 9156,
  "uluhan": 9157,
  "anima": 9158,
  "bent": 9159,
  "gender": 9160,
  "intele": 9161,
  "kulog": 9162,
  "malalakas": 9163,
  "monggol": 9164,
  "nigh": 9165,
  "province": 9166,
  "tamod": 9167,
  "timpalak": 9168,
  "alum": 9169,
  "buluhang": 9170,
  "cou": 9171,
  "historyador": 9172,
  "makabuluhang": 9173,
  "phil": 9174,
  "pamimi": 9175,
  "senora": 9176,
  "shaw": 9177,
  "tropical": 9178,
  "1859": 9179,
  "cuneo": 9180,
  "estimulasyong": 9181,
  "fuku": 9182,
  "hab": 9183,
  "jeronimo": 9184,
  "lular": 9185,
  "pinapaka": 9186,
  "rosario": 9187,
  "starstruck": 9188,
  "aster": 9189,
  "himasok": 9190,
  "if": 9191,
  "konekta": 9192,
  "kumpu": 9193,
  "lib": 9194,
  "mapagmamasdang": 9195,
  "niwala": 9196,
  "olym": 9197,
  "seoul": 9198,
  "sirkito": 9199,
  "stasan": 9200,
  "wind": 9201,
  "cunha": 9202,
  "govern": 9203,
  "membran": 9204,
  "pribile": 9205,
  "renta": 9206,
  "survi": 9207,
  "tisya": 9208,
  "albay": 9209,
  "kolum": 9210,
  "laurel": 9211,
  "litrato": 9212,
  "pagbabasa": 9213,
  "pamalit": 9214,
  "pet": 9215,
  "pinagkunan": 9216,
  "ponte": 9217,
  "salami": 9218,
  "tropiko": 9219,
  "alalahan": 9220,
  "aquin": 9221,
  "bernardino": 9222,
  "blood": 9223,
  "bukol": 9224,
  "cm": 9225,
  "calamba": 9226,
  "iton": 9227,
  "kliyente": 9228,
  "rumi": 9229,
  "santi": 9230,
  "airport": 9231,
  "buyo": 9232,
  "kriba": 9233,
  "lord": 9234,
  "nulo": 9235,
  "rome": 9236,
  "sahrawi": 9237,
  "siksik": 9238,
  "tica": 9239,
  "transpor": 9240,
  "1925": 9241,
  "bugso": 9242,
  "catholic": 9243,
  "hustisya": 9244,
  "inhinyeriya": 9245,
  "kt": 9246,
  "lugod": 9247,
  "macarthur": 9248,
  "nayunan": 9249,
  "sent": 9250,
  "uhit": 9251,
  "balarila": 9252,
  "beta": 9253,
  "ikling": 9254,
  "isini": 9255,
  "limot": 9256,
  "lubusang": 9257,
  "mulo": 9258,
  "palatuntu": 9259,
  "presiden": 9260,
  "sako": 9261,
  "sente": 9262,
  "strong": 9263,
  "aru": 9264,
  "baywang": 9265,
  "cut": 9266,
  "classi": 9267,
  "dili": 9268,
  "ential": 9269,
  "iglesiang": 9270,
  "kuma": 9271,
  "mega": 9272,
  "oblast": 9273,
  "sasa": 9274,
  "vere": 9275,
  "xia": 9276,
  "alungat": 9277,
  "amerikana": 9278,
  "fres": 9279,
  "fuji": 9280,
  "gasta": 9281,
  "jerusalem": 9282,
  "manlilikha": 9283,
  "nagtatakda": 9284,
  "pambihira": 9285,
  "proklama": 9286,
  "seg": 9287,
  "sukan": 9288,
  "turn": 9289,
  "uda": 9290,
  "vey": 9291,
  "ash": 9292,
  "erong": 9293,
  "frederick": 9294,
  "henera": 9295,
  "kabuti": 9296,
  "pagsusu": 9297,
  "seryosong": 9298,
  "yugoslavia": 9299,
  "arc": 9300,
  "batikos": 9301,
  "diplomasya": 9302,
  "dur": 9303,
  "inirerekomenda": 9304,
  "kanto": 9305,
  "mabisa": 9306,
  "masbate": 9307,
  "nanang": 9308,
  "obe": 9309,
  "pulmonyang": 9310,
  "reunion": 9311,
  "research": 9312,
  "tonelada": 9313,
  "blea": 9314,
  "chat": 9315,
  "gaganapin": 9316,
  "homini": 9317,
  "manganga": 9318,
  "pictures": 9319,
  "wardiya": 9320,
  "wayway": 9321,
  "zine": 9322,
  "amon": 9323,
  "ayunan": 9324,
  "bispe": 9325,
  "diyaryo": 9326,
  "enzy": 9327,
  "huhuli": 9328,
  "kapaligiran": 9329,
  "libutan": 9330,
  "memorial": 9331,
  "shell": 9332,
  "sten": 9333,
  "stratehiya": 9334,
  "carlo": 9335,
  "duwag": 9336,
  "juni": 9337,
  "koran": 9338,
  "kripto": 9339,
  "sacra": 9340,
  "stefano": 9341,
  "yebe": 9342,
  "bigyang": 9343,
  "bisperas": 9344,
  "bodhi": 9345,
  "habol": 9346,
  "ireland": 9347,
  "lagda": 9348,
  "level": 9349,
  "otomano": 9350,
  "pradesh": 9351,
  "tanabe": 9352,
  "tinagurian": 9353,
  "hya": 9354,
  "index": 9355,
  "liwayway": 9356,
  "muntin": 9357,
  "muntinlupa": 9358,
  "nayaw": 9359,
  "prokaryo": 9360,
  "radikal": 9361,
  "uhay": 9362,
  "uutos": 9363,
  "velt": 9364,
  "yeta": 9365,
  "bayashi": 9366,
  "cesar": 9367,
  "digi": 9368,
  "french": 9369,
  "germany": 9370,
  "maigi": 9371,
  "namumu": 9372,
  "phrine": 9373,
  "pipili": 9374,
  "pinanga": 9375,
  "pinephrine": 9376,
  "tayang": 9377,
  "aspetong": 9378,
  "basilica": 9379,
  "kir": 9380,
  "nakababatang": 9381,
  "pilosopikal": 9382,
  "radyal": 9383,
  "sipag": 9384,
  "tatawag": 9385,
  "three": 9386,
  "yayahan": 9387,
  "1870": 9388,
  "artiko": 9389,
  "dana": 9390,
  "fernandez": 9391,
  "guwardiya": 9392,
  "kanyang": 9393,
  "tisa": 9394,
  "tumangging": 9395,
  "wate": 9396,
  "akademiya": 9397,
  "azerba": 9398,
  "buway": 9399,
  "hepe": 9400,
  "konste": 9401,
  "mamasdan": 9402,
  "naglalayong": 9403,
  "panli": 9404,
  "philo": 9405,
  "stephen": 9406,
  "tiv": 9407,
  "tnubay": 9408,
  "aske": 9409,
  "cky": 9410,
  "dutch": 9411,
  "enus": 9412,
  "habs": 9413,
  "inata": 9414,
  "nararanasan": 9415,
  "panuntunan": 9416,
  "takson": 9417,
  "ulaan": 9418,
  "anal": 9419,
  "chon": 9420,
  "dorf": 9421,
  "ense": 9422,
  "labanang": 9423,
  "mabu": 9424,
  "masturbasyon": 9425,
  "metre": 9426,
  "nira": 9427,
  "pagmimina": 9428,
  "subuk": 9429,
  "talastasan": 9430,
  "yaong": 9431,
  "akh": 9432,
  "aniber": 9433,
  "dinosauro": 9434,
  "gsama": 9435,
  "isyong": 9436,
  "linika": 9437,
  "lorenzo": 9438,
  "monoteistiko": 9439,
  "nabawasang": 9440,
  "street": 9441,
  "temporal": 9442,
  "350": 9443,
  "419": 9444,
  "aristotle": 9445,
  "ations": 9446,
  "bayaan": 9447,
  "being": 9448,
  "caesarea": 9449,
  "dibisyong": 9450,
  "electric": 9451,
  "hagis": 9452,
  "hogne": 9453,
  "kirot": 9454,
  "kwadrado": 9455,
  "pacific": 9456,
  "perseus": 9457,
  "pietra": 9458,
  "prehistori": 9459,
  "roose": 9460,
  "ents": 9461,
  "maiikling": 9462,
  "optimisasyon": 9463,
  "reputasyon": 9464,
  "respi": 9465,
  "roosevelt": 9466,
  "agra": 9467,
  "airlines": 9468,
  "azerbai": 9469,
  "basin": 9470,
  "benito": 9471,
  "bikol": 9472,
  "burma": 9473,
  "date": 9474,
  "debehogne": 9475,
  "gabriel": 9476,
  "kub": 9477,
  "luwalhati": 9478,
  "mantika": 9479,
  "pagtatantiya": 9480,
  "palumpong": 9481,
  "perio": 9482,
  "prima": 9483,
  "progres": 9484,
  "sacramento": 9485,
  "tio": 9486,
  "tumor": 9487,
  "bitak": 9488,
  "erian": 9489,
  "games": 9490,
  "hipon": 9491,
  "kondom": 9492,
  "kulung": 9493,
  "magkamit": 9494,
  "manunula": 9495,
  "moth": 9496,
  "names": 9497,
  "paganismo": 9498,
  "trahedya": 9499,
  "vaticano": 9500,
  "akawn": 9501,
  "cted": 9502,
  "dudulot": 9503,
  "feder": 9504,
  "gray": 9505,
  "gian": 9506,
  "lep": 9507,
  "million": 9508,
  "mouth": 9509,
  "nf": 9510,
  "paghahangad": 9511,
  "panukat": 9512,
  "peroe": 9513,
  "pura": 9514,
  "sapa": 9515,
  "tisyung": 9516,
  "bango": 9517,
  "justice": 9518,
  "lewis": 9519,
  "manchu": 9520,
  "nagtataguyod": 9521,
  "standard": 9522,
  "tsismi": 9523,
  "tumutubo": 9524,
  "alongpunsiyon": 9525,
  "balin": 9526,
  "bangan": 9527,
  "hood": 9528,
  "iminumungkahi": 9529,
  "katamaran": 9530,
  "maksi": 9531,
  "nerbyo": 9532,
  "nukleyo": 9533,
  "sato": 9534,
  "soul": 9535,
  "staff": 9536,
  "1897": 9537,
  "angeli": 9538,
  "bergo": 9539,
  "ensaym": 9540,
  "gampan": 9541,
  "golden": 9542,
  "hilan": 9543,
  "ie": 9544,
  "karibe": 9545,
  "kolombiya": 9546,
  "mest": 9547,
  "rehimen": 9548,
  "wy": 9549,
  "balagtas": 9550,
  "bloke": 9551,
  "complex": 9552,
  "grasya": 9553,
  "johann": 9554,
  "lagusan": 9555,
  "monoamino": 9556,
  "naog": 9557,
  "nagpasyang": 9558,
  "niseno": 9559,
  "pc": 9560,
  "techni": 9561,
  "tico": 9562,
  "tiwali": 9563,
  "utc": 9564,
  "vatican": 9565,
  "ballet": 9566,
  "bolunta": 9567,
  "boluntaryo": 9568,
  "gagamba": 9569,
  "gulan": 9570,
  "kabuluhan": 9571,
  "kumpanya": 9572,
  "nagbabawal": 9573,
  "nisan": 9574,
  "prodyuser": 9575,
  "simul": 9576,
  "sinusuri": 9577,
  "somalilandiya": 9578,
  "tep": 9579,
  "which": 9580,
  "yera": 9581,
  "bama": 9582,
  "babilon": 9583,
  "berry": 9584,
  "block": 9585,
  "consolacion": 9586,
  "electro": 9587,
  "kalma": 9588,
  "monarka": 9589,
  "ribo": 9590,
  "selyo": 9591,
  "alinlangan": 9592,
  "arating": 9593,
  "bache": 9594,
  "gp": 9595,
  "ginhawa": 9596,
  "iha": 9597,
  "krema": 9598,
  "kripisyo": 9599,
  "kukunang": 9600,
  "norway": 9601,
  "reseta": 9602,
  "thes": 9603,
  "atenas": 9604,
  "berge": 9605,
  "bumabalik": 9606,
  "erehe": 9607,
  "grati": 9608,
  "hae": 9609,
  "lau": 9610,
  "mabubuting": 9611,
  "niyebe": 9612,
  "panimula": 9613,
  "biblikal": 9614,
  "cron": 9615,
  "dias": 9616,
  "fei": 9617,
  "kandi": 9618,
  "kristal": 9619,
  "maan": 9620,
  "pierre": 9621,
  "thor": 9622,
  "uwag": 9623,
  "zhou": 9624,
  "astronomo": 9625,
  "beke": 9626,
  "cken": 9627,
  "destinasyon": 9628,
  "ibinu": 9629,
  "iska": 9630,
  "mammal": 9631,
  "maximinus": 9632,
  "nunsiyo": 9633,
  "pribilehiyo": 9634,
  "puntlandiya": 9635,
  "tamasa": 9636,
  "tisismo": 9637,
  "anatili": 9638,
  "detalyado": 9639,
  "ehipto1": 9640,
  "elena2": 9641,
  "ensiklope": 9642,
  "huang": 9643,
  "lamok": 9644,
  "masi": 9645,
  "sabah": 9646,
  "sici": 9647,
  "yunan": 9648,
  "abor": 9649,
  "abstrakto": 9650,
  "alice": 9651,
  "asim": 9652,
  "dibor": 9653,
  "kings": 9654,
  "nikephoros": 9655,
  "sko": 9656,
  "semitiko": 9657,
  "uch": 9658,
  "1890": 9659,
  "abera": 9660,
  "antropo": 9661,
  "bear": 9662,
  "deut": 9663,
  "ensi": 9664,
  "gid": 9665,
  "lingkuran": 9666,
  "matiti": 9667,
  "napilitang": 9668,
  "pampulitika": 9669,
  "tikadong": 9670,
  "uuring": 9671,
  "watanabe": 9672,
  "det": 9673,
  "elektrikal": 9674,
  "fru": 9675,
  "hebreong": 9676,
  "islamikong": 9677,
  "mandaragat": 9678,
  "siyah": 9679,
  "anibersaryo": 9680,
  "bengu": 9681,
  "ekilibri": 9682,
  "iwalag": 9683,
  "intro": 9684,
  "kantako": 9685,
  "kantakouz": 9686,
  "kantakouzenos": 9687,
  "metabolismo": 9688,
  "morpo": 9689,
  "shima": 9690,
  "tac": 9691,
  "taludtod": 9692,
  "aa": 9693,
  "eve": 9694,
  "ebolusyong": 9695,
  "molo": 9696,
  "nald": 9697,
  "piter": 9698,
  "rebolusyonaryo": 9699,
  "sinasanay": 9700,
  "torio": 9701,
  "unibersal": 9702,
  "askenasi": 9703,
  "fort": 9704,
  "irenaeus": 9705,
  "kapitulo": 9706,
  "kins": 9707,
  "kuto": 9708,
  "maong": 9709,
  "pau": 9710,
  "trutsang": 9711,
  "alal": 9712,
  "alinman": 9713,
  "bigu": 9714,
  "florante": 9715,
  "hominin": 9716,
  "menon": 9717,
  "nicho": 9718,
  "sports": 9719,
  "siri": 9720,
  "sinagoga": 9721,
  "unity": 9722,
  "butan": 9723,
  "imok": 9724,
  "konden": 9725,
  "nyor": 9726,
  "pentate": 9727,
  "rh": 9728,
  "random": 9729,
  "regla": 9730,
  "religi": 9731,
  "retto": 9732,
  "antioch": 9733,
  "benguet": 9734,
  "coro": 9735,
  "fr": 9736,
  "gurado": 9737,
  "ispek": 9738,
  "kabutihang": 9739,
  "malakanyang": 9740,
  "mom": 9741,
  "nangung": 9742,
  "terapiya": 9743,
  "alfredo": 9744,
  "arabong": 9745,
  "barbara": 9746,
  "hinua": 9747,
  "madam": 9748,
  "rolo": 9749,
  "therapy": 9750,
  "app": 9751,
  "diocletian": 9752,
  "gaspang": 9753,
  "hare": 9754,
  "hipona": 9755,
  "hoka": 9756,
  "monyo": 9757,
  "naglili": 9758,
  "paglilihi": 9759,
  "pampanguluhan": 9760,
  "panunungkulan": 9761,
  "rilla": 9762,
  "salamang": 9763,
  "sumpa": 9764,
  "tabako": 9765,
  "upunta": 9766,
  "zuki": 9767,
  "battle": 9768,
  "db": 9769,
  "ette": 9770,
  "http": 9771,
  "kawan": 9772,
  "kaangkupan": 9773,
  "kobayashi": 9774,
  "pinatunayan": 9775,
  "poe": 9776,
  "sinusuot": 9777,
  "station": 9778,
  "tarangka": 9779,
  "tone": 9780,
  "tsoko": 9781,
  "amu": 9782,
  "cot": 9783,
  "denmark": 9784,
  "ensiyang": 9785,
  "gae": 9786,
  "kikitaan": 9787,
  "kudeta": 9788,
  "mium": 9789,
  "nir": 9790,
  "panghuli": 9791,
  "pedo": 9792,
  "plaza": 9793,
  "raming": 9794,
  "alfon": 9795,
  "balans": 9796,
  "bero": 9797,
  "degree": 9798,
  "diyan": 9799,
  "duque": 9800,
  "hurado": 9801,
  "ned": 9802,
  "panunumpa": 9803,
  "pela": 9804,
  "1894": 9805,
  "chemis": 9806,
  "esperma": 9807,
  "garden": 9808,
  "hudea": 9809,
  "nililikha": 9810,
  "onsa": 9811,
  "patak": 9812,
  "panandaliang": 9813,
  "rehen": 9814,
  "second": 9815,
  "biyokimika": 9816,
  "fund": 9817,
  "jung": 9818,
  "maglala": 9819,
  "nalili": 9820,
  "sakura": 9821,
  "serbia": 9822,
  "sosyalista": 9823,
  "sumasangkot": 9824,
  "trauma": 9825,
  "almora": 9826,
  "bao": 9827,
  "beach": 9828,
  "embahada": 9829,
  "gding": 9830,
  "grande": 9831,
  "karo": 9832,
  "lana": 9833,
  "lulong": 9834,
  "massachus": 9835,
  "pagsusulit": 9836,
  "sida": 9837,
  "ties": 9838,
  "weldo": 9839,
  "beau": 9840,
  "bulga": 9841,
  "fia": 9842,
  "inhenyeriya": 9843,
  "isola": 9844,
  "lengo": 9845,
  "nong": 9846,
  "ngo": 9847,
  "pagpe": 9848,
  "siyensiya": 9849,
  "tray": 9850,
  "yumi": 9851,
  "apektadong": 9852,
  "ganoong": 9853,
  "hl": 9854,
  "inangking": 9855,
  "intelihensiya": 9856,
  "kistan": 9857,
  "lutang": 9858,
  "musiko": 9859,
  "naru": 9860,
  "niyog": 9861,
  "recto": 9862,
  "siruhiya": 9863,
  "trigono": 9864,
  "yagi": 9865,
  "bris": 9866,
  "cd4": 9867,
  "inig": 9868,
  "inilalabas": 9869,
  "isha": 9870,
  "kitungo": 9871,
  "literatura": 9872,
  "mile": 9873,
  "pulan": 9874,
  "reli": 9875,
  "rest": 9876,
  "shari": 9877,
  "tutok": 9878,
  "bunton": 9879,
  "extra": 9880,
  "fred": 9881,
  "hahawakan": 9882,
  "katek": 9883,
  "kalansay": 9884,
  "kampi": 9885,
  "maneho": 9886,
  "permanent": 9887,
  "pisngi": 9888,
  "quio": 9889,
  "rp": 9890,
  "ska": 9891,
  "sinimulang": 9892,
  "spanish": 9893,
  "sultana": 9894,
  "tagon": 9895,
  "aritmetika": 9896,
  "bulto": 9897,
  "dance": 9898,
  "giran": 9899,
  "kondado": 9900,
  "nominasyon": 9901,
  "omer": 9902,
  "peak": 9903,
  "pilar": 9904,
  "pinalili": 9905,
  "transmisyon": 9906,
  "tsaa": 9907,
  "wido": 9908,
  "bonobo": 9909,
  "cula": 9910,
  "doug": 9911,
  "gr": 9912,
  "impek": 9913,
  "kompuwesto": 9914,
  "kronolohiya": 9915,
  "myento": 9916,
  "organismo": 9917,
  "pagt": 9918,
  "project": 9919,
  "ueda": 9920,
  "bisan": 9921,
  "gum": 9922,
  "kee": 9923,
  "labanan": 9924,
  "malalaman": 9925,
  "naapektuhan": 9926,
  "roe": 9927,
  "trigo": 9928,
  "wad": 9929,
  "asian": 9930,
  "bipe": 9931,
  "ende": 9932,
  "hama": 9933,
  "interaksiyong": 9934,
  "ipinapasok": 9935,
  "itsura": 9936,
  "kei": 9937,
  "kontinenteng": 9938,
  "ktik": 9939,
  "mt": 9940,
  "malikha": 9941,
  "metho": 9942,
  "nalulu": 9943,
  "natatawag": 9944,
  "nawawalang": 9945,
  "niig": 9946,
  "oak": 9947,
  "pagtatanong": 9948,
  "pagtatrabaho": 9949,
  "pertilisa": 9950,
  "recep": 9951,
  "samaritano": 9952,
  "tratado": 9953,
  "ventura": 9954,
  "benja": 9955,
  "daanang": 9956,
  "etts": 9957,
  "hermaniko": 9958,
  "kalkula": 9959,
  "nauunawaan": 9960,
  "noy": 9961,
  "presidential": 9962,
  "rajah": 9963,
  "taryong": 9964,
  "wei": 9965,
  "awad": 9966,
  "camera": 9967,
  "enzyme": 9968,
  "franca": 9969,
  "jos": 9970,
  "kapati": 9971,
  "kaunlarang": 9972,
  "lob": 9973,
  "modi": 9974,
  "paroko": 9975,
  "pinatutu": 9976,
  "prutek": 9977,
  "tiga": 9978,
  "zhi": 9979,
  "arabiko": 9980,
  "ates": 9981,
  "basedow": 9982,
  "chile": 9983,
  "diyag": 9984,
  "dista": 9985,
  "elektromagnetiko": 9986,
  "fication": 9987,
  "huna": 9988,
  "inik": 9989,
  "klinika": 9990,
  "luno": 9991,
  "scot": 9992,
  "yoga": 9993,
  "ave": 9994,
  "artist": 9995,
  "eskolar": 9996,
  "gate": 9997,
  "ikas": 9998,
  "isen": 9999,
  "kalakalan": 10000,
  "massachusetts": 10001,
  "satanas": 10002,
  "sanaysay": 10003,
  "yakap": 10004,
  "babang": 10005,
  "gawing": 10006,
  "halimaw": 10007,
  "kinapapa": 10008,
  "laang": 10009,
  "labintatlong": 10010,
  "league": 10011,
  "manage": 10012,
  "malaria": 10013,
  "rastra": 10014,
  "alli": 10015,
  "asean": 10016,
  "labia": 10017,
  "mestiso": 10018,
  "naririnig": 10019,
  "pagpupun": 10020,
  "pluwido": 10021,
  "ught": 10022,
  "wakan": 10023,
  "yempo": 10024,
  "benjamin": 10025,
  "camp": 10026,
  "hadith": 10027,
  "lunes": 10028,
  "lyer": 10029,
  "paleon": 10030,
  "paso": 10031,
  "pinagkunang": 10032,
  "queen": 10033,
  "rdo": 10034,
  "rmo": 10035,
  "resistensiya": 10036,
  "rmtx": 10037,
  "sista": 10038,
  "sisidlan": 10039,
  "tbody": 10040,
  "cb": 10041,
  "concepcion": 10042,
  "ganyang": 10043,
  "guam": 10044,
  "musikero": 10045,
  "pear": 10046,
  "tesal": 10047,
  "ayan": 10048,
  "buwaya": 10049,
  "iano": 10050,
  "ivan": 10051,
  "indio": 10052,
  "lungkut": 10053,
  "maku": 10054,
  "pahid": 10055,
  "pagsang": 10056,
  "pampilosopiya": 10057,
  "photon": 10058,
  "saki": 10059,
  "screen": 10060,
  "switzer": 10061,
  "switzerland": 10062,
  "bacterium": 10063,
  "brah": 10064,
  "imprastra": 10065,
  "kumpirma": 10066,
  "kushiro": 10067,
  "kuwartel": 10068,
  "mother": 10069,
  "nilikha": 10070,
  "nosis": 10071,
  "org": 10072,
  "sitwasyong": 10073,
  "tape": 10074,
  "antok": 10075,
  "asco": 10076,
  "bach": 10077,
  "duno": 10078,
  "festi": 10079,
  "link": 10080,
  "maskul": 10081,
  "moy": 10082,
  "muhan": 10083,
  "nakalala": 10084,
  "neder": 10085,
  "resep": 10086,
  "ssa": 10087,
  "silin": 10088,
  "381": 10089,
  "autono": 10090,
  "business": 10091,
  "ccan": 10092,
  "dumu": 10093,
  "elektrisidad": 10094,
  "homoou": 10095,
  "kristyano": 10096,
  "kuryente": 10097,
  "lakaran": 10098,
  "lohikong": 10099,
  "maximus": 10100,
  "misyo": 10101,
  "nesian": 10102,
  "pers": 10103,
  "pesti": 10104,
  "tekniko": 10105,
  "teroid": 10106,
  "tograp": 10107,
  "tumutugma": 10108,
  "uta": 10109,
  "atibong": 10110,
  "dion": 10111,
  "ipinatupad": 10112,
  "isoto": 10113,
  "lulan": 10114,
  "nego": 10115,
  "orde": 10116,
  "rangya": 10117,
  "rikong": 10118,
  "ukaw": 10119,
  "again": 10120,
  "atha": 10121,
  "bunyag": 10122,
  "cade": 10123,
  "claudius": 10124,
  "comm": 10125,
  "franklin": 10126,
  "gado": 10127,
  "kw": 10128,
  "kakayanang": 10129,
  "lampa": 10130,
  "makina": 10131,
  "mariano": 10132,
  "nuclei": 10133,
  "plataporma": 10134,
  "purple": 10135,
  "tatakot": 10136,
  "tekni": 10137,
  "timbang": 10138,
  "vet": 10139,
  "altar": 10140,
  "byan": 10141,
  "card": 10142,
  "danes": 10143,
  "duksiyon": 10144,
  "ffer": 10145,
  "gorilya": 10146,
  "ikawalo": 10147,
  "kaparaan": 10148,
  "kaparaanang": 10149,
  "lyon": 10150,
  "malalapit": 10151,
  "nokia": 10152,
  "pinaghalong": 10153,
  "sidera": 10154,
  "tangere": 10155,
  "websayt": 10156,
  "380": 10157,
  "diagno": 10158,
  "dusa": 10159,
  "galerius": 10160,
  "imigrante": 10161,
  "marinduque": 10162,
  "mathema": 10163,
  "rehas": 10164,
  "siruhano": 10165,
  "stisismo": 10166,
  "tional": 10167,
  "tumutuon": 10168,
  "diksi": 10169,
  "inakdaan": 10170,
  "kinis": 10171,
  "mg": 10172,
  "management": 10173,
  "palik": 10174,
  "paglilimbag": 10175,
  "physics": 10176,
  "syrian": 10177,
  "taro": 10178,
  "viz": 10179,
  "zim": 10180,
  "1500": 10181,
  "allo": 10182,
  "corro": 10183,
  "digital": 10184,
  "file": 10185,
  "ginal": 10186,
  "infor": 10187,
  "kilya": 10188,
  "liturhiya": 10189,
  "malig": 10190,
  "poten": 10191,
  "spo": 10192,
  "xing": 10193,
  "cito": 10194,
  "cl": 10195,
  "chairman": 10196,
  "dadaan": 10197,
  "duhan": 10198,
  "gutum": 10199,
  "halagahan": 10200,
  "isin": 10201,
  "katawan": 10202,
  "kaluban": 10203,
  "levi": 10204,
  "nagtatala": 10205,
  "obra": 10206,
  "pron": 10207,
  "pagbibitiw": 10208,
  "pey": 10209,
  "seksiyong": 10210,
  "sophi": 10211,
  "anit": 10212,
  "bihis": 10213,
  "eus": 10214,
  "giorgio": 10215,
  "hashi": 10216,
  "habitat": 10217,
  "inaangking": 10218,
  "khmer": 10219,
  "komputasyon": 10220,
  "konstelasyon": 10221,
  "listiko": 10222,
  "mh": 10223,
  "maiko": 10224,
  "munu": 10225,
  "nanking": 10226,
  "oi": 10227,
  "shen": 10228,
  "selular": 10229,
  "tole": 10230,
  "umupo": 10231,
  "yumaong": 10232,
  "1926": 10233,
  "beo": 10234,
  "capi": 10235,
  "christmas": 10236,
  "clature": 10237,
  "dahilan": 10238,
  "dual": 10239,
  "elektronikong": 10240,
  "ffe": 10241,
  "kuru": 10242,
  "lumba": 10243,
  "nomenclature": 10244,
  "rhini": 10245,
  "restri": 10246,
  "rosh": 10247,
  "sinoptiko": 10248,
  "susunog": 10249,
  "tambilang": 10250,
  "bayaran": 10251,
  "bonaparte": 10252,
  "eksplorador": 10253,
  "gregorian": 10254,
  "imin": 10255,
  "kazakh": 10256,
  "kontinental": 10257,
  "lgbt": 10258,
  "multo": 10259,
  "nadagdagan": 10260,
  "round": 10261,
  "vladi": 10262,
  "wawa": 10263,
  "1200": 10264,
  "750": 10265,
  "almoranas": 10266,
  "batayang": 10267,
  "bibigkis": 10268,
  "eup": 10269,
  "espana": 10270,
  "food": 10271,
  "ginu": 10272,
  "government": 10273,
  "huluga": 10274,
  "maestro": 10275,
  "makinarya": 10276,
  "nasundan": 10277,
  "pagmamanupaktura": 10278,
  "pangga": 10279,
  "peratris": 10280,
  "pros": 10281,
  "shira": 10282,
  "siwalat": 10283,
  "talikod": 10284,
  "writ": 10285,
  "awid": 10286,
  "cks": 10287,
  "chart": 10288,
  "codon": 10289,
  "drift": 10290,
  "emperatris": 10291,
  "entong": 10292,
  "ensiklopedya": 10293,
  "katlo": 10294,
  "kok": 10295,
  "mangma": 10296,
  "pagkakakilan": 10297,
  "patiya": 10298,
  "teorema": 10299,
  "apollo": 10300,
  "eleksiyon": 10301,
  "embri": 10302,
  "festival": 10303,
  "gie": 10304,
  "graduate": 10305,
  "ifu": 10306,
  "impra": 10307,
  "inosente": 10308,
  "lismong": 10309,
  "nagma": 10310,
  "paru": 10311,
  "pedi": 10312,
  "pinaniwala": 10313,
  "rani": 10314,
  "reptilya": 10315,
  "sikmura": 10316,
  "yungi": 10317,
  "anda": 10318,
  "binyag": 10319,
  "brassica": 10320,
  "depart": 10321,
  "flag": 10322,
  "heograpiko": 10323,
  "kalawakan": 10324,
  "kaneda": 10325,
  "kinokontrol": 10326,
  "ksihan": 10327,
  "naia": 10328,
  "neurotransmitter": 10329,
  "patpat": 10330,
  "propesyon": 10331,
  "rebolusyonaryong": 10332,
  "salvador": 10333,
  "sinungaling": 10334,
  "socorro": 10335,
  "toba": 10336,
  "ube": 10337,
  "bobomba": 10338,
  "catan": 10339,
  "eukaryote": 10340,
  "ikinaka": 10341,
  "laway": 10342,
  "miz": 10343,
  "nagsusuot": 10344,
  "nahawaan": 10345,
  "nalalamang": 10346,
  "ophi": 10347,
  "pinakakaraniwang": 10348,
  "reseptor": 10349,
  "sirkulasyon": 10350,
  "uchi": 10351,
  "umpisa": 10352,
  "veri": 10353,
  "agre": 10354,
  "beat": 10355,
  "dean": 10356,
  "dera": 10357,
  "gel": 10358,
  "hud": 10359,
  "libog": 10360,
  "marsh": 10361,
  "quez": 10362,
  "resi": 10363,
  "sinabihan": 10364,
  "tanghali": 10365,
  "tumiting": 10366,
  "1895": 10367,
  "bote": 10368,
  "cup": 10369,
  "dikatura": 10370,
  "hudikatura": 10371,
  "kaisip": 10372,
  "mycenae": 10373,
  "nababagay": 10374,
  "ningning": 10375,
  "nolo": 10376,
  "paan": 10377,
  "pasto": 10378,
  "pugad": 10379,
  "sinubukan": 10380,
  "tagasuporta": 10381,
  "tani": 10382,
  "tseko": 10383,
  "yungib": 10384,
  "119": 10385,
  "baitang": 10386,
  "binansagan": 10387,
  "bosa": 10388,
  "keltiko": 10389,
  "manganganak": 10390,
  "nukley": 10391,
  "pagtaban": 10392,
  "plant": 10393,
  "117": 10394,
  "charac": 10395,
  "defen": 10396,
  "ebanghelista": 10397,
  "elst": 10398,
  "komputasyonal": 10399,
  "kristyanismo": 10400,
  "magi": 10401,
  "oxy": 10402,
  "pinsa": 10403,
  "assemb": 10404,
  "cry": 10405,
  "elle": 10406,
  "halaw": 10407,
  "kapayapa": 10408,
  "kaanyuan": 10409,
  "kretase": 10410,
  "lutong": 10411,
  "macedonia": 10412,
  "munici": 10413,
  "pagbabaybay": 10414,
  "reno": 10415,
  "sumerya": 10416,
  "watson": 10417,
  "akad": 10418,
  "ctive": 10419,
  "department": 10420,
  "epo": 10421,
  "enburg": 10422,
  "gasan": 10423,
  "gumagampan": 10424,
  "ilit": 10425,
  "rubahan": 10426,
  "sante": 10427,
  "sister": 10428,
  "taal": 10429,
  "alban": 10430,
  "ashoka": 10431,
  "belen": 10432,
  "buya": 10433,
  "champion": 10434,
  "demand": 10435,
  "greater": 10436,
  "himok": 10437,
  "inatasan": 10438,
  "inglater": 10439,
  "mailalarawan": 10440,
  "navar": 10441,
  "nasyona": 10442,
  "nex": 10443,
  "neutral": 10444,
  "persiya": 10445,
  "pluido": 10446,
  "pokus": 10447,
  "sergio": 10448,
  "tsokolat": 10449,
  "tumututol": 10450,
  "what": 10451,
  "1872": 10452,
  "canton": 10453,
  "diktador": 10454,
  "ely": 10455,
  "gener": 10456,
  "hyo": 10457,
  "hom": 10458,
  "kompleto": 10459,
  "minimum": 10460,
  "panandalian": 10461,
  "paraiso": 10462,
  "promin": 10463,
  "stura": 10464,
  "taan": 10465,
  "unggu": 10466,
  "average": 10467,
  "ality": 10468,
  "buks": 10469,
  "cles": 10470,
  "dant": 10471,
  "deuterono": 10472,
  "hadla": 10473,
  "hek": 10474,
  "ifugao": 10475,
  "jet": 10476,
  "joaquin": 10477,
  "klod": 10478,
  "lud": 10479,
  "maimpluwensiya": 10480,
  "mapan": 10481,
  "nation": 10482,
  "pagsamba": 10483,
  "paghahandog": 10484,
  "panlungsod": 10485,
  "prupes": 10486,
  "bhu": 10487,
  "bow": 10488,
  "dence": 10489,
  "gampaning": 10490,
  "hade": 10491,
  "laso": 10492,
  "lesbiana": 10493,
  "manatiling": 10494,
  "ratio": 10495,
  "rebelyon": 10496,
  "sagsag": 10497,
  "seni": 10498,
  "sie": 10499,
  "uruk": 10500,
  "balangkas": 10501,
  "cele": 10502,
  "cleo": 10503,
  "dz": 10504,
  "deuterokanoni": 10505,
  "ellan": 10506,
  "grad": 10507,
  "josephine": 10508,
  "kanayunan": 10509,
  "loi": 10510,
  "loko": 10511,
  "mikroorganismo": 10512,
  "saga": 10513,
  "saha": 10514,
  "siglio": 10515,
  "striktong": 10516,
  "3000": 10517,
  "barna": 10518,
  "conference": 10519,
  "ean": 10520,
  "illes": 10521,
  "komandante": 10522,
  "kuweba": 10523,
  "lab": 10524,
  "musa": 10525,
  "pukyu": 10526,
  "reak": 10527,
  "their": 10528,
  "bigki": 10529,
  "ceres": 10530,
  "elohi": 10531,
  "igos": 10532,
  "inki": 10533,
  "jani": 10534,
  "mapapa": 10535,
  "manip": 10536,
  "milton": 10537,
  "namamay": 10538,
  "onica": 10539,
  "pagreregla": 10540,
  "panliligaw": 10541,
  "substan": 10542,
  "usok": 10543,
  "assembly": 10544,
  "basura": 10545,
  "boka": 10546,
  "cause": 10547,
  "dit": 10548,
  "interpretasyong": 10549,
  "kukun": 10550,
  "miller": 10551,
  "ninuno": 10552,
  "orange": 10553,
  "pahayagang": 10554,
  "pagbibilang": 10555,
  "ske": 10556,
  "salamangkero": 10557,
  "terapiyang": 10558,
  "tilyo": 10559,
  "01": 10560,
  "barcelo": 10561,
  "edit": 10562,
  "fiber": 10563,
  "hapag": 10564,
  "kretaseyoso": 10565,
  "miche": 10566,
  "nevada": 10567,
  "paninigarilyo": 10568,
  "talim": 10569,
  "tipa": 10570,
  "ungguwento": 10571,
  "1869": 10572,
  "apag": 10573,
  "after": 10574,
  "cold": 10575,
  "communication": 10576,
  "dus": 10577,
  "gonad": 10578,
  "hispania": 10579,
  "integrasyon": 10580,
  "mrt": 10581,
  "mahi": 10582,
  "munisipyo": 10583,
  "ngen": 10584,
  "nobelista": 10585,
  "penn": 10586,
  "rebeld": 10587,
  "script": 10588,
  "silyer": 10589,
  "sindro": 10590,
  "taguri": 10591,
  "unu": 10592,
  "dayo": 10593,
  "dominyo": 10594,
  "edes": 10595,
  "gent": 10596,
  "kampeon": 10597,
  "kulum": 10598,
  "manipestasyon": 10599,
  "mela": 10600,
  "ntad": 10601,
  "nagtatangkang": 10602,
  "ngaw": 10603,
  "parol": 10604,
  "palma": 10605,
  "ponema": 10606,
  "salmon": 10607,
  "vention": 10608,
  "zawa": 10609,
  "1884": 10610,
  "aristoteles": 10611,
  "binhi": 10612,
  "bubuyog": 10613,
  "fle": 10614,
  "hungary": 10615,
  "izumi": 10616,
  "mpalatayang": 10617,
  "nirvana": 10618,
  "pakto": 10619,
  "pambungad": 10620,
  "paninindigan": 10621,
  "pektibong": 10622,
  "pisi": 10623,
  "pole": 10624,
  "polis": 10625,
  "rayon": 10626,
  "rion": 10627,
  "rupok": 10628,
  "sogon": 10629,
  "sorsogon": 10630,
  "124": 10631,
  "barcelona": 10632,
  "bibili": 10633,
  "bohr": 10634,
  "dalubhasaang": 10635,
  "diyus": 10636,
  "eat": 10637,
  "ekso": 10638,
  "hiwaga": 10639,
  "ingay": 10640,
  "joe": 10641,
  "komite": 10642,
  "langgam": 10643,
  "nasisiyahan": 10644,
  "paglikha": 10645,
  "rice": 10646,
  "sintur": 10647,
  "stic": 10648,
  "suway": 10649,
  "tery": 10650,
  "virgin": 10651,
  "cambridge": 10652,
  "ekstinksiyon": 10653,
  "igting": 10654,
  "irene": 10655,
  "kalap": 10656,
  "magliano": 10657,
  "period": 10658,
  "resto": 10659,
  "sec": 10660,
  "tangkay": 10661,
  "turkmen": 10662,
  "australoid": 10663,
  "bipolar": 10664,
  "espirituwal": 10665,
  "facto": 10666,
  "irak": 10667,
  "jay": 10668,
  "kahalaga": 10669,
  "kalo": 10670,
  "kasangkutan": 10671,
  "nilalayon": 10672,
  "penha": 10673,
  "revolution": 10674,
  "same": 10675,
  "strauss": 10676,
  "titing": 10677,
  "unya": 10678,
  "azerbaijan": 10679,
  "bido": 10680,
  "diyagnosis": 10681,
  "gaynon": 10682,
  "gros": 10683,
  "holy": 10684,
  "isya": 10685,
  "lero": 10686,
  "mentary": 10687,
  "naririto": 10688,
  "onan": 10689,
  "pastor": 10690,
  "pinalaya": 10691,
  "ride": 10692,
  "salot": 10693,
  "sedi": 10694,
  "siddharta": 10695,
  "sist": 10696,
  "wikti": 10697,
  "wilson": 10698,
  "zai": 10699,
  "arno": 10700,
  "betes": 10701,
  "buod": 10702,
  "cooper": 10703,
  "desig": 10704,
  "guez": 10705,
  "hiligaynon": 10706,
  "inakusahan": 10707,
  "ktan": 10708,
  "kababayan": 10709,
  "klamo": 10710,
  "length": 10711,
  "lohis": 10712,
  "matthe": 10713,
  "mongolo": 10714,
  "mongoloid": 10715,
  "pirami": 10716,
  "pinaikling": 10717,
  "pinatalsik": 10718,
  "rim": 10719,
  "tsismo": 10720,
  "them": 10721,
  "tree": 10722,
  "tsara": 10723,
  "aphrod": 10724,
  "aril": 10725,
  "bumi": 10726,
  "been": 10727,
  "buda": 10728,
  "gawang": 10729,
  "haling": 10730,
  "imprastraktura": 10731,
  "malu": 10732,
  "mendo": 10733,
  "mics": 10734,
  "nominal": 10735,
  "pinapakahulugan": 10736,
  "sekundarya": 10737,
  "ying": 10738,
  "agong": 10739,
  "babatas": 10740,
  "magaang": 10741,
  "maiha": 10742,
  "nabigong": 10743,
  "pandamdam": 10744,
  "pangangaso": 10745,
  "putla": 10746,
  "sumu": 10747,
  "1521": 10748,
  "armenian": 10749,
  "edda": 10750,
  "elepante": 10751,
  "galang": 10752,
  "hia": 10753,
  "hui": 10754,
  "journal": 10755,
  "kapitbahay": 10756,
  "lamangka": 10757,
  "lithu": 10758,
  "ogle": 10759,
  "pagdarasal": 10760,
  "polish": 10761,
  "sequ": 10762,
  "williams": 10763,
  "bles": 10764,
  "fever": 10765,
  "identidad": 10766,
  "kilog": 10767,
  "leba": 10768,
  "marck": 10769,
  "onian": 10770,
  "panunaw": 10771,
  "pentateuch": 10772,
  "supply": 10773,
  "template": 10774,
  "woman": 10775,
  "boson": 10776,
  "bosco": 10777,
  "drogang": 10778,
  "kidlat": 10779,
  "lagong": 10780,
  "parlamentaryo": 10781,
  "pukyutan": 10782,
  "reser": 10783,
  "tiyempo": 10784,
  "tingga": 10785,
  "uita": 10786,
  "02": 10787,
  "about": 10788,
  "ayusin": 10789,
  "basag": 10790,
  "cultural": 10791,
  "dead": 10792,
  "ekolohiya": 10793,
  "gumu": 10794,
  "lanta": 10795,
  "mobile": 10796,
  "muse": 10797,
  "onic": 10798,
  "pakikitungo": 10799,
  "prosa": 10800,
  "rasyo": 10801,
  "sinai": 10802,
  "tagisan": 10803,
  "tangan": 10804,
  "apa": 10805,
  "athana": 10806,
  "daldal": 10807,
  "h2": 10808,
  "imbak": 10809,
  "isinasalin": 10810,
  "joseon": 10811,
  "komisyong": 10812,
  "kuneho": 10813,
  "ngkak": 10814,
  "pente": 10815,
  "sotto": 10816,
  "treng": 10817,
  "yaring": 10818,
  "122": 10819,
  "compos": 10820,
  "elohim": 10821,
  "kongkreto": 10822,
  "monggo": 10823,
  "oyd": 10824,
  "phon": 10825,
  "pakay": 10826,
  "pinagta": 10827,
  "situ": 10828,
  "sot": 10829,
  "tasa": 10830,
  "tensor": 10831,
  "tona": 10832,
  "1879": 10833,
  "650": 10834,
  "alessand": 10835,
  "boo": 10836,
  "ching": 10837,
  "community": 10838,
  "dua": 10839,
  "ilus": 10840,
  "interdisiplina": 10841,
  "likasang": 10842,
  "mbot": 10843,
  "mabababang": 10844,
  "machine": 10845,
  "magellan": 10846,
  "manta": 10847,
  "psi": 10848,
  "pamumuno": 10849,
  "rasyonal": 10850,
  "semina": 10851,
  "tabing": 10852,
  "tangke": 10853,
  "adver": 10854,
  "basilan": 10855,
  "binansagang": 10856,
  "coe": 10857,
  "direksyon": 10858,
  "hna": 10859,
  "konsiy": 10860,
  "lid": 10861,
  "matthew": 10862,
  "numpa": 10863,
  "oe": 10864,
  "osmena": 10865,
  "rada": 10866,
  "radyasyong": 10867,
  "sobre": 10868,
  "trinita": 10869,
  "village": 10870,
  "1871": 10871,
  "1891": 10872,
  "bakuran": 10873,
  "buwanang": 10874,
  "hiyang": 10875,
  "hugas": 10876,
  "imik": 10877,
  "kanti": 10878,
  "kopff": 10879,
  "likadong": 10880,
  "naba": 10881,
  "natuklasang": 10882,
  "retorika": 10883,
  "rossa": 10884,
  "said": 10885,
  "td": 10886,
  "aires": 10887,
  "biyetnames": 10888,
  "buenos": 10889,
  "ciro": 10890,
  "done": 10891,
  "glukosa": 10892,
  "huwe": 10893,
  "ipigil": 10894,
  "junior": 10895,
  "kinatawang": 10896,
  "layt": 10897,
  "lucia": 10898,
  "nilagyan": 10899,
  "olohikal": 10900,
  "pain": 10901,
  "pattern": 10902,
  "planck": 10903,
  "poda": 10904,
  "reta": 10905,
  "sugatan": 10906,
  "wangis": 10907,
  "agnos": 10908,
  "bulong": 10909,
  "cheng": 10910,
  "diskubre": 10911,
  "ehrmann": 10912,
  "england": 10913,
  "midyum": 10914,
  "origen": 10915,
  "pagliligtas": 10916,
  "paglulunsad": 10917,
  "pasyahan": 10918,
  "pinahintulutan": 10919,
  "rios": 10920,
  "tation": 10921,
  "yabong": 10922,
  "zheng": 10923,
  "adap": 10924,
  "death": 10925,
  "demonstra": 10926,
  "dream": 10927,
  "kamelyo": 10928,
  "kupon": 10929,
  "lihis": 10930,
  "luklukan": 10931,
  "mapayapa": 10932,
  "maximili": 10933,
  "melan": 10934,
  "nghang": 10935,
  "pandacan": 10936,
  "pangangati": 10937,
  "scholar": 10938,
  "1889": 10939,
  "axis": 10940,
  "arabya": 10941,
  "balingkin": 10942,
  "beli": 10943,
  "circu": 10944,
  "depekto": 10945,
  "gom": 10946,
  "humani": 10947,
  "kapatiran": 10948,
  "nature": 10949,
  "orba": 10950,
  "pagmo": 10951,
  "presti": 10952,
  "rodriguez": 10953,
  "scar": 10954,
  "seb": 10955,
  "talan": 10956,
  "tsar": 10957,
  "yes": 10958,
  "administrasyong": 10959,
  "bou": 10960,
  "curone": 10961,
  "gulat": 10962,
  "gop": 10963,
  "hein": 10964,
  "kete": 10965,
  "lasco": 10966,
  "llah": 10967,
  "magazine": 10968,
  "minster": 10969,
  "miyento": 10970,
  "none": 10971,
  "pd": 10972,
  "pagkit": 10973,
  "pagbibinata": 10974,
  "purga": 10975,
  "sinasali": 10976,
  "sylv": 10977,
  "synthesis": 10978,
  "uriin": 10979,
  "yel": 10980,
  "bed": 10981,
  "committee": 10982,
  "diksiyunaryo": 10983,
  "iminungkahing": 10984,
  "inanyayahan": 10985,
  "jima": 10986,
  "kapital": 10987,
  "ksing": 10988,
  "limpa": 10989,
  "mangmang": 10990,
  "natutunan": 10991,
  "pagdadalaga": 10992,
  "paghahalo": 10993,
  "sabik": 10994,
  "siklab": 10995,
  "strepto": 10996,
  "superi": 10997,
  "1850": 10998,
  "dominikano": 10999,
  "etikal": 11000,
  "editor": 11001,
  "gium": 11002,
  "gull": 11003,
  "konsiyerto": 11004,
  "litu": 11005,
  "local": 11006,
  "mania": 11007,
  "magsilbing": 11008,
  "mazda": 11009,
  "mount": 11010,
  "nula": 11011,
  "nakakamit": 11012,
  "pitak": 11013,
  "sakla": 11014,
  "scott": 11015,
  "vertical": 11016,
  "alimango": 11017,
  "beati": 11018,
  "camel": 11019,
  "deuterokanoniko": 11020,
  "hori": 11021,
  "ingatan": 11022,
  "krit": 11023,
  "nant": 11024,
  "oman": 11025,
  "panunu": 11026,
  "pnr": 11027,
  "poro": 11028,
  "poso": 11029,
  "rasco": 11030,
  "shanghai": 11031,
  "six": 11032,
  "sistensiya": 11033,
  "suke": 11034,
  "susa": 11035,
  "tauro": 11036,
  "tahanang": 11037,
  "talinghaga": 11038,
  "alfred": 11039,
  "andrew": 11040,
  "bilug": 11041,
  "debate": 11042,
  "denominasyong": 11043,
  "eye": 11044,
  "huwad": 11045,
  "ister": 11046,
  "karayo": 11047,
  "kumpetisyon": 11048,
  "malalayang": 11049,
  "musikal": 11050,
  "osor": 11051,
  "olimpikong": 11052,
  "paglalakad": 11053,
  "pirmi": 11054,
  "saang": 11055,
  "sapot": 11056,
  "sintahan": 11057,
  "stika": 11058,
  "when": 11059,
  "baby": 11060,
  "bulgaria": 11061,
  "fax": 11062,
  "gregoriano": 11063,
  "gustuhang": 11064,
  "kagustuhang": 11065,
  "kapisa": 11066,
  "kapisanang": 11067,
  "karayom": 11068,
  "kolonisasyon": 11069,
  "laxis": 11070,
  "lego": 11071,
  "osong": 11072,
  "pangkat": 11073,
  "rehis": 11074,
  "salsal": 11075,
  "talahuluga": 11076,
  "aspekto": 11077,
  "ative": 11078,
  "barian": 11079,
  "coper": 11080,
  "dominan": 11081,
  "fidel": 11082,
  "gilan": 11083,
  "habsburgo": 11084,
  "himno": 11085,
  "hydrogen": 11086,
  "kambing": 11087,
  "kognitibo": 11088,
  "kwantika": 11089,
  "mentaryong": 11090,
  "natura": 11091,
  "pagdadalangtao": 11092,
  "panlasa": 11093,
  "panati": 11094,
  "sidhi": 11095,
  "utilidad": 11096,
  "akabit": 11097,
  "badyet": 11098,
  "buga": 11099,
  "doctor": 11100,
  "ebal": 11101,
  "habilita": 11102,
  "iwa": 11103,
  "inuugnay": 11104,
  "lebadura": 11105,
  "maurice": 11106,
  "nard": 11107,
  "panlalawigan": 11108,
  "panggatong": 11109,
  "porno": 11110,
  "roy": 11111,
  "sahig": 11112,
  "satelayt": 11113,
  "tolo": 11114,
  "would": 11115,
  "asong": 11116,
  "brow": 11117,
  "gru": 11118,
  "grama": 11119,
  "kagulu": 11120,
  "laks": 11121,
  "luwang": 11122,
  "malus": 11123,
  "phoeni": 11124,
  "resistansiya": 11125,
  "siyahang": 11126,
  "tumitingin": 11127,
  "argos": 11128,
  "damas": 11129,
  "galig": 11130,
  "gera": 11131,
  "hilo": 11132,
  "hold": 11133,
  "kipag": 11134,
  "motibasyon": 11135,
  "nilo": 11136,
  "nicomedia": 11137,
  "prime": 11138,
  "primitibong": 11139,
  "proces": 11140,
  "450": 11141,
  "football": 11142,
  "inihahain": 11143,
  "komunyon": 11144,
  "latit": 11145,
  "mbit": 11146,
  "napapalibutan": 11147,
  "pagtatagumpay": 11148,
  "palikpik": 11149,
  "pinasimulan": 11150,
  "pusod": 11151,
  "rero": 11152,
  "senya": 11153,
  "sugpu": 11154,
  "westminster": 11155,
  "awakan": 11156,
  "bitin": 11157,
  "casale": 11158,
  "criti": 11159,
  "crete": 11160,
  "diks": 11161,
  "gliko": 11162,
  "kahala": 11163,
  "komunista": 11164,
  "lp": 11165,
  "leton": 11166,
  "likasan": 11167,
  "mambabatas": 11168,
  "siberia": 11169,
  "sirmium": 11170,
  "these": 11171,
  "tinangkang": 11172,
  "versa": 11173,
  "550": 11174,
  "absolute": 11175,
  "augusto": 11176,
  "bangga": 11177,
  "brod": 11178,
  "caval": 11179,
  "dada": 11180,
  "eksop": 11181,
  "eksoptal": 11182,
  "hamburg": 11183,
  "ibal": 11184,
  "kalin": 11185,
  "masigla": 11186,
  "moon": 11187,
  "nefer": 11188,
  "nucleotide": 11189,
  "pepper": 11190,
  "sah": 11191,
  "statistical": 11192,
  "through": 11193,
  "uruan": 11194,
  "apdo": 11195,
  "bacchae": 11196,
  "copenha": 11197,
  "dihes": 11198,
  "distan": 11199,
  "estimulo": 11200,
  "fare": 11201,
  "gaster": 11202,
  "kitami": 11203,
  "leap": 11204,
  "nagtiti": 11205,
  "pinakabagong": 11206,
  "pinsalang": 11207,
  "respektibong": 11208,
  "sekswalidad": 11209,
  "susuka": 11210,
  "theravada": 11211,
  "aklan": 11212,
  "alfi": 11213,
  "asagot": 11214,
  "color": 11215,
  "cycle": 11216,
  "ihaw": 11217,
  "impluwen": 11218,
  "jorge": 11219,
  "mamalyang": 11220,
  "pagtataas": 11221,
  "tuga": 11222,
  "1882": 11223,
  "aphrodite": 11224,
  "ayamang": 11225,
  "bomber": 11226,
  "building": 11227,
  "economics": 11228,
  "gagawing": 11229,
  "jacques": 11230,
  "kinapapalooban": 11231,
  "mayayamang": 11232,
  "mix": 11233,
  "mrkos": 11234,
  "ppo": 11235,
  "phobia": 11236,
  "pinanghahawakan": 11237,
  "sakarido": 11238,
  "tadyang": 11239,
  "teritoryal": 11240,
  "ub": 11241,
  "vladimir": 11242,
  "zh": 11243,
  "deon": 11244,
  "dopam": 11245,
  "entra": 11246,
  "heta": 11247,
  "kababata": 11248,
  "makiki": 11249,
  "marke": 11250,
  "mayorya": 11251,
  "ortigas": 11252,
  "pantukoy": 11253,
  "porto": 11254,
  "spot": 11255,
  "sugpo": 11256,
  "teen": 11257,
  "yuko": 11258,
  "1863": 11259,
  "alita": 11260,
  "bohe": 11261,
  "dele": 11262,
  "inihahanda": 11263,
  "kinumpirma": 11264,
  "macau": 11265,
  "mungkahing": 11266,
  "ov": 11267,
  "pamilyar": 11268,
  "pumanaw": 11269,
  "pwede": 11270,
  "solida": 11271,
  "stran": 11272,
  "tagili": 11273,
  "thago": 11274,
  "too": 11275,
  "wt": 11276,
  "apektado": 11277,
  "bawalan": 11278,
  "cado": 11279,
  "eklip": 11280,
  "helenistiko": 11281,
  "joan": 11282,
  "kalikasang": 11283,
  "martial": 11284,
  "mbala": 11285,
  "membranong": 11286,
  "napi": 11287,
  "patutot": 11288,
  "pigilan": 11289,
  "romulus": 11290,
  "sarsa": 11291,
  "sexu": 11292,
  "tekstuwal": 11293,
  "tier": 11294,
  "zero": 11295,
  "clu": 11296,
  "democrati": 11297,
  "estiga": 11298,
  "grabitasyon": 11299,
  "hagdan": 11300,
  "hotep": 11301,
  "ipini": 11302,
  "irigasyon": 11303,
  "kampanya": 11304,
  "kilogramo": 11305,
  "lenin": 11306,
  "masahe": 11307,
  "milong": 11308,
  "mosa": 11309,
  "nagtatanghal": 11310,
  "note": 11311,
  "otel": 11312,
  "oniya": 11313,
  "parin": 11314,
  "pagtatanim": 11315,
  "roll": 11316,
  "sabaw": 11317,
  "trent": 11318,
  "upan": 11319,
  "zoe": 11320,
  "cetto": 11321,
  "cester": 11322,
  "corne": 11323,
  "hepat": 11324,
  "henetikang": 11325,
  "hepatitis": 11326,
  "isyo": 11327,
  "kuwitis": 11328,
  "labis": 11329,
  "likurang": 11330,
  "merong": 11331,
  "momozono": 11332,
  "oter": 11333,
  "pitan": 11334,
  "panlahat": 11335,
  "punong": 11336,
  "reklamo": 11337,
  "tiberius": 11338,
  "walter": 11339,
  "www": 11340,
  "years": 11341,
  "aksiyong": 11342,
  "alkimi": 11343,
  "anto": 11344,
  "bey": 11345,
  "binibini": 11346,
  "cardinal": 11347,
  "coperni": 11348,
  "dikong": 11349,
  "dimensiyonal": 11350,
  "inius": 11351,
  "liu": 11352,
  "majo": 11353,
  "natatanggap": 11354,
  "pya": 11355,
  "pinapala": 11356,
  "publikasyon": 11357,
  "sein": 11358,
  "teodoro": 11359,
  "hikayat": 11360,
  "hinulaan": 11361,
  "ipit": 11362,
  "jai": 11363,
  "liriko": 11364,
  "naku": 11365,
  "nakadepende": 11366,
  "natatak": 11367,
  "neuj": 11368,
  "piyano": 11369,
  "polusyon": 11370,
  "pulot": 11371,
[...]
