<unk>	0
<s>	0
</s>	0
▁ng	-2.96706
▁sa	-3.13906
▁na	-3.26911
▁,	-3.40596
.	-3.40784
ng	-3.45364
▁mga	-3.48571
▁ang	-3.57963
▁ay	-3.91104
▁at	-4.00899
▁@-@	-4.32126
g	-4.43012
▁Ang	-4.62854
▁	-4.65572
▁isang	-4.67629
▁(	-4.79408
▁)	-4.79654
▁o	-4.82585
▁*	-4.94415
▁"	-5.09276
▁=	-5.1815
▁ito	-5.238
▁ni	-5.3718
▁may	-5.65251
▁:	-5.67103
▁si	-5.69137
s	-5.70955
▁bilang	-5.74552
▁hindi	-5.82143
▁pag	-5.83655
▁Sa	-5.84308
▁noong	-5.8522
t	-5.89453
a	-5.90095
▁mula	-6.04327
▁pang	-6.08029
▁'	-6.10239
▁para	-6.11028
o	-6.16731
▁nito	-6.18062
▁pa	-6.20229
▁kung	-6.25347
▁tao	-6.30767
an	-6.35201
▁upang	-6.38489
▁kanyang	-6.43861
▁siya	-6.45215
▁iba	-6.4585
▁ma	-6.4998
y	-6.60814
▁niya	-6.63314
▁rin	-6.65642
▁kanilang	-6.71751
▁isa	-6.71767
▁ibang	-6.73247
▁dahil	-6.74899
▁;	-6.75371
▁Si	-6.7542
▁din	-6.75622
▁mas	-6.75785
e	-6.77757
d	-6.79082
▁lamang	-6.79231
▁kaniya	-6.81673
▁Ingles	-6.8329
▁nasa	-6.8566
▁maaaring	-6.85806
▁Pilipinas	-6.91401
l	-6.91902
▁kay	-6.92247
▁pamamagitan	-6.92577
▁bahagi	-6.93763
▁hanggang	-6.96674
▁ilang	-6.97426
▁Ito	-6.9865
▁nag	-7.01919
n	-7.0376
▁bansa	-7.03938
▁I	-7.04373
▁naging	-7.05844
▁mag	-7.07334
▁unang	-7.07595
in	-7.07897
▁ika	-7.11508
▁panahon	-7.11664
▁Noong	-7.13019
▁loob	-7.16171
▁lahat	-7.16203
▁dalawang	-7.16369
▁wika	-7.17304
▁taong	-7.18047
▁saan	-7.19871
▁ngunit	-7.21407
▁/	-7.21438
▁tinatawag	-7.21462
▁walang	-7.21695
i	-7.22513
▁naman	-7.23101
▁uri	-7.25516
▁of	-7.28572
▁babae	-7.30697
▁taon	-7.31741
▁katulad	-7.32697
▁sila	-7.33444
▁Na	-7.33803
▁salita	-7.34094
▁maraming	-7.36263
us	-7.36973
▁ginagamit	-7.37558
▁P	-7.37844
▁San	-7.38692
▁the	-7.38911
▁N	-7.39748
▁kasama	-7.42046
▁de	-7.42234
▁Ayon	-7.42293
▁i	-7.43572
▁araw	-7.43631
▁2	-7.43902
▁lungsod	-7.45512
▁katawan	-7.45596
▁pagitan	-7.46211
▁kaya	-7.49095
▁1	-7.49443
▁dito	-7.50672
▁anak	-7.51023
▁buhay	-7.51232
▁pangunahi	-7.51949
k	-7.52554
▁kilala	-7.52767
▁buong	-7.53776
▁Hesus	-7.5468
▁lalaki	-7.56724
▁karaniwang	-7.58753
▁A	-7.59537
▁bagay	-7.61492
▁sistema	-7.64686
al	-7.66523
▁itong	-7.66645
▁maging	-7.67067
▁bansang	-7.67978
▁bayan	-7.68183
ing	-7.68248
▁Mg	-7.71435
▁pagiging	-7.71515
▁malaki	-7.71796
▁naka	-7.71803
▁Estados	-7.72135
▁May	-7.72266
▁Unidos	-7.7251
▁%	-7.72816
▁ka	-7.72825
▁aaral	-7.73009
▁nila	-7.73044
▁tulad	-7.73109
▁T	-7.73482
▁gaya	-7.74743
r	-7.75096
▁habang	-7.75922
▁di	-7.76448
▁mundo	-7.76594
▁in	-7.77005
▁ayon	-7.77328
na	-7.78218
▁kabilang	-7.78399
▁a	-7.79078
▁siyang	-7.79588
▁3	-7.80735
ya	-7.81134
bawat	-7.81469
▁pangkat	-7.81499
▁pamahalaan	-7.8151
▁bago	-7.81979
▁estado	-7.82774
▁K	-7.84297
ang	-7.84724
▁Ibarra	-7.86076
▁C	-7.8664
▁batas	-7.8688
▁Maria	-7.87138
▁pangalan	-7.87709
▁E	-7.88084
▁sina	-7.88291
▁muli	-7.88639
▁bagong	-7.88711
▁lalawigan	-7.88796
▁Maynila	-7.89957
▁kapag	-7.89962
▁lugar	-7.90236
▁Romano	-7.90549
m	-7.90887
▁populasyon	-7.91542
▁sarili	-7.9195
▁Lungsod	-7.91973
▁tatlong	-7.92187
▁Dahil	-7.93241
▁paraan	-7.93599
▁Kastila	-7.93911
▁siglo	-7.93962
▁Ma	-7.94214
on	-7.94385
1	-7.95059
▁karamihan	-7.95099
▁and	-7.95665
▁pagkatapos	-7.95877
▁diyos	-7.97156
▁Hapon	-7.97818
no	-7.97852
▁ring	-7.97995
ta	-7.98304
▁Diyos	-7.98758
▁seksuwal	-7.98836
▁ilalim	-7.99498
▁S	-7.99665
▁halimbawa	-7.99852
▁pareho	-8.00073
▁B	-8.00438
▁kahulugan	-8.00682
▁Europa	-8.01297
▁Kristiyano	-8.01442
▁aklat	-8.01717
u	-8.02149
▁matatagpuan	-8.03334
pagkat	-8.036
▁M	-8.03736
▁paggamit	-8.04924
▁laban	-8.05233
▁mayroon	-8.05852
es	-8.06254
▁mayroo	-8.06354
er	-8.06703
▁Siya	-8.06853
▁kasaysayan	-8.06889
os	-8.07467
▁Hindi	-8.07923
▁Isa	-8.0845
▁katangian	-8.08758
▁pinaka	-8.09258
▁sakit	-8.09652
▁4	-8.09904
▁t	-8.11283
▁Timog	-8.11293
p	-8.11347
sa	-8.12378
▁ding	-8.13737
▁pagka	-8.13742
to	-8.139
▁pagkakaroon	-8.14072
▁pina	-8.14406
▁anyo	-8.14716
▁5	-8.16026
ma	-8.16554
▁bata	-8.17038
▁15	-8.17359
▁hayop	-8.17821
▁tubig	-8.17908
▁II	-8.17929
▁Bago	-8.18752
▁The	-8.18812
la	-8.18833
▁Pablo	-8.19022
▁apat	-8.19248
▁panahong	-8.19373
2	-8.19666
▁20	-8.19713
▁tungkol	-8.2013
▁dapat	-8.20389
▁Juan	-8.20541
is	-8.2069
▁higit	-8.207
▁hilaga	-8.20966
▁agham	-8.21039
▁16	-8.21489
▁CE	-8.2152
▁binubuo	-8.21751
ed	-8.21896
▁Asya	-8.21932
h	-8.22017
▁Isang	-8.22273
▁kapangyarihan	-8.22526
▁10	-8.22727
ka	-8.22935
▁sinauna	-8.23291
▁Katoliko	-8.23657
▁Kabilang	-8.2404
▁dating	-8.2439
3	-8.24615
▁opisyal	-8.24656
▁Espanya	-8.25772
▁relihiyon	-8.2591
▁partikular	-8.26036
▁maka	-8.26149
▁Ka	-8.26294
▁6	-8.26563
▁ngayon	-8.26759
▁Nag	-8.27177
▁subalit	-8.28094
▁mataas	-8.28227
▁Republika	-8.28572
▁ama	-8.28644
▁iyon	-8.28668
ia	-8.29338
▁taga	-8.29557
▁ugnayan	-8.29893
▁H	-8.30444
▁Mayroon	-8.30529
▁pinuno	-8.30725
▁12	-8.3076
▁kasapi	-8.30898
▁Pilipino	-8.3117
▁deg	-8.31462
▁rehiyon	-8.3188
▁kahit	-8.32473
▁kinabibilangan	-8.32678
▁14	-8.33439
▁Hudyo	-8.3384
▁kanluran	-8.33868
▁ganito	-8.34015
▁anumang	-8.34531
▁ina	-8.35176
▁huling	-8.35814
le	-8.35868
▁sumusunod	-8.36389
▁nina	-8.3651
▁Griyego	-8.36834
han	-8.37061
▁maliit	-8.37255
▁pook	-8.37464
▁Kung	-8.37512
▁Papa	-8.37654
▁Amerikano	-8.37764
▁mahalaga	-8.37901
c	-8.38031
▁19	-8.38214
da	-8.38327
▁Bibliya	-8.38638
▁bahay	-8.38742
▁simula	-8.39661
▁7	-8.39705
▁Tsina	-8.39875
▁kasalukuyang	-8.39986
▁man	-8.40096
▁D	-8.40396
▁ginawa	-8.40724
▁teoriya	-8.40983
▁tumutuko	-8.41588
▁itinuturi	-8.42153
yo	-8.42227
▁pagkain	-8.42592
▁suma	-8.42753
▁Maaari	-8.42912
ro	-8.4296
▁Pag	-8.43581
▁simbahan	-8.43656
▁17	-8.43908
▁G	-8.44081
▁timog	-8.44545
▁Italya	-8.45257
ha	-8.45418
▁larangan	-8.45617
▁to	-8.45752
▁sanhi	-8.46087
ra	-8.46089
▁Padre	-8.46089
▁Pransiya	-8.46125
ko	-8.46627
▁wala	-8.46661
▁8	-8.46789
▁bagaman	-8.46827
▁Marcos	-8.46922
▁La	-8.47736
▁pinag	-8.48063
▁Bilang	-8.48092
▁Tipan	-8.48219
▁kapatid	-8.48393
▁gawain	-8.48504
▁ginamit	-8.48584
▁nagmula	-8.48613
▁malapit	-8.48757
▁kamatayan	-8.48877
▁maaari	-8.4892
▁dugo	-8.4946
▁digmaan	-8.49541
um	-8.49675
▁proseso	-8.49769
▁ekonomiya	-8.49886
▁paaralan	-8.50347
▁Pa	-8.50858
ri	-8.50937
▁kultura	-8.51166
li	-8.51401
▁minsan	-8.51506
▁pangalang	-8.5225
▁Simbahang	-8.52606
▁18	-8.53008
halos	-8.53227
▁kaugnayan	-8.53294
▁nagsimula	-8.53379
▁akda	-8.53495
▁hari	-8.53645
▁Imperyo	-8.53652
▁halaman	-8.5382
▁9	-8.53847
▁organismo	-8.54181
▁tunay	-8.54542
▁selula	-8.5455
▁13	-8.54659
▁O	-8.54835
▁lipunan	-8.54918
▁pagbabago	-8.5513
▁Gayunpaman	-8.55166
▁nangangahulugan	-8.55793
▁ilan	-8.56324
▁pamilya	-8.56694
▁11	-8.56921
▁kailangan	-8.56924
▁daigdig	-8.57619
▁pati	-8.57627
▁Nang	-8.5763
▁Kaharian	-8.57967
▁pangyayari	-8.58008
▁hinggi	-8.58334
▁Roma	-8.58442
▁kaysa	-8.58516
▁halip	-8.58681
▁c	-8.59012
te	-8.59037
▁Amerika	-8.59376
re	-8.59723
▁paniniwala	-8.59866
▁kulay	-8.60013
▁lupa	-8.60213
▁Hilagang	-8.60376
▁p	-8.60666
▁antas	-8.60771
▁ikalawa	-8.6087
▁lalo	-8.60988
▁orihinal	-8.61139
▁BCE	-8.61146
▁nagbibigay	-8.61326
▁ipinanganak	-8.61542
▁asawa	-8.61647
▁m	-8.61883
▁pinakamalaking	-8.62053
▁Halimbawa	-8.62168
▁samantala	-8.62311
▁Latin	-8.62609
▁namatay	-8.62625
▁Mayo	-8.63153
▁Marami	-8.63353
,	-8.63503
lo	-8.63563
en	-8.63703
b	-8.63867
▁L	-8.63947
▁silangan	-8.64587
▁ano	-8.64863
▁kaso	-8.64979
▁layunin	-8.65018
▁Kristiyanismo	-8.65436
▁ibig	-8.65774
▁kanila	-8.65858
▁nagkaroon	-8.66076
w	-8.66083
tong	-8.66124
▁s	-8.66175
▁gawa	-8.66213
▁gamit	-8.66229
▁pagkaka	-8.66582
▁pulo	-8.66925
▁Pagkatapos	-8.66951
▁gumagamit	-8.67274
▁Mateo	-8.67287
▁gawaing	-8.67341
ne	-8.67585
▁d	-8.67738
▁rito	-8.67739
as	-8.68291
▁Silangang	-8.68366
▁Jose	-8.68484
▁pamamaraan	-8.68554
▁buwan	-8.68657
▁ipina	-8.69017
▁grupo	-8.69242
▁um	-8.69369
▁pagkakaiba	-8.69886
▁silang	-8.70072
▁Bagaman	-8.7029
▁Tinatawag	-8.7038
▁Muslim	-8.7047
▁kadalasa	-8.70558
do	-8.70561
▁manlalaro	-8.70745
▁pananaw	-8.71848
▁lupain	-8.71902
id	-8.72075
▁tangi	-8.72319
ismo	-8.72319
▁marami	-8.72668
▁moderno	-8.72697
▁Pranses	-8.73947
▁Alemanya	-8.73995
▁Marso	-8.74043
ic	-8.74201
ga	-8.74466
▁kuwento	-8.74542
ong	-8.747
▁naglalaman	-8.7476
▁sinasabi	-8.74833
▁malawak	-8.74868
▁Kapitan	-8.75039
▁kataga	-8.75086
▁pan	-8.75309
▁del	-8.75332
▁Enero	-8.75535
▁labas	-8.75543
▁e	-8.75658
▁Abril	-8.75836
▁Aprika	-8.75871
▁Europeo	-8.75889
▁batay	-8.7593
▁pangkalahatang	-8.76151
▁kanya	-8.76162
se	-8.76431
man	-8.76436
▁30	-8.76477
▁gayon	-8.76811
▁gamot	-8.76897
▁dahilan	-8.76986
▁sukat	-8.7713
▁21	-8.77576
▁Disyembre	-8.77647
▁milyon	-8.77671
▁katumbas	-8.77978
▁itinatag	-8.78333
▁Pangulo	-8.78692
▁katao	-8.78717
▁kasarian	-8.78763
▁palabas	-8.78795
▁kasalukuyan	-8.78974
▁pagpapa	-8.79312
▁halaga	-8.79342
▁ini	-8.79469
▁Subali	-8.79698
▁Nguni	-8.79832
▁y	-8.7991
▁edad	-8.80124
▁indibidwal	-8.80293
▁katutubo	-8.80445
▁Israel	-8.80525
▁Hunyo	-8.80563
dulot	-8.80999
▁panlipunan	-8.81183
giging	-8.81239
▁la	-8.81244
hang	-8.81345
▁Santa	-8.81544
▁mamamayan	-8.81625
▁dagat	-8.81641
▁ko	-8.81665
▁oras	-8.82084
▁Go	-8.82128
▁sining	-8.8232
▁Aleman	-8.82323
▁paggawa	-8.82729
▁pampolitika	-8.82838
▁Tagalog	-8.82925
▁pilosopiya	-8.83044
▁tungkulin	-8.83286
▁Ehipto	-8.83338
▁V	-8.83458
▁ari	-8.83469
▁sariling	-8.83574
▁paano	-8.83791
▁Oktubre	-8.83875
▁kapwa	-8.83876
▁25	-8.83977
z	-8.84282
▁natatangi	-8.8452
▁Hulyo	-8.84694
▁al	-8.84771
▁tumukoy	-8.84852
hin	-8.85019
4	-8.85091
▁Agosto	-8.85309
▁paksa	-8.85608
▁kaugnay	-8.85637
▁batang	-8.85714
▁edukasyon	-8.85743
▁R	-8.86069
si	-8.86267
▁mo	-8.86278
▁Setyembre	-8.86496
▁Aklat	-8.86651
▁III	-8.86756
mi	-8.86771
▁U	-8.86855
▁anim	-8.86899
▁kabisera	-8.87122
▁nagpapakita	-8.87129
▁diwa	-8.87385
▁umiiral	-8.87428
▁likas	-8.87462
▁dalawa	-8.87506
▁In	-8.87722
▁iisa	-8.87777
▁enerhiya	-8.87807
▁Korea	-8.87976
▁mata	-8.88089
▁Pebrero	-8.88132
▁isinulat	-8.88158
▁Gitna	-8.88531
ly	-8.88659
▁posisyon	-8.88729
▁Don	-8.88979
ki	-8.89231
▁gulang	-8.8929
▁resulta	-8.89394
▁teksto	-8.89559
pa	-8.89773
▁epekto	-8.90034
▁balat	-8.90241
▁F	-8.90426
▁Nobyembre	-8.9046
▁pagtatalik	-8.9053
▁Unang	-8.90845
▁sinabi	-8.90928
▁limang	-8.9131
▁Digmaa	-8.91359
▁pangkaraniwan	-8.91523
▁At	-8.91599
▁Rizal	-8.91616
▁naniniwala	-8.91695
▁kamay	-8.92077
▁milyo	-8.92103
▁dekada	-8.92143
di	-8.9247
it	-8.9272
▁madalas	-8.92756
▁dumating	-8.92961
▁Nagkakaisa	-8.93053
▁sumunod	-8.9315
▁Pedro	-8.93168
me	-8.93225
abot	-8.93391
▁militar	-8.94048
▁re	-8.94197
bi	-8.94221
▁pari	-8.94305
▁telebisyon	-8.94356
▁22	-8.94361
▁ibabaw	-8.94452
ba	-8.94501
▁John	-8.94518
▁kalagayan	-8.94587
▁puno	-8.94669
▁Lucas	-8.94685
▁Pambansa	-8.94858
▁matapos	-8.9487
▁bumubuo	-8.94975
ku	-8.94978
ti	-8.94993
▁Elias	-8.95132
▁New	-8.9515
▁kabuuan	-8.95219
▁labis	-8.95403
▁ulo	-8.95427
▁mababang	-8.95438
▁nahahati	-8.95452
▁De	-8.95574
or	-8.95764
▁mabuti	-8.95806
▁magkaroon	-8.95953
▁malakas	-8.96163
▁pambansang	-8.96172
▁Dagat	-8.96245
▁gumawa	-8.96305
pi	-8.96314
▁kaharian	-8.96431
▁klase	-8.9646
▁tuwi	-8.96593
▁makabago	-8.96617
▁imperyo	-8.9664
x	-8.96921
▁alam	-8.97225
▁teritoryo	-8.97291
▁tradisyon	-8.97374
hi	-8.97682
▁problema	-8.97812
▁x	-8.97814
▁karamdaman	-8.97852
▁Hudaismo	-8.97868
▁Islam	-8.98033
▁tama	-8.98221
ay	-8.98497
▁magmul	-8.98518
▁papel	-8.98579
ni	-8.98584
▁DNA	-8.98731
▁patakaran	-8.98792
▁laro	-8.98858
▁Kapag	-8.9901
▁panitikan	-8.99239
▁Simbahan	-8.99315
▁dantaon	-8.99337
▁sangay	-8.99434
▁una	-8.99467
▁pisikal	-8.99704
▁Para	-8.99714
mo	-8.99951
at	-9.00175
▁Ikalawa	-9.00231
▁pagbibigay	-9.00241
▁24	-9.00255
▁kahirapan	-9.00338
▁kababaihan	-9.00368
▁kawalan	-9.00574
▁lokal	-9.00621
▁comune	-9.00684
th	-9.01023
▁Di	-9.01134
▁tahanan	-9.01179
▁punong	-9.01449
▁lang	-9.01654
▁Batas	-9.01873
▁barangay	-9.02655
▁Silangan	-9.02672
▁papunta	-9.02696
▁karaniwan	-9.02949
▁mahigit	-9.03328
▁trabaho	-9.03367
▁gamitin	-9.03443
▁tawag	-9.03554
▁gayundin	-9.03561
▁pangalawa	-9.03985
▁lumitaw	-9.03985
▁mismo	-9.03991
▁pamayanan	-9.0409
▁hangin	-9.041
▁nakapag	-9.04142
▁espesye	-9.04303
▁magulang	-9.04332
▁maari	-9.04341
▁Britanya	-9.04431
▁is	-9.04489
iko	-9.04566
f	-9.04634
de	-9.04956
▁pinagmulan	-9.05011
▁bakterya	-9.05114
▁kapanahunan	-9.05245
▁manunulat	-9.0525
▁makapag	-9.05371
▁pinaniniwalaan	-9.05458
▁pakikipag	-9.05631
▁sabihin	-9.05952
ar	-9.06104
▁27	-9.06203
▁Wikang	-9.06258
▁hangganan	-9.06452
▁produkto	-9.06558
▁papa	-9.06607
▁b	-9.06689
▁Hapones	-9.06818
syon	-9.06905
▁Herusalem	-9.07133
▁ebolusyon	-9.07479
▁Ebanghelyo	-9.07484
▁distrito	-9.07539
▁huli	-9.07788
el	-9.0784
▁hukbo	-9.07947
▁talaan	-9.08048
▁kina	-9.08095
▁gene	-9.08355
▁ebidensiya	-9.09058
▁nilang	-9.09455
▁linya	-9.09534
▁Nagi	-9.09574
▁noon	-9.09796
▁maliliit	-9.10034
▁pelikula	-9.10057
▁nangyari	-9.10193
▁human	-9.10209
▁Kaya	-9.10222
▁patuloy	-9.10326
▁Damaso	-9.10662
▁siyentipiko	-9.1068
▁musika	-9.10875
▁tiyak	-9.10947
▁kalikasan	-9.10998
▁sibil	-9.1103
▁gabi	-9.11119
so	-9.11282
▁Haba	-9.11379
▁Unyon	-9.11534
idad	-9.11608
▁daan	-9.11657
▁tinataya	-9.11793
▁Bayan	-9.12215
▁pangulo	-9.12231
▁Rusya	-9.12766
▁ba	-9.12841
▁ginagawa	-9.12843
▁buto	-9.12877
▁madali	-9.12954
▁patungo	-9.13373
▁bato	-9.13403
▁modelo	-9.1381
▁pamumuno	-9.13867
I	-9.14189
▁23	-9.14198
▁mai	-9.14491
▁Pandaigdig	-9.1451
▁pananampalataya	-9.14625
ista	-9.14682
▁mabilis	-9.14725
▁lalake	-9.14781
▁Re	-9.14874
▁pagkakataon	-9.15001
lu	-9.15076
▁impormasyon	-9.15089
▁Lumang	-9.15333
▁pangangailangan	-9.15361
▁Buddha	-9.15518
▁kasalanan	-9.15661
il	-9.15672
▁katayuan	-9.15733
▁Gawa	-9.15748
▁tinawag	-9.15925
▁Konseho	-9.15995
▁programa	-9.16132
co	-9.16147
▁dulo	-9.16228
ian	-9.16359
▁Pero	-9.16397
ano	-9.16397
▁mahaba	-9.16403
▁ikatlo	-9.16464
▁Tsino	-9.16529
▁unti	-9.16596
▁Ba	-9.1669
▁sunod	-9.1686
ad	-9.16905
▁yugto	-9.16909
▁Pang	-9.16973
▁konsepto	-9.17054
▁hugis	-9.17094
ch	-9.17132
▁binigyan	-9.17442
▁2000	-9.17601
▁larawan	-9.17618
▁malaya	-9.17753
▁makikita	-9.17846
A	-9.17953
▁Sinabi	-9.18033
▁kalaunang	-9.18079
▁liwanag	-9.18106
▁matanda	-9.18365
▁gusali	-9.18443
▁28	-9.18553
▁sapat	-9.18743
▁Mula	-9.19015
▁pam	-9.19061
ce	-9.19286
▁kaalaman	-9.19381
▁tauhan	-9.19408
▁literal	-9.19463
▁nakikilala	-9.1954
▁ideya	-9.19676
ter	-9.19809
▁k	-9.19946
▁Heneral	-9.20001
ru	-9.20234
▁...	-9.20276
▁kakayahang	-9.20292
▁maaga	-9.20506
▁obispo	-9.20676
▁ninuno	-9.20701
▁artista	-9.20836
▁pagkaraan	-9.20878
▁26	-9.20912
▁India	-9.20995
▁magiging	-9.21001
▁Irlanda	-9.2101
▁nagpa	-9.21061
▁J	-9.21085
▁puso	-9.21135
▁nagbigay	-9.21613
▁serbisyo	-9.21786
▁kalayaan	-9.21821
▁panganib	-9.22209
▁lakas	-9.22335
go	-9.22489
▁Panahon	-9.22528
▁sari	-9.22573
▁damdamin	-9.22609
▁titi	-9.22674
▁f	-9.23026
▁skolar	-9.23114
▁unlad	-9.23135
▁ibinigay	-9.23298
wa	-9.2332
▁putbol	-9.23346
▁km	-9.23434
▁nakaraan	-9.23465
▁Naka	-9.23605
▁sentro	-9.23684
▁matematika	-9.23723
▁salaysay	-9.2389
▁sulat	-9.23982
▁malalaki	-9.2419
▁nilalang	-9.24265
▁partido	-9.24672
▁napaka	-9.24845
▁relasyon	-9.24853
▁mababa	-9.24975
▁Al	-9.25105
▁ukol	-9.25288
▁kinikilala	-9.2535
▁ebanghelyo	-9.25667
▁kaibigan	-9.25696
▁natural	-9.25831
▁kalusugan	-9.25852
▁tulong	-9.26213
▁organisasyon	-9.26278
▁pakikipagtalik	-9.26463
▁for	-9.26691
▁Santiago	-9.2678
▁kakayahan	-9.2703
▁ugat	-9.27427
▁titik	-9.27485
▁World	-9.27503
▁nakaka	-9.27533
tu	-9.27596
▁Me	-9.27649
▁pandaigdigan	-9.27693
▁ilog	-9.27715
utan	-9.27736
▁Ta	-9.27857
▁Gresya	-9.2788
lot	-9.27992
▁kundi	-9.2803
▁talaga	-9.28062
▁nakita	-9.28109
▁pamantayan	-9.28383
tapos	-9.28462
▁paglikha	-9.28658
▁Ginagamit	-9.28773
ton	-9.28783
▁isip	-9.28804
▁kaunti	-9.28835
▁Quezon	-9.28909
▁Griyegong	-9.29068
▁pagsusuri	-9.29333
▁Sobyet	-9.29456
▁Muhammad	-9.29483
▁kapaligiran	-9.29843
▁kilometro	-9.29868
▁Mas	-9.30124
▁Kanluran	-9.30739
▁Ilog	-9.30756
▁hanay	-9.30833
▁liham	-9.30837
▁paa	-9.31068
▁Ha	-9.31307
▁ipinaganak	-9.31309
▁alagad	-9.31343
▁natagpuan	-9.31347
▁maliban	-9.31421
▁gitna	-9.3161
▁species	-9.31647
▁Li	-9.31672
▁be	-9.3176
▁Karamihan	-9.31784
▁Da	-9.3182
▁manga	-9.32005
▁Pina	-9.32096
▁tina	-9.3223
▁Hebreo	-9.32233
▁kasunduan	-9.32545
ero	-9.32691
▁Emperador	-9.32713
▁silangang	-9.32855
▁tagapag	-9.33087
▁magpa	-9.33099
▁elemento	-9.33105
5	-9.33428
▁sakop	-9.33434
▁suliranin	-9.33599
▁kabataan	-9.33709
▁pormal	-9.33786
bu	-9.34158
ry	-9.34165
▁Ni	-9.34314
▁100	-9.34606
▁ulit	-9.34719
▁Sulat	-9.34812
▁impluwensiya	-9.35028
▁nabubuhay	-9.35223
▁kada	-9.35472
▁salapi	-9.35488
▁as	-9.35506
▁nilikha	-9.35537
C	-9.35723
▁pagdating	-9.35961
su	-9.35973
▁panlabas	-9.36028
▁gawi	-9.36055
▁tanyag	-9.36254
▁pinakamataas	-9.36287
bo	-9.36304
▁no	-9.3633
unang	-9.36351
▁Sinauna	-9.36469
▁punto	-9.36492
▁pamilihan	-9.3655
▁tinutukoy	-9.36553
▁katotohanan	-9.36694
▁kinakailangan	-9.36815
▁panloob	-9.36818
▁BK	-9.36856
▁gumagawa	-9.36905
▁Ortodokso	-9.36974
▁saring	-9.37133
▁2010	-9.37298
▁init	-9.3743
▁banal	-9.37496
▁W	-9.37503
▁mukha	-9.37715
mu	-9.37726
▁HIV	-9.37944
▁relihiyoso	-9.38007
▁sintomas	-9.38031
▁tula	-9.3807
kesa	-9.38116
style	-9.38151
▁seryeng	-9.38295
▁University	-9.3854
▁lumikha	-9.38661
▁senso	-9.3879
▁Kalak	-9.39064
▁kompanya	-9.39081
▁baybayin	-9.39166
▁binata	-9.39332
▁Bukod	-9.39567
▁utak	-9.39573
▁namang	-9.39725
vi	-9.39759
▁linggo	-9.39899
▁2007	-9.40169
▁Lalawigan	-9.40234
▁iisip	-9.40367
▁Ko	-9.40432
▁kondisyon	-9.4047
▁40	-9.40648
ke	-9.4066
▁materyal	-9.40721
▁Le	-9.40803
he	-9.40875
▁Aquino	-9.40908
▁sanggol	-9.40953
▁Espanyol	-9.40969
▁Hudas	-9.41032
iya	-9.41112
▁Santo	-9.41177
▁Banal	-9.41232
▁kura	-9.41243
▁masa	-9.41247
▁daantaon	-9.4137
▁libingan	-9.4144
▁kalahati	-9.4156
▁aral	-9.41569
ca	-9.41631
▁da	-9.41685
am	-9.41928
▁Ama	-9.41976
▁puti	-9.41992
ation	-9.42029
▁kumulang	-9.42083
▁Donya	-9.4209
va	-9.42227
▁itaas	-9.42282
ol	-9.42459
ine	-9.42479
▁Haring	-9.42654
▁Michael	-9.42705
▁El	-9.42722
ve	-9.42753
▁2008	-9.42808
▁ako	-9.42951
▁gawin	-9.43045
▁Sila	-9.43116
▁Walang	-9.43195
▁naganap	-9.43364
▁29	-9.43427
▁lumilitaw	-9.43523
▁homoseksuwal	-9.4355
▁posible	-9.43554
▁daang	-9.43631
wi	-9.43838
▁nakikita	-9.43996
▁aari	-9.44047
asyon	-9.44053
st	-9.44083
▁naninirahan	-9.44156
▁tunog	-9.44196
v	-9.44202
▁industriya	-9.44282
▁sundalo	-9.44313
▁Bo	-9.44337
▁pamamahala	-9.44409
son	-9.44466
▁totoo	-9.44473
▁gumami	-9.44642
▁damit	-9.4494
▁2009	-9.45006
▁impeksiyon	-9.45102
▁gaano	-9.45183
▁display	-9.45207
▁Constantine	-9.45271
▁Luzon	-9.45305
▁tungo	-9.45561
▁Pamantasan	-9.45721
ate	-9.45775
▁sekta	-9.45955
▁libo	-9.46071
▁nangyayari	-9.4611
▁Kasama	-9.4643
▁karanasan	-9.46537
▁labanan	-9.46824
▁paglalakbay	-9.4694
un	-9.46968
▁pisika	-9.46979
im	-9.47126
▁nagpapa	-9.47211
rating	-9.47399
▁karagdagan	-9.47466
▁dibdib	-9.47468
▁Samantala	-9.47543
▁kilusan	-9.47543
▁kasal	-9.477
S	-9.48245
io	-9.48314
▁samahan	-9.48345
▁Lu	-9.48497
▁Manila	-9.48639
▁dami	-9.48823
▁kasulatan	-9.48865
po	-9.48959
▁ginto	-9.49047
@	-9.49126
ot	-9.49175
▁halalan	-9.49231
▁masama	-9.49265
▁negosyo	-9.4939
▁kabila	-9.49416
▁kadalasan	-9.49498
▁h	-9.49565
▁nanatili	-9.49566
▁Alto	-9.49605
▁Sisa	-9.49662
▁tila	-9.49664
▁ugali	-9.49838
▁Dakila	-9.50036
▁United	-9.50138
▁mi	-9.50175
▁normal	-9.50215
6	-9.50295
ck	-9.50533
▁pamumuhay	-9.50611
▁nais	-9.5063
▁diin	-9.50757
▁ca	-9.50823
▁kinatawan	-9.50885
▁pagtaas	-9.5091
▁emperador	-9.50914
▁estasyon	-9.50964
▁makina	-9.50973
▁Mo	-9.51065
▁n	-9.51115
▁haba	-9.51126
▁serye	-9.51364
▁miyembro	-9.51425
▁mapa	-9.51429
▁pitong	-9.51734
▁asido	-9.52011
▁Sur	-9.52163
ho	-9.52228
▁mahirap	-9.52297
▁nagawa	-9.52304
▁IV	-9.52697
ur	-9.52717
▁bi	-9.52899
▁Ca	-9.52925
▁Inglatera	-9.52953
▁Diego	-9.5301
▁album	-9.53181
▁ganap	-9.53274
▁pagsasanay	-9.53286
▁paglalarawan	-9.53286
▁bin	-9.53562
▁nangangailangan	-9.53571
▁isipan	-9.5358
▁kilos	-9.53669
▁mang	-9.53714
▁katawagan	-9.53729
▁isinasagawa	-9.53821
▁galing	-9.53828
▁Estado	-9.53859
▁aralin	-9.53916
▁Filipino	-9.53929
▁sub	-9.54134
▁sinasalita	-9.54135
▁karapatan	-9.54371
▁depresyon	-9.54509
▁50	-9.54518
▁kasanayan	-9.54794
rentino	-9.54841
▁kaisipan	-9.54898
▁kapuluan	-9.55003
▁payak	-9.55083
▁alang	-9.5522
▁tatak	-9.55279
▁dakila	-9.55286
▁pamagat	-9.55393
▁presyo	-9.55471
▁nagtatag	-9.55483
▁iskolar	-9.55499
▁pasyente	-9.55677
▁tum	-9.55679
▁kabahayan	-9.55713
▁Ro	-9.5574
▁Kanlura	-9.55748
▁karagdagang	-9.5612
▁anyong	-9.56153
▁fossil	-9.56392
▁Anak	-9.56556
▁malamang	-9.56778
▁Koreano	-9.56818
▁daanan	-9.56861
▁disiplina	-9.56894
▁Norte	-9.56898
▁beses	-9.5704
▁temperatura	-9.57148
▁Arabo	-9.57178
▁kompyuter	-9.57257
▁itlog	-9.57258
▁Philippine	-9.57287
▁Abruzzo	-9.57329
▁Giulia	-9.57437
▁natuklasan	-9.57475
▁nakilala	-9.57506
ak	-9.57526
▁maganda	-9.57529
▁An	-9.57539
▁nagsasaa	-9.57598
▁Adige	-9.57619
▁paggamot	-9.57625
▁suso	-9.57679
pu	-9.57765
▁Unibersidad	-9.57946
▁Sudtirol	-9.58018
▁mapag	-9.58119
▁tag	-9.58138
▁2005	-9.58175
▁Venezia	-9.58274
▁pinamumunuan	-9.58384
▁karne	-9.5841
▁lebel	-9.58457
P	-9.58874
Lombardy	-9.5888
▁York	-9.58934
▁santo	-9.59001
▁pananaliksik	-9.59008
▁Kilala	-9.59009
▁Molise	-9.59081
Veneto	-9.59084
▁kaugalian	-9.59162
sh	-9.59207
lay	-9.5928
▁bunga	-9.59304
▁pagpili	-9.59375
▁Se	-9.59483
▁henetiko	-9.59523
▁pangkalahatan	-9.59702
Umbria	-9.59747
▁Basilio	-9.59749
▁Aosta	-9.59932
▁Israelita	-9.59951
▁termino	-9.60079
ah	-9.60173
▁Araw	-9.60204
▁bilyon	-9.60274
▁pantao	-9.60307
ran	-9.60399
▁31	-9.60454
▁nagaganap	-9.60605
▁Matatagpuan	-9.60606
▁aangkin	-9.60756
▁guro	-9.60857
M	-9.6086
Tuskanya	-9.60865
▁pero	-9.60875
▁isda	-9.61045
▁So	-9.61064
lin	-9.6109
▁Lazio	-9.61128
Marche	-9.61207
D	-9.61341
▁Bu	-9.61407
▁Su	-9.61453
▁Dr	-9.61572
▁inilalarawan	-9.6159
▁teknolohiya	-9.61619
nong	-9.61807
▁mitolohiya	-9.61961
▁Bansa	-9.62016
▁humigit	-9.62074
Emilia	-9.62337
▁He	-9.62386
▁masel	-9.6243
▁matindi	-9.62646
▁institusyon	-9.62684
▁Ri	-9.62711
em	-9.62741
▁kagamitan	-9.62759
▁Canada	-9.6276
▁karapatang	-9.62766
▁bersiyon	-9.62798
ir	-9.62804
▁kanon	-9.62807
▁sangkap	-9.6288
et	-9.62887
▁nabuo	-9.62925
▁Romagna	-9.6299
▁pumasok	-9.62995
▁doktrina	-9.63018
▁Calabria	-9.63026
▁anime	-9.63101
Sicilia	-9.6329
Liguria	-9.63298
Sardinia	-9.63306
Piemonte	-9.63306
▁nagsasabi	-9.63328
Lambak	-9.63462
▁Abenida	-9.63487
Apulia	-9.63526
▁kalakalan	-9.63661
Friuli	-9.63757
Basilicata	-9.6376
▁nauna	-9.63834
▁publiko	-9.63848
▁pantay	-9.63868
▁kasunod	-9.63916
▁pananakop	-9.64108
▁Binubuo	-9.64117
▁2011	-9.64169
▁tanda	-9.64183
▁parirala	-9.64183
▁Man	-9.64205
▁laman	-9.64279
Campania	-9.64281
▁aspeto	-9.64299
▁Pan	-9.64304
▁sum	-9.64327
▁tala	-9.64336
▁kaganapan	-9.64338
sta	-9.64407
▁kumakatawan	-9.64494
▁kalinangan	-9.64532
▁nakatuon	-9.6454
▁baka	-9.64616
▁Ruso	-9.64744
▁kauna	-9.64833
▁uniberso	-9.64922
▁Ilan	-9.64935
▁dalubhasa	-9.64983
▁California	-9.65
▁kailan	-9.65147
▁Mehiko	-9.65158
▁produksiyon	-9.65196
ella	-9.65204
hu	-9.65233
B	-9.65278
▁Mi	-9.6542
▁Be	-9.65566
▁ekonomika	-9.65875
▁Shi	-9.65936
▁Ga	-9.66078
ana	-9.66115
▁International	-9.6618
▁paligid	-9.662
ino	-9.6623
▁Homo	-9.6623
▁Hari	-9.66478
▁Ipina	-9.66512
▁Digmaan	-9.66565
▁pro	-9.66655
▁malawaka	-9.66727
▁pre	-9.66765
▁baga	-9.66779
za	-9.66789
▁Karaniwa	-9.66956
▁yunit	-9.66976
▁labi	-9.67182
les	-9.67245
▁awit	-9.67339
▁2006	-9.67432
▁petsa	-9.67566
▁Birhen	-9.67575
pe	-9.67608
▁Kanluranin	-9.67673
▁ha	-9.67756
▁North	-9.67978
▁Co	-9.68106
▁Nasa	-9.68141
▁Tiago	-9.68179
▁Punong	-9.68232
▁base	-9.6826
▁usapan	-9.68336
▁hiwalay	-9.68449
▁pangkasarian	-9.685
▁pagkamatay	-9.68592
ment	-9.68667
▁sahod	-9.68676
▁kayarian	-9.68677
▁Palaiologos	-9.68743
▁Po	-9.68747
7	-9.6878
▁paglago	-9.68992
▁matagumpay	-9.69075
▁kapanganakan	-9.69191
▁Intsik	-9.69476
▁Pulo	-9.6948
▁Panginoon	-9.69599
▁alitan	-9.69846
▁butas	-9.69917
▁Monferrato	-9.7005
▁City	-9.70054
▁kabuua	-9.70192
▁pansin	-9.70234
▁itim	-9.70388
▁bituin	-9.70421
▁nauugnay	-9.7048
▁katuruan	-9.70547
▁artikulo	-9.70876
du	-9.70896
dor	-9.70929
▁doon	-9.70995
▁Bi	-9.71021
▁nagbabago	-9.71167
▁Kahi	-9.71271
▁makita	-9.71433
▁l	-9.71482
▁lansangan	-9.715
▁politika	-9.7152
▁Kanya	-9.71718
▁taas	-9.71789
▁National	-9.71801
▁Pagkaraan	-9.71834
katanggap	-9.71871
▁Wikipedia	-9.71876
be	-9.71968
▁atomo	-9.71992
▁pagtanggap	-9.72045
▁lumabas	-9.72129
▁kalaunan	-9.72201
▁Karagatan	-9.72253
▁salin	-9.72337
▁pwersa	-9.72466
▁on	-9.72479
ci	-9.72532
▁palagi	-9.72549
▁bumalik	-9.72656
▁kautusan	-9.72801
▁suporta	-9.72886
▁bundok	-9.7296
akit	-9.73038
▁kawalang	-9.73065
▁pin	-9.73091
▁huwa	-9.73099
▁Salvi	-9.73185
▁kontrol	-9.73223
▁unibersidad	-9.73267
▁seleksiyon	-9.73309
▁mahahalaga	-9.73359
gpapahiwatig	-9.73551
▁barko	-9.73589
▁naglalarawan	-9.73608
▁Pinag	-9.73646
▁maikling	-9.73867
▁metro	-9.73896
▁simple	-9.73986
yan	-9.74076
j	-9.74112
one	-9.74332
ion	-9.74519
sabing	-9.74529
▁langis	-9.74568
▁bandang	-9.7462
▁Hangul	-9.74636
▁gilid	-9.74674
▁Constantino	-9.74678
▁gitnang	-9.74686
ina	-9.74718
▁proyekto	-9.74764
▁tribo	-9.74794
▁Indonesia	-9.74837
▁bakuna	-9.74844
▁kalakal	-9.74949
▁planeta	-9.75046
▁dayuhan	-9.75285
▁kamag	-9.75291
ja	-9.75313
▁konseho	-9.75326
▁Guinea	-9.75326
▁pinakama	-9.75395
▁legal	-9.75414
▁makapangyarihan	-9.75416
▁bukas	-9.75435
▁malinaw	-9.75436
▁or	-9.75439
▁tuwiran	-9.75627
homoseksuwalidad	-9.75813
▁prinsipyo	-9.75821
▁2001	-9.75862
▁Paris	-9.76019
▁Nagsimula	-9.76071
▁tagasunod	-9.7608
gsagawa	-9.76115
▁Budismo	-9.76153
▁aawit	-9.76159
▁David	-9.76197
▁James	-9.76284
▁Polonya	-9.76284
▁pilosopo	-9.76415
▁Gales	-9.76417
▁sinuman	-9.76481
▁To	-9.7649
▁0	-9.76581
▁galaw	-9.76588
▁ref	-9.76658
▁Y	-9.76795
▁kahoy	-9.76898
▁tumaas	-9.76911
▁nakabatay	-9.76987
▁katawagang	-9.77042
▁siyudad	-9.77046
chi	-9.77055
▁bakit	-9.7718
▁molekula	-9.77248
▁ipa	-9.77285
▁propeta	-9.7805
▁kandidato	-9.78139
▁rate	-9.7815
▁anti	-9.78269
▁Ku	-9.78284
▁mahusay	-9.78326
▁malaman	-9.78434
mba	-9.78526
▁kita	-9.78534
per	-9.78706
U	-9.78712
ilalim	-9.78719
▁Kapulungan	-9.78809
▁likod	-9.7881
▁klasiko	-9.78899
▁ngipin	-9.78911
▁katimuga	-9.78916
▁aasal	-9.79034
▁krus	-9.79056
che	-9.79075
▁Valley	-9.79105
▁Robert	-9.79117
E	-9.79117
▁kromosoma	-9.79124
▁Bundok	-9.79169
▁ekonomiko	-9.79214
▁personal	-9.79216
▁pagbagsak	-9.79342
sakop	-9.79357
▁isina	-9.79384
▁magka	-9.79422
▁organo	-9.7943
▁1990	-9.79544
▁kopya	-9.79576
nda	-9.7962
▁Tu	-9.79691
▁pahayag	-9.79774
▁manggagawa	-9.79849
▁positibo	-9.79908
mon	-9.79916
▁atake	-9.79937
▁Eskosya	-9.79937
▁pagpapahalaga	-9.79946
kan	-9.80055
▁Francisco	-9.80078
▁lahi	-9.80085
▁matagal	-9.80145
▁kinasasangk	-9.80171
▁St	-9.80191
pan	-9.80256
▁presyon	-9.80357
▁Upa	-9.80413
▁Sinasabi	-9.80455
▁apostol	-9.80459
▁angkop	-9.80476
gi	-9.8076
ul	-9.80787
▁pagtuturo	-9.80807
▁dahon	-9.80822
▁pampublikong	-9.80984
▁sikat	-9.81003
▁pera	-9.81014
▁Kristo	-9.81017
▁College	-9.81034
▁operasyon	-9.81092
▁Republic	-9.81214
▁asawang	-9.81301
▁pagsubok	-9.81349
▁Dati	-9.81375
▁mala	-9.81378
▁alak	-9.81446
▁pelikulang	-9.81509
kal	-9.81522
ita	-9.81534
▁matatag	-9.81536
lan	-9.81549
▁kakulangan	-9.81585
▁nagmumula	-9.81585
yang	-9.81598
▁ministro	-9.81631
N	-9.81641
▁1980	-9.81777
▁disenyo	-9.82216
▁Ini	-9.8226
▁pagdiriwang	-9.8227
▁by	-9.82624
▁Portugal	-9.82698
▁Malaysia	-9.82791
land	-9.82948
ber	-9.82952
▁plano	-9.83027
yu	-9.83081
▁pangunahin	-9.83119
▁pangangalaga	-9.83168
pit	-9.83204
▁protina	-9.83214
▁paghahari	-9.83264
▁Moises	-9.83353
▁1945	-9.83359
▁terminong	-9.83545
▁ibon	-9.8359
▁kahalagahan	-9.83592
▁Pasipiko	-9.83636
ika	-9.83642
▁American	-9.83655
▁Hitler	-9.8373
▁pamantasan	-9.83919
▁ku	-9.8394
▁nakuha	-9.8403
▁mainit	-9.84064
ron	-9.84136
▁krimen	-9.84157
▁NK	-9.8416
▁Ebreo	-9.84202
▁napa	-9.84268
▁No	-9.84334
▁pagbabagong	-9.84351
▁aktibo	-9.84447
▁Leo	-9.84551
▁nilalaman	-9.84843
▁baboy	-9.84965
▁pinagsama	-9.85028
▁pamamaga	-9.85047
▁Olimpiko	-9.85158
▁bulaklak	-9.85161
▁pampa	-9.85232
▁alperes	-9.85298
▁dalaga	-9.85305
▁Linya	-9.85323
▁Chi	-9.85451
▁titulo	-9.85474
▁bumuo	-9.85533
▁politiko	-9.85542
dudulot	-9.85588
▁bumaba	-9.85639
▁was	-9.85692
▁inaasahan	-9.85731
tor	-9.85776
yon	-9.85829
▁nawala	-9.8613
▁60	-9.86152
▁Ina	-9.86179
▁Mindanao	-9.86211
mpung	-9.86509
▁Pi	-9.86528
ling	-9.86601
▁Te	-9.86678
▁Mundo	-9.86912
▁Apostol	-9.87015
▁Yu	-9.87043
▁nagsasalita	-9.87101
▁hinango	-9.8714
▁pagkaing	-9.87148
▁Italyano	-9.87176
▁nabanggit	-9.87283
▁sanggunian	-9.87283
H	-9.87371
▁pamilyang	-9.87542
▁Bar	-9.87571
▁Sina	-9.87586
der	-9.87602
▁unaha	-9.87627
▁bibig	-9.87641
▁kahabaan	-9.87721
▁School	-9.8782
ala	-9.87824
▁kimikal	-9.87865
▁partikulo	-9.87869
higpit	-9.87958
▁batayan	-9.87964
▁sama	-9.87997
▁kalagitnaan	-9.88114
▁gas	-9.88134
▁kaagad	-9.88163
ado	-9.88238
▁Ilang	-9.88265
isasyon	-9.88295
L	-9.88404
▁kabahagi	-9.88421
▁pagkilala	-9.88452
▁anatomiya	-9.88608
▁nai	-9.88694
▁metal	-9.88779
▁templo	-9.88808
▁uma	-9.88854
▁GMA	-9.88909
▁area	-9.89009
▁sandali	-9.89009
▁patay	-9.89018
▁pinili	-9.89115
▁biyolohiya	-9.89155
nan	-9.89169
▁li	-9.89172
▁tradisyonal	-9.89199
ie	-9.89239
una	-9.89251
T	-9.89426
▁Nagkaroon	-9.89455
▁bukod	-9.89476
▁po	-9.89479
▁panig	-9.89489
▁saklaw	-9.89573
▁buhok	-9.89699
▁South	-9.89795
▁direktang	-9.89904
▁Cebu	-9.89947
▁kolehiyo	-9.90004
▁etniko	-9.90054
▁nakatira	-9.90062
▁kalalakihan	-9.90204
▁mamalya	-9.90254
▁bu	-9.90397
▁walong	-9.90445
▁tagumpay	-9.90494
▁tinatanggap	-9.90561
▁balita	-9.90611
▁halo	-9.90625
▁lumang	-9.90649
ity	-9.90759
ag	-9.90825
▁banda	-9.91083
▁yari	-9.91127
▁tuloy	-9.91168
ist	-9.91192
▁pagbaba	-9.91267
▁mahihirap	-9.913
▁pinakamatanda	-9.91318
▁kinuha	-9.91325
▁isyu	-9.91368
▁Tin	-9.91411
▁Turkiya	-9.9147
▁inter	-9.91536
ut	-9.91564
▁Karaniwan	-9.91644
'	-9.91736
▁Ar	-9.91794
9	-9.918
▁talata	-9.91824
▁Pilipinong	-9.91876
idae	-9.92009
▁he	-9.92078
▁2004	-9.92113
▁siyam	-9.92117
▁Network	-9.92185
▁sitwasyon	-9.922
▁mayaman	-9.92205
▁espesyal	-9.92258
▁dako	-9.92264
gbigay	-9.92279
▁lumilikha	-9.9234
▁lohika	-9.92363
▁karagatan	-9.92545
▁en	-9.92602
▁tugon	-9.92663
▁ga	-9.92749
▁kimika	-9.92771
▁sino	-9.92792
▁pista	-9.92799
▁manggagamot	-9.92909
▁umalis	-9.92977
▁Castel	-9.93068
▁langit	-9.93102
▁takot	-9.93217
▁tumungo	-9.93221
▁tawagin	-9.93239
sen	-9.93273
▁birus	-9.93335
▁husto	-9.93429
▁isinagawa	-9.93433
▁diperensiya	-9.93507
▁do	-9.93511
▁aki	-9.93598
▁Ika	-9.93623
▁magkatulad	-9.93636
q	-9.93747
▁Charles	-9.93757
▁gusto	-9.9379
ik	-9.93809
▁puwesto	-9.93826
▁medisina	-9.9384
tion	-9.93859
▁himpilan	-9.93898
▁Aprikano	-9.93934
tic	-9.93941
res	-9.93993
▁Hukbo	-9.94049
op	-9.9406
▁Austria	-9.9414
▁milya	-9.94216
▁teorya	-9.94258
hahambing	-9.94318
▁seksuwalidad	-9.94353
▁kagandahan	-9.94363
▁bakal	-9.94368
▁1986	-9.94474
▁1991	-9.94526
▁Partido	-9.94579
ris	-9.94611
▁an	-9.94614
▁dinala	-9.94615
▁32	-9.94701
ji	-9.94703
▁analisis	-9.94731
pasok	-9.94745
▁parte	-9.94918
dy	-9.9495
▁patungong	-9.95035
▁lawa	-9.95103
rin	-9.95104
▁Joseph	-9.95104
▁su	-9.95127
▁puma	-9.95149
▁iminungkahi	-9.95417
▁interpretasyon	-9.95417
▁kaluluwa	-9.95448
▁Dinamarka	-9.9547
▁labing	-9.9554
▁ulat	-9.95599
▁William	-9.95601
▁sikolohiya	-9.95739
▁natin	-9.95758
▁layo	-9.95788
▁bangka	-9.95834
▁sumulat	-9.95844
▁katalik	-9.9589
▁umaasa	-9.95903
ler	-9.95953
▁ebolb	-9.96108
ers	-9.96122
▁Dinastiyang	-9.96148
lang	-9.96158
▁manuskrito	-9.96161
▁Pamahalaan	-9.96216
▁Per	-9.96272
▁eksperimento	-9.96279
▁Clara	-9.96322
▁VI	-9.96349
▁nararapat	-9.96376
ap	-9.96382
▁pagsasagawa	-9.96409
▁2003	-9.96455
▁Isabel	-9.96478
▁Mag	-9.96483
▁Tanakh	-9.96589
▁nasasakupan	-9.96589
▁se	-9.96743
bibigay	-9.96754
▁heneral	-9.96772
▁Han	-9.96784
▁binuo	-9.96791
▁binago	-9.96872
▁komunikasyon	-9.96953
▁du	-9.97033
▁maliwanag	-9.97126
▁sekswal	-9.97173
▁kasiyahan	-9.97257
▁katinig	-9.97348
▁nagsisimula	-9.97398
vo	-9.97529
▁tanong	-9.9753
▁Miguel	-9.97559
▁kumbento	-9.9756
▁munisipalidad	-9.97561
kop	-9.97571
▁apoy	-9.97587
▁kasangkapang	-9.97653
ver	-9.97654
F	-9.97661
▁1992	-9.97727
▁Britaniko	-9.9783
▁sasakyan	-9.97834
▁kalaban	-9.97882
▁tingnan	-9.98065
▁bigkas	-9.98097
sk	-9.98119
▁malayo	-9.9814
▁pagnanais	-9.98165
▁inilarawan	-9.98181
8	-9.98297
▁interes	-9.98323
▁pangkasalukuyan	-9.98374
▁nanalo	-9.98438
▁pangungusap	-9.98538
▁iral	-9.98546
▁bangkay	-9.98569
▁ehersisyo	-9.98593
lagay	-9.98594
▁Australia	-9.98652
▁Daang	-9.98683
▁2013	-9.98732
▁limitado	-9.9876
▁paglipas	-9.98801
ser	-9.98811
▁muna	-9.98844
▁kurso	-9.98863
utukoy	-9.98893
▁ibaba	-9.98909
▁Ali	-9.98913
alis	-9.98971
▁that	-9.98981
ium	-9.99044
▁kasangkapan	-9.99079
▁80	-9.99209
tin	-9.99379
▁pagpapakamatay	-9.99527
mer	-9.99554
▁paghahanap	-9.99576
ikong	-9.99584
▁Pangunahin	-9.99637
▁kabihasnan	-9.99637
▁ta	-9.99667
▁Union	-9.997
isa	-9.99753
▁co	-9.99814
▁Kaugnay	-9.99865
▁ex	-9.99881
▁elektron	-9.99936
▁banggit	-10.0014
men	-10.0016
▁kalapit	-10.0025
▁1960	-10.0027
▁Katula	-10.0028
ph	-10.0028
▁pagsamba	-10.004
▁pahina	-10.0055
saklaw	-10.0057
▁lawak	-10.0067
▁pangkatawan	-10.0071
▁aso	-10.0074
▁pagkawala	-10.0077
▁mamatay	-10.0088
▁silid	-10.0092
▁Daigdig	-10.0103
▁tirahan	-10.0111
R	-10.0113
▁daloy	-10.0115
aabot	-10.0134
G	-10.0135
▁70	-10.0136
▁trono	-10.0148
bal	-10.0155
▁lubos	-10.0159
sis	-10.0164
litaw	-10.0165
▁piling	-10.0168
▁per	-10.0169
▁tren	-10.0173
▁harap	-10.0177
▁TV	-10.0177
▁Central	-10.0182
▁inilabas	-10.0189
▁sagisag	-10.0193
▁Sta	-10.02
▁simbolo	-10.021
▁pansarili	-10.0216
▁GDP	-10.0222
▁Coordinate	-10.0228
▁batong	-10.023
▁kontinente	-10.0233
ud	-10.0235
tanaw	-10.0236
▁35	-10.0242
▁sabay	-10.0242
tulak	-10.025
K	-10.0254
▁utos	-10.0259
▁Zamboanga	-10.0267
▁Iba	-10.0269
▁klima	-10.0278
▁dinastiya	-10.0284
▁negatibong	-10.0285
▁nangunguna	-10.029
▁parusa	-10.0301
▁Lo	-10.0316
▁yaman	-10.0318
tro	-10.0333
▁balangkas	-10.0338
▁Darwin	-10.0341
▁Martin	-10.0343
ies	-10.0358
▁mainam	-10.0359
▁Fa	-10.0361
▁tu	-10.037
▁v	-10.0373
▁aaralan	-10.0373
▁katauhan	-10.0377
▁sin	-10.0377
▁Arabe	-10.0378
▁aparato	-10.0381
▁istraktura	-10.0385
gawa	-10.0396
▁alkalde	-10.0404
▁Jackson	-10.0404
▁Maling	-10.0406
▁piraso	-10.041
siya	-10.0413
▁so	-10.0421
▁tanggapan	-10.0432
▁espasyo	-10.0433
▁tukuyin	-10.0433
▁mito	-10.0436
▁paglaki	-10.044
▁Masedonya	-10.0445
▁1989	-10.0445
▁kemikal	-10.0445
▁popular	-10.0447
▁Islamiko	-10.0447
▁network	-10.0449
▁kapayapaan	-10.0456
▁Do	-10.0458
ye	-10.0464
▁Teoriya	-10.0468
▁aksiyon	-10.047
▁Kongreso	-10.0474
▁karakter	-10.0474
▁Oriental	-10.0474
▁hinaharap	-10.0486
▁con	-10.0488
▁Jesus	-10.0489
▁tinanggap	-10.0492
▁Center	-10.0505
▁kapitan	-10.0518
od	-10.0526
▁dati	-10.0545
▁bigyan	-10.0545
▁pi	-10.055
▁porsiyento	-10.055
▁direksiyon	-10.055
▁tuma	-10.0555
▁interaksiyon	-10.0556
▁Jr	-10.0565
▁itinayo	-10.0569
▁kolonya	-10.0571
hango	-10.0573
▁bahagya	-10.0573
▁maling	-10.0585
▁solusyon	-10.0585
▁kalooban	-10.0588
▁Tum	-10.0591
▁matatanda	-10.0591
ndi	-10.0592
tiko	-10.0607
▁pagtukoy	-10.0608
▁nagsilbi	-10.0616
▁Or	-10.0617
karanas	-10.0624
▁hi	-10.0627
▁mutasyon	-10.0633
sok	-10.0634
▁Indiya	-10.0642
▁Thailand	-10.0644
▁istruktura	-10.0646
▁kaayusan	-10.065
▁1970	-10.0651
▁misyon	-10.0652
▁timbang	-10.0674
▁magkakaiba	-10.0677
▁pu	-10.0678
▁buo	-10.0682
▁sinundan	-10.0688
▁Manuel	-10.0692
▁Hu	-10.0696
▁utang	-10.0702
▁Ingglatera	-10.0703
▁Budista	-10.0709
▁kaguluhan	-10.071
▁malubha	-10.0711
▁Association	-10.0715
▁Ja	-10.0717
▁Belhika	-10.0721
tuloy	-10.0726
▁Persian	-10.0729
▁nananatiling	-10.0742
▁UE	-10.0755
▁nobela	-10.0759
▁paghahanda	-10.0761
wal	-10.0764
▁gastos	-10.0775
▁Pasig	-10.0781
▁isla	-10.0814
▁Constantinople	-10.0817
▁sayaw	-10.0823
▁2002	-10.0833
▁nakaugalian	-10.0834
▁Z	-10.0842
uhan	-10.0845
pos	-10.085
▁kategorya	-10.0853
▁tisyu	-10.0854
▁Saint	-10.0868
▁East	-10.0885
ting	-10.0888
▁Olanda	-10.089
▁tema	-10.0891
sanhi	-10.0891
▁Unggarya	-10.0896
▁Tiyago	-10.0896
▁Ti	-10.0897
▁tugtugin	-10.0902
agmula	-10.0904
▁sekwensiya	-10.0908
▁nagmumungkahi	-10.0915
▁kalawakan	-10.0918
▁sandata	-10.0924
▁Protestante	-10.0926
▁tagapagtatag	-10.0926
▁paliwanag	-10.0952
▁Rafael	-10.0956
▁Ne	-10.0962
rap	-10.0963
▁panggagamot	-10.0968
▁tatlo	-10.0969
▁kapistahan	-10.0975
▁binibigyan	-10.0975
est	-10.0976
▁nagmungkahi	-10.0976
▁produktong	-10.0977
▁virus	-10.099
▁pagsasama	-10.0993
ura	-10.0995
▁Santos	-10.1009
▁pagbabalik	-10.1019
▁Congo	-10.1028
▁2012	-10.103
▁Simula	-10.103
▁pula	-10.1031
▁kawal	-10.1035
▁Hi	-10.1036
▁bumagsak	-10.1042
▁Reyna	-10.1047
▁Batay	-10.1049
ze	-10.1053
▁pananalita	-10.1055
▁asa	-10.1061
▁korte	-10.1062
▁nagsasagawa	-10.1065
▁1998	-10.1074
san	-10.1085
▁200	-10.1089
▁Awit	-10.1091
▁lokasyon	-10.1098
▁umuunlad	-10.1111
▁pagpatay	-10.1114
▁nagkakaroon	-10.1117
▁Fernando	-10.1129
▁British	-10.1129
▁imahe	-10.1132
▁puwersa	-10.1134
▁Ministro	-10.1137
▁Palaro	-10.1137
▁Kapuluan	-10.1137
▁u	-10.1138
▁Pe	-10.1147
▁katapusan	-10.1154
▁Labanan	-10.1154
▁duma	-10.1154
▁Iran	-10.1155
▁Demokratiko	-10.116
▁90	-10.1167
▁Cagayan	-10.1172
▁tradisyunal	-10.1179
▁hula	-10.1182
▁gobyerno	-10.1185
▁kamalayan	-10.1198
▁Portuges	-10.1204
▁lumipa	-10.1204
tan	-10.1213
references	-10.1218
▁laki	-10.1226
▁dagdag	-10.1236
▁Ana	-10.1237
nta	-10.1243
▁Lahat	-10.1248
▁Sin	-10.1253
ley	-10.1254
ten	-10.126
ec	-10.1262
asco	-10.1263
▁pinakamahalaga	-10.1266
▁Pandaigdigan	-10.1269
▁Mar	-10.1274
▁pinsala	-10.128
tik	-10.128
▁Leon	-10.1281
▁Ya	-10.1283
▁Kong	-10.1293
▁binanggit	-10.1298
▁EDSA	-10.1304
▁ipinakilala	-10.1306
▁kasing	-10.1315
▁guhit	-10.1317
▁estilo	-10.1317
▁pampagtatalik	-10.1317
▁Saligan	-10.1319
▁BC	-10.1319
uri	-10.1322
▁Malay	-10.1322
▁paghihiwalay	-10.1328
▁aralan	-10.1335
om	-10.1335
▁pagpapahayag	-10.1338
▁with	-10.134
▁bisa	-10.1355
▁saliga	-10.1355
▁dala	-10.1355
tal	-10.1358
▁Corinto	-10.1368
▁panrelihiyon	-10.1368
0	-10.1377
▁Laguna	-10.138
las	-10.1381
▁iyo	-10.1388
▁nagpatuloy	-10.1388
▁Hilaga	-10.1389
▁pagpasok	-10.1391
▁pribadong	-10.1391
▁tin	-10.1398
▁umunlad	-10.14
▁pagsasaliksik	-10.14
jo	-10.1406
▁Brunei	-10.1406
▁reporma	-10.1418
▁malalim	-10.1422
▁pangkalusugan	-10.1431
ll	-10.1437
▁nagreresulta	-10.1454
▁pagsulat	-10.1467
▁Taiwan	-10.1483
▁hin	-10.15
sapit	-10.1523
▁Church	-10.1528
▁Du	-10.1538
ny	-10.1541
▁pangkultura	-10.1545
tay	-10.1547
▁1981	-10.1548
▁120	-10.1548
▁pangangasiwa	-10.1567
▁baha	-10.1571
▁paminsan	-10.158
▁edisyon	-10.158
▁estudyante	-10.158
▁Septuagint	-10.1586
▁dokumento	-10.1593
▁mensahe	-10.1597
▁hina	-10.1598
▁pana	-10.1599
▁sumali	-10.1601
▁desisyon	-10.1606
▁umaga	-10.1607
▁kabayo	-10.1608
▁Louis	-10.1608
bayan	-10.1611
▁Cruz	-10.1613
▁supling	-10.1615
▁buwis	-10.1622
▁sinimulan	-10.1625
▁yelo	-10.1631
ard	-10.1635
▁pahayagan	-10.1635
yano	-10.1638
▁kayamanan	-10.1639
▁usap	-10.164
▁me	-10.1643
▁etika	-10.1643
▁medikal	-10.1645
▁1978	-10.1646
▁payo	-10.1649
ty	-10.165
▁tuluyan	-10.1652
▁Great	-10.1653
▁nagsisilbing	-10.1653
▁hakbang	-10.1657
▁mekanismo	-10.1671
▁Una	-10.1672
▁natitirang	-10.1672
▁Sultan	-10.1697
▁pinalitan	-10.1697
▁pagpapanatili	-10.1701
▁saserdote	-10.1704
▁lutuin	-10.1704
▁Odiseo	-10.171
nd	-10.1716
▁indibiduwal	-10.1717
▁US	-10.1718
▁Distrito	-10.1724
▁pagsusulat	-10.1733
▁..	-10.1738
▁Gu	-10.1738
▁alon	-10.1741
▁kanta	-10.1744
bor	-10.1759
▁maramihan	-10.1762
▁likido	-10.1771
▁bilis	-10.1774
▁nakalilipas	-10.1776
▁agad	-10.1777
▁instrumento	-10.1779
▁tiyan	-10.1779
alang	-10.1787
▁materya	-10.1788
▁Atlantiko	-10.179
▁Davao	-10.179
ster	-10.179
▁gampanin	-10.1796
▁lipi	-10.1797
▁bigat	-10.1798
tis	-10.1799
▁kalipunan	-10.1803
▁sumapit	-10.1805
▁mangyari	-10.181
▁ipinahayag	-10.1811
▁atomiko	-10.1811
▁ulan	-10.1814
▁Mon	-10.1816
uan	-10.1817
▁bersyon	-10.1824
▁puwersang	-10.1836
▁susunod	-10.184
▁pala	-10.1843
▁datos	-10.1859
▁kuryente	-10.1866
▁it	-10.1874
ism	-10.1885
▁Philippines	-10.1891
▁sobrang	-10.1895
▁rekord	-10.1914
lam	-10.1916
▁pagkakakilanlan	-10.1916
▁ABS	-10.1918
▁pagkilos	-10.1921
turing	-10.1923
▁Henry	-10.1924
▁tumanggap	-10.1924
▁ilarawan	-10.1926
▁koponan	-10.1937
▁George	-10.1942
▁pundamental	-10.1944
▁mar	-10.1948
▁As	-10.1948
▁Los	-10.1948
▁wakas	-10.1949
▁populasyong	-10.195
▁Komisyon	-10.1951
▁makuha	-10.1954
▁Russia	-10.1956
▁agrikultura	-10.1958
▁moral	-10.1959
▁pagganap	-10.196
▁Ferdinand	-10.1964
uugnay	-10.1964
▁CBN	-10.1978
▁Tomas	-10.1979
▁kasuotan	-10.1991
ini	-10.1995
▁pagbuo	-10.2
▁punsiyon	-10.2002
▁umiral	-10.2005
▁ambag	-10.2007
▁Bay	-10.2008
▁from	-10.2018
pigil	-10.2023
▁republika	-10.2025
mis	-10.2027
fa	-10.2031
▁huma	-10.2036
▁trans	-10.2038
▁tumatanggap	-10.2038
▁Sc	-10.2042
▁paningin	-10.2059
▁biktima	-10.2068
▁ra	-10.2085
▁Katipunan	-10.2086
▁liwasan	-10.2086
bigat	-10.2087
▁kum	-10.209
▁nabuhay	-10.2091
▁sustansiya	-10.2093
▁Linares	-10.2093
▁Islands	-10.2094
▁anghel	-10.2102
hanggang	-10.2109
▁tubo	-10.2114
▁Angeles	-10.2115
▁pagpapaunlad	-10.2123
▁War	-10.2125
▁Ilocos	-10.2127
▁Obispo	-10.2127
▁magagamit	-10.2129
▁Senado	-10.2137
▁palitan	-10.2144
▁Taong	-10.2147
▁mananaliksik	-10.2148
▁daw	-10.2156
▁kahalili	-10.2156
▁bayani	-10.2158
▁iwas	-10.2166
▁komunidad	-10.2168
▁alamat	-10.2174
▁konteksto	-10.2175
Alba	-10.2195
▁namuno	-10.2197
ganap	-10.2203
▁probinsiya	-10.2203
▁Tinawag	-10.221
ito	-10.2211
▁bangko	-10.2212
▁maiwasan	-10.2217
▁pandama	-10.2219
▁Cu	-10.2221
▁1984	-10.2231
O	-10.2232
▁Ipinanganak	-10.2238
▁Ho	-10.2244
▁angkin	-10.225
▁Hukuman	-10.2265
▁umaayon	-10.2266
▁Pu	-10.2273
kh	-10.2277
▁Prepektura	-10.2279
▁hita	-10.2284
kap	-10.2285
law	-10.2287
▁Malaki	-10.2291
▁Napa	-10.2296
▁Persa	-10.2298
▁magkaiba	-10.2309
▁pagkatao	-10.2315
▁diyosa	-10.2316
▁sentral	-10.2321
▁Eslobakya	-10.2321
▁kabutihan	-10.2321
▁nagpakita	-10.2324
W	-10.2326
▁Carlos	-10.2327
▁Sudan	-10.2332
ite	-10.2333
▁katunayan	-10.2335
▁pumapay	-10.2336
▁UK	-10.2338
▁Bulacan	-10.2356
▁alipin	-10.2357
▁kabuoan	-10.237
lis	-10.2373
yong	-10.2383
▁paghahati	-10.2384
▁kaparaanan	-10.2384
▁pinakauna	-10.2384
salungat	-10.2387
▁henerasyon	-10.2392
▁nakalipas	-10.2392
▁tanggap	-10.2399
▁un	-10.24
shi	-10.2402
wang	-10.2404
tungkol	-10.2404
▁Dit	-10.2405
▁pagtatangka	-10.2405
▁Gayund	-10.2406
▁Montenegro	-10.2412
▁Hong	-10.2413
▁Tsipre	-10.2426
▁inilagay	-10.2436
▁ikaapat	-10.2437
▁set	-10.244
▁kapalit	-10.244
▁historikal	-10.2443
uro	-10.2456
▁tinig	-10.2458
olohiya	-10.2459
▁panukala	-10.2461
iba	-10.2467
▁pinamunuan	-10.2469
▁daliri	-10.247
tsu	-10.2476
▁Ver	-10.2477
▁pagpapakita	-10.2481
▁gobernador	-10.2484
ern	-10.2486
▁hukuman	-10.2494
▁Yahweh	-10.2497
▁itinakda	-10.2497
▁ebolusyonaryo	-10.2498
▁linyang	-10.2499
▁galit	-10.2499
▁makamit	-10.2501
▁pagsasa	-10.2504
▁45	-10.2511
▁Suwesya	-10.2512
▁napag	-10.2513
▁Kadalasan	-10.2522
▁Samar	-10.2522
▁Ge	-10.2525
▁boto	-10.2525
▁estimulasyon	-10.2526
▁Arabia	-10.2527
▁depende	-10.2528
▁kalamnan	-10.2531
▁Tangway	-10.2533
▁pandaigdig	-10.254
▁super	-10.2553
▁paglalagay	-10.2554
saad	-10.2554
▁Crispin	-10.2555
▁kumalat	-10.2555
age	-10.2559
abaybay	-10.2563
▁Bagama	-10.2576
▁bibliya	-10.2576
▁karunungan	-10.2583
▁pananalapi	-10.2583
▁Pinaniniwalaan	-10.259
▁kapakanan	-10.2598
▁Fu	-10.2599
▁lagi	-10.2613
way	-10.2614
▁pares	-10.2621
▁matematikal	-10.2647
▁Komnen	-10.2648
ted	-10.2655
▁pambata	-10.2658
▁West	-10.2664
▁Kolehiyo	-10.267
▁inumin	-10.2676
▁pabalik	-10.268
▁kadahilanan	-10.2682
▁r	-10.2686
nu	-10.2686
▁Kasunduan	-10.2692
V	-10.2698
▁permanente	-10.2699
▁bababa	-10.2706
▁mesiyas	-10.2706
rs	-10.2707
▁Ki	-10.2711
▁puwit	-10.2712
▁Jo	-10.2716
▁pagano	-10.2717
▁Felipe	-10.2721
▁RNA	-10.2722
pon	-10.273
▁1973	-10.2736
▁kakaiba	-10.2736
▁Japan	-10.2743
mit	-10.2744
▁tulay	-10.2749
▁ar	-10.2755
▁kamakailang	-10.2757
ara	-10.2758
▁lumaon	-10.2763
▁teolohiya	-10.2772
sunod	-10.2773
▁Estrada	-10.2786
bak	-10.2796
nes	-10.28
alam	-10.2804
▁napili	-10.2811
ene	-10.2815
▁tinapay	-10.2816
▁Antonio	-10.2825
▁Rehiyon	-10.2827
▁nagsabi	-10.2827
▁uugnay	-10.2834
▁obserbasyon	-10.2838
▁dalampasigan	-10.2838
▁paulit	-10.2845
▁bo	-10.2847
▁33	-10.2855
lad	-10.2859
▁Misa	-10.2859
ham	-10.286
bol	-10.2868
▁kalimita	-10.2868
▁Con	-10.2874
▁kagustuhan	-10.2875
▁pansamantala	-10.2875
ai	-10.2881
▁pinakamalaki	-10.2884
▁daga	-10.2885
▁Yule	-10.2893
▁humiwalay	-10.2897
▁pangangatawan	-10.2908
▁Albanya	-10.2913
▁paring	-10.2925
▁Pinlandiya	-10.2927
▁haligi	-10.2927
ns	-10.2933
▁pulmonya	-10.2941
▁1975	-10.2943
▁kulang	-10.2944
▁elementong	-10.2945
▁eroplano	-10.2949
▁pagbigkas	-10.2961
▁kapulungan	-10.2964
▁gulay	-10.2964
▁unit	-10.2969
▁Mu	-10.2969
▁gagawin	-10.2979
▁puro	-10.2985
▁bar	-10.2988
▁Monte	-10.2991
den	-10.2992
lala	-10.2993
▁Thomas	-10.2994
▁gatas	-10.2999
▁kalidad	-10.3002
▁Tondo	-10.3009
uk	-10.3012
▁pananakit	-10.3012
▁isinama	-10.3015
▁marahil	-10.3017
▁1987	-10.3017
▁kinilala	-10.3024
▁pinamagatang	-10.303
▁humahan	-10.3032
dong	-10.3046
▁mekaniks	-10.3046
▁kaaway	-10.3047
▁Richard	-10.3054
▁pagkakaisa	-10.3061
▁hati	-10.3068
▁lumaki	-10.3078
▁pagtatayo	-10.3079
▁gumagalaw	-10.3084
iti	-10.3088
▁real	-10.3106
wan	-10.3111
▁Malta	-10.3116
ker	-10.312
▁patong	-10.3121
ban	-10.3122
▁isinalin	-10.3124
▁pagpapalit	-10.3127
baba	-10.3127
▁Dalawa	-10.3127
ok	-10.3129
utos	-10.3142
▁tenyente	-10.3145
▁Bosnia	-10.3145
bong	-10.3149
▁bilanggo	-10.315
▁ritwal	-10.3152
▁Madala	-10.3155
▁halagang	-10.3159
▁substansiya	-10.3167
▁Paul	-10.317
▁kinalaman	-10.3176
tigil	-10.3178
▁pagsasanib	-10.318
ac	-10.3186
▁pagsisimula	-10.3186
▁Mali	-10.3187
ata	-10.3194
zi	-10.3195
▁nalalaman	-10.3196
▁suplay	-10.3199
▁sugat	-10.32
▁Kagawaran	-10.3206
bawas	-10.3206
min	-10.3207
▁mangangalakal	-10.3215
ness	-10.3216
▁Turko	-10.3216
▁lu	-10.3219
▁magsasaka	-10.3228
▁Rumanya	-10.3236
▁Kingdom	-10.3236
mpa	-10.3238
▁kasabay	-10.3239
▁tumagal	-10.3244
▁Red	-10.3247
▁nakapagpapa	-10.3247
▁Paaralan	-10.3252
▁pagkuha	-10.3257
▁bayag	-10.3259
▁Abu	-10.3262
▁Pro	-10.3265
▁tuyo	-10.3266
▁kultural	-10.3274
qui	-10.3276
zo	-10.3276
▁300	-10.3279
▁Halo	-10.3282
▁pandagat	-10.3282
▁uugali	-10.3298
▁kapital	-10.3303
▁Himagsikan	-10.3305
▁paktor	-10.3306
ner	-10.3307
▁kumpleto	-10.3313
▁Mahal	-10.3318
sakyang	-10.3319
bukas	-10.332
▁pampubliko	-10.3321
▁tumu	-10.3322
ure	-10.3323
▁pagkakatuklas	-10.333
hikayat	-10.3333
▁kalakhan	-10.3334
▁heteroseksuwal	-10.334
gliano	-10.334
impluwensiyahan	-10.3356
hatid	-10.3357
ago	-10.3358
▁panlaban	-10.3364
▁34	-10.3366
▁tumpak	-10.3367
▁akit	-10.3379
▁ligtas	-10.338
era	-10.3381
▁malamig	-10.3388
▁Ra	-10.3393
▁Bulgarya	-10.3398
labas	-10.3399
von	-10.34
▁Galac	-10.3408
cha	-10.3409
▁alternatibo	-10.3422
▁Am	-10.3427
▁moralidad	-10.3431
▁Alexandria	-10.3433
▁itin	-10.3437
▁1995	-10.3443
▁system	-10.3445
▁sinulat	-10.3445
▁lumalabas	-10.3451
▁Barangay	-10.3461
▁Batikano	-10.3461
▁pambabae	-10.3469
▁mali	-10.348
▁pader	-10.3484
▁Bonifacio	-10.3484
▁spesipiko	-10.349
▁Sistema	-10.3492
▁kanser	-10.3493
▁1979	-10.3494
▁Samahan	-10.3495
▁palatandaan	-10.35
▁Big	-10.3503
▁Tadeo	-10.3508
▁pampanitikan	-10.3516
▁General	-10.3516
▁nakasulat	-10.352
▁ray	-10.3536
▁Sulu	-10.3536
▁Ju	-10.3542
▁Tiya	-10.3543
atumbas	-10.3543
▁Indiyano	-10.3546
▁Um	-10.3551
sangkot	-10.3558
▁Love	-10.356
▁bantog	-10.3563
▁pagpupulong	-10.3563
▁Ehipsiyo	-10.3571
▁Estonya	-10.3571
▁kwantum	-10.3571
▁AD	-10.3572
▁Tasyo	-10.3588
▁labindalawa	-10.359
ius	-10.3594
▁pederal	-10.3595
▁dula	-10.3597
▁Cavite	-10.3611
▁nakikipag	-10.3616
▁Latbiya	-10.3619
▁upuan	-10.3619
▁maunlad	-10.3619
▁isdang	-10.363
lat	-10.3634
ikal	-10.3643
▁pulang	-10.365
▁Kailangan	-10.3659
▁Pasko	-10.366
▁awiting	-10.3665
ary	-10.3668
▁Maari	-10.367
▁tapat	-10.3675
▁Shia	-10.368
▁kani	-10.3681
▁pumunta	-10.3683
▁karangalan	-10.3691
▁kritiko	-10.3691
▁mapagkukunan	-10.37
▁liberal	-10.3706
▁39	-10.371
▁paghahambing	-10.3712
▁ad	-10.3714
▁ahente	-10.3732
▁direktor	-10.3734
▁kumakain	-10.3734
▁prutas	-10.3736
▁TB	-10.3738
tika	-10.3738
▁tumanggi	-10.3739
kas	-10.3756
▁ikalima	-10.3763
▁makipag	-10.377
▁numero	-10.3771
▁500	-10.3773
gas	-10.3775
▁Tao	-10.3776
▁God	-10.3779
▁bilog	-10.378
▁lumalaki	-10.3781
▁naitala	-10.3785
ring	-10.3791
▁imahen	-10.3791
▁sanga	-10.3796
▁nakatakda	-10.3797
tawag	-10.3797
▁Singapore	-10.3812
▁Tula	-10.382
▁puwang	-10.3821
▁bagyo	-10.3822
▁magkapatid	-10.3822
gbuhat	-10.3824
▁ne	-10.3826
▁VII	-10.3838
▁Eslobenya	-10.3844
▁Bank	-10.3852
▁Q	-10.3856
▁ruta	-10.3863
▁Obando	-10.3869
log	-10.388
▁nakamit	-10.3885
▁Noruwega	-10.3885
▁salamin	-10.3892
▁pagsulong	-10.3907
▁paglipat	-10.3913
▁suntok	-10.392
kin	-10.3927
▁Africa	-10.3929
pag	-10.3931
▁w	-10.394
▁luma	-10.3941
▁Kalye	-10.3943
▁Itinuturi	-10.3945
▁responsable	-10.3946
ada	-10.3955
▁pilak	-10.3955
▁Iglesia	-10.3959
rito	-10.396
▁awitin	-10.3972
▁Moro	-10.3975
▁dolyar	-10.3976
▁internasyonal	-10.3976
▁kapareho	-10.3976
▁Tokyo	-10.3984
▁Wala	-10.3995
sulat	-10.3997
▁droga	-10.4001
▁1994	-10.4002
▁pagkabuhay	-10.4004
▁nanirahan	-10.4009
ks	-10.4011
▁Park	-10.4012
▁1993	-10.4017
▁orden	-10.4017
▁1997	-10.4026
▁tabi	-10.4026
lip	-10.4032
▁manok	-10.4036
▁damo	-10.4037
▁inaangkin	-10.4043
▁itinuri	-10.4043
▁ekwasyong	-10.4049
▁kumuha	-10.4054
▁Zeus	-10.4062
tes	-10.4064
▁aktibidad	-10.4067
▁hentil	-10.4067
▁Ben	-10.4069
▁Pio	-10.407
▁Star	-10.4075
▁kagubatan	-10.4081
▁lagnat	-10.4084
▁proteksiyon	-10.4084
▁ipinangalan	-10.4092
▁Hindu	-10.4099
▁Babilonia	-10.41
▁38	-10.4103
mar	-10.4105
▁My	-10.4108
▁Makati	-10.4109
▁paggalaw	-10.4111
▁Tsekya	-10.4117
▁kabaligtaran	-10.4119
▁bakla	-10.4123
iano	-10.4131
▁alpabetong	-10.4132
▁Vietnam	-10.4133
kakuha	-10.4143
gal	-10.4148
▁pagsunod	-10.4151
▁Beijing	-10.4159
tala	-10.4167
▁glandula	-10.4167
▁ipinadala	-10.4177
▁Katolisismo	-10.4184
▁magagawa	-10.419
▁sero	-10.4191
▁aangkop	-10.42
▁katanungan	-10.4201
▁gumagana	-10.4207
▁kaasalan	-10.4218
▁reproduksiyon	-10.4221
▁bola	-10.4223
▁Muli	-10.4224
▁relatibo	-10.4229
▁bigla	-10.4233
▁King	-10.4234
▁1950	-10.4235
▁Gro	-10.4246
ida	-10.4255
▁Pahayag	-10.4255
▁karahasan	-10.426
got	-10.4261
▁Verde	-10.4262
▁Sen	-10.4264
▁natalo	-10.4264
▁nagresulta	-10.4266
▁kumpara	-10.4267
▁aktuwal	-10.4269
▁paggalang	-10.4269
▁1946	-10.427
▁121	-10.4271
▁Cha	-10.4271
▁nagbago	-10.4277
▁mabilisan	-10.4279
▁Er	-10.4281
▁raw	-10.4285
▁gumaganap	-10.4289
▁kailanman	-10.429
▁Londres	-10.4294
▁inhinyero	-10.4295
▁katamtamang	-10.43
▁seremonya	-10.4301
con	-10.4302
▁mani	-10.4303
erra	-10.4313
▁radyo	-10.4317
Y	-10.433
▁personalidad	-10.4331
rd	-10.4331
▁bina	-10.4335
▁bahagdan	-10.4337
▁karera	-10.4337
▁nakapa	-10.434
▁you	-10.4342
▁kastila	-10.4346
▁talampakan	-10.4354
▁makaka	-10.4356
▁tela	-10.4356
▁Blg	-10.4358
▁nagsasanhi	-10.4358
paunlad	-10.4358
▁pangmilitar	-10.4363
▁Va	-10.4366
ble	-10.4369
▁Linggo	-10.4371
▁maruno	-10.4372
▁Aguinaldo	-10.4388
▁ginanap	-10.4389
▁kamalian	-10.4389
▁paligsahan	-10.4394
lipat	-10.4396
▁pananagutan	-10.4397
▁tinuturing	-10.4398
ria	-10.44
▁Nakita	-10.4401
▁porma	-10.4403
▁leeg	-10.4406
ido	-10.441
▁Itinatag	-10.441
lim	-10.4414
▁pagtingin	-10.443
▁palad	-10.4437
▁Mat	-10.4451
▁klasipikasyon	-10.4458
▁46	-10.4471
▁Katimugan	-10.4475
▁Puerto	-10.4475
▁altapresyon	-10.4475
▁oksiheno	-10.4475
▁pangangaral	-10.4475
glakbay	-10.4476
▁inihayag	-10.4485
pin	-10.4487
▁unawa	-10.4488
▁makasaysayan	-10.4492
sya	-10.4493
▁sinakop	-10.4497
▁demokrasya	-10.4501
▁artipisyal	-10.4501
▁pumayag	-10.4501
ulong	-10.4504
▁uring	-10.4509
▁Estasyon	-10.451
▁Batangas	-10.451
ryo	-10.4515
▁ibinibigay	-10.4519
▁siklo	-10.452
▁pumapa	-10.4522
▁estadistika	-10.4523
▁sosyo	-10.4544
▁record	-10.4544
▁Suwisa	-10.4545
▁nakakalipas	-10.4545
▁Gi	-10.4551
▁pagkatuto	-10.4553
▁hawak	-10.4554
▁angkan	-10.4554
50	-10.4557
▁taasan	-10.4561
▁tupa	-10.4561
▁komplikado	-10.4571
▁Intramuros	-10.458
sanib	-10.4582
▁Inggles	-10.4588
▁katulong	-10.459
▁Can	-10.4592
▁palibot	-10.4595
olo	-10.4595
▁makaagham	-10.4597
▁nobelang	-10.4606
▁You	-10.4607
zzo	-10.4609
▁pagbabawas	-10.4609
▁sektor	-10.4624
▁hangganang	-10.4627
▁paglawak	-10.4627
▁karbon	-10.4627
▁Sha	-10.4627
▁Alexio	-10.4629
▁rebolusyon	-10.4632
▁Constantius	-10.4632
▁kaligtasan	-10.4632
▁Kasaysayan	-10.4633
▁1920	-10.4643
▁listahan	-10.465
▁et	-10.4655
▁pagsasabi	-10.4658
▁pakikitungo	-10.4663
▁pagtitipon	-10.4667
▁Tag	-10.467
▁transportasyon	-10.4671
eo	-10.4679
▁magkaka	-10.4681
▁allele	-10.4685
▁nauukol	-10.4693
▁matibay	-10.4694
▁dilaw	-10.4698
▁Christian	-10.4701
▁kakaunti	-10.4703
▁nagdadala	-10.4707
ato	-10.4711
▁binti	-10.4718
▁libro	-10.4721
▁ipakita	-10.4732
▁field	-10.4734
hid	-10.474
▁paghinga	-10.4747
▁sipi	-10.4752
▁paglusob	-10.476
▁Nueva	-10.4765
▁bawal	-10.4765
▁gumanap	-10.4766
▁pangkalakalan	-10.4767
▁36	-10.4768
▁Gayunma	-10.4774
▁Mediteraneo	-10.4774
▁opisina	-10.4774
▁kinakatawan	-10.4775
aangkop	-10.4776
▁arian	-10.4779
▁London	-10.4783
▁praktikal	-10.4783
▁hu	-10.4787
▁natapos	-10.4794
▁Sho	-10.4795
J	-10.4795
▁regular	-10.4795
▁tubong	-10.4795
hay	-10.48
▁atom	-10.48
kalikha	-10.4806
▁sagot	-10.4813
▁namumuno	-10.4826
▁lubha	-10.4826
putol	-10.4827
▁Mondovi	-10.4828
▁Bizantino	-10.4828
▁nakatayo	-10.4828
▁isinaa	-10.483
▁sona	-10.4832
▁damdaming	-10.4834
▁kriminal	-10.4837
▁tumataas	-10.4837
▁tayo	-10.4839
0,000	-10.4841
▁gubat	-10.4843
▁kanluranin	-10.4848
▁paglala	-10.4851
▁diperensiyal	-10.4854
▁Androniko	-10.4855
stra	-10.4856
▁Saudi	-10.4858
▁kon	-10.4859
▁kapatagan	-10.4864
▁1976	-10.4865
▁makagawa	-10.4868
▁1977	-10.4874
▁pinatay	-10.4886
tikong	-10.489
▁output	-10.4891
ger	-10.4892
▁drama	-10.4892
▁Mataas	-10.4893
▁inangkin	-10.4903
▁napatunayan	-10.4903
gpapahintulot	-10.4904
▁tri	-10.4916
▁arkeologo	-10.4918
▁nabigo	-10.4919
▁maharlika	-10.492
▁sangkatauhan	-10.492
sama	-10.4922
▁mabuhay	-10.4924
halal	-10.4936
▁le	-10.4937
▁probabilidad	-10.4937
▁Suma	-10.4938
eri	-10.4939
ff	-10.4943
▁pagtatapos	-10.4943
▁masalimuot	-10.4944
▁Simon	-10.4945
▁tinagurian	-10.4946
▁dila	-10.4947
▁nanggaling	-10.495
buhay	-10.4951
▁Belarus	-10.4955
▁lalamunan	-10.4955
▁bulkan	-10.4955
▁nakasalalay	-10.4956
▁inang	-10.4959
▁lobo	-10.4963
▁ru	-10.4965
▁market	-10.4967
▁pababa	-10.4969
▁hal	-10.4973
▁pinakamaaga	-10.4983
▁uusap	-10.4984
▁maituturing	-10.4986
▁butil	-10.4992
aryo	-10.4994
▁futbol	-10.5
▁kabanata	-10.5
ila	-10.5001
▁1982	-10.5001
▁tumutugon	-10.501
▁1983	-10.5011
▁nagtapos	-10.5017
▁Kahilagaan	-10.5019
ip	-10.5019
▁heograpiya	-10.5019
▁Russian	-10.502
▁doktor	-10.5024
▁biyolohikal	-10.5028
pro	-10.5029
▁Indo	-10.504
je	-10.5046
sto	-10.5051
pil	-10.5053
▁1972	-10.5056
▁dumi	-10.5059
▁nagngangala	-10.5065
▁kodigo	-10.5071
▁ninyo	-10.5074
▁saligan	-10.5077
▁nawawala	-10.5078
▁AIDS	-10.5078
▁pundasyon	-10.5083
▁1965	-10.5084
▁mahina	-10.5088
sang	-10.5088
fi	-10.5091
▁administrasyon	-10.5093
▁kinabukasan	-10.5093
▁Ikatlo	-10.5094
▁taba	-10.5096
▁pusa	-10.5098
▁1948	-10.5103
▁te	-10.5107
▁aktor	-10.5108
▁dibisyon	-10.5111
▁kathang	-10.5111
▁Mor	-10.5113
we	-10.5114
▁Kar	-10.5118
▁Daniel	-10.512
▁Ru	-10.5126
▁Newton	-10.5128
▁up	-10.5133
ib	-10.5137
▁natitira	-10.5137
▁masaya	-10.5139
▁ekwasyon	-10.514
▁basehan	-10.5141
fe	-10.5146
▁Yi	-10.5147
▁lihim	-10.5148
▁pagtutuli	-10.5148
▁For	-10.5154
▁carbon	-10.5157
imbento	-10.5167
▁magasin	-10.5168
▁yerba	-10.5176
▁pagmamahal	-10.5177
▁ipaliwanag	-10.5179
ps	-10.5182
▁pagpapatuloy	-10.5182
▁Br	-10.5183
▁pinsan	-10.5194
▁potensiyal	-10.5194
▁sapiens	-10.5194
▁tumutulo	-10.5202
▁espiritu	-10.5203
▁kasarinlan	-10.5213
cy	-10.5216
▁nahalal	-10.5217
▁ibayo	-10.5217
▁kaunlaran	-10.5222
▁ipinapakita	-10.5223
▁minsa	-10.5232
▁kabatiran	-10.5232
ical	-10.5238
▁All	-10.5238
ulo	-10.5242
▁bagk	-10.5246
▁hika	-10.5248
▁VIII	-10.5253
ek	-10.5255
▁pakinabang	-10.5265
▁katas	-10.5265
▁ihi	-10.5266
▁Kalimitan	-10.527
▁Tatlong	-10.5272
▁Pagka	-10.5278
akay	-10.5287
▁pagsasalin	-10.5288
▁Nobel	-10.5288
▁bang	-10.5296
▁maayos	-10.5298
▁naglalaro	-10.53
▁Kalihim	-10.5307
nia	-10.531
▁naiiba	-10.5318
▁Hesukristo	-10.5326
▁Efeso	-10.5335
▁kapansanan	-10.5335
▁season	-10.5336
▁1941	-10.5336
▁Matanda	-10.5337
▁1988	-10.5339
10	-10.5355
▁Asyano	-10.5356
▁los	-10.5357
▁matukoy	-10.5363
▁banyaga	-10.5364
sion	-10.5364
▁Award	-10.5371
▁chimpanzee	-10.5373
▁inilipat	-10.5375
▁On	-10.5376
▁tanso	-10.5377
mbo	-10.5383
▁1949	-10.5384
up	-10.5385
▁ayaw	-10.539
▁Magdalena	-10.5392
▁ilaw	-10.5394
yaw	-10.54
kon	-10.5402
tha	-10.5403
▁Car	-10.5405
▁Huling	-10.5413
▁pagpa	-10.5419
ov	-10.542
▁Rebolusyon	-10.542
▁prayle	-10.5421
ue	-10.5421
▁Berlin	-10.5431
▁Bel	-10.5432
▁bantay	-10.5434
▁Alexander	-10.544
▁reaksiyon	-10.5444
▁Sobiyet	-10.5459
▁1996	-10.546
▁Tinataya	-10.5461
tra	-10.5467
▁heometriya	-10.5468
▁pinangalanan	-10.5469
▁Bin	-10.548
▁natanggap	-10.5481
▁pagsalakay	-10.5488
▁sp	-10.5503
▁She	-10.5505
▁mungkahi	-10.5505
aga	-10.5508
ij	-10.5509
lit	-10.551
▁asukal	-10.5517
▁Ligur	-10.5527
▁1940	-10.5528
▁We	-10.5533
▁representasyon	-10.5536
▁pagsisiyasat	-10.5541
▁arkitektura	-10.5545
▁kalendaryo	-10.5545
▁inalis	-10.5547
▁1930	-10.5547
▁En	-10.5548
▁balakang	-10.555
▁kampanya	-10.555
▁pakpak	-10.5555
▁panauhin	-10.5555
▁ibong	-10.556
▁pantig	-10.5562
▁2015	-10.5564
▁37	-10.5581
▁Yo	-10.5582
▁Leyte	-10.5584
▁not	-10.5585
▁isagawa	-10.5587
▁nakatala	-10.5588
▁Sining	-10.5588
▁lunas	-10.5589
▁Syria	-10.5593
▁makukuha	-10.5594
▁Pampanga	-10.5594
▁arkeolohiya	-10.5594
▁hinirang	-10.5595
▁saling	-10.5602
▁konklusyon	-10.5603
▁Mel	-10.5604
▁pinangalanang	-10.5609
▁van	-10.5614
tatanggal	-10.5614
▁arkeolohikal	-10.5623
uno	-10.5624
bis	-10.5629
▁sikolohikal	-10.5629
▁African	-10.5629
▁aalis	-10.5634
▁teknikal	-10.5636
▁pangkasaysayan	-10.5642
kat	-10.5643
▁42	-10.5646
▁taunan	-10.5655
▁itinalaga	-10.5663
▁alaala	-10.5673
▁buntot	-10.5673
▁Cor	-10.5675
▁ilong	-10.5681
▁Genesis	-10.5682
▁Gobernador	-10.5691
▁mabisa	-10.5691
▁pamangkin	-10.5692
able	-10.5693
▁Lawa	-10.5699
▁Arroyo	-10.5701
▁Brazil	-10.5701
▁katiyakan	-10.5701
▁Ngayon	-10.5702
▁Las	-10.5703
▁iniulat	-10.5703
nti	-10.5706
▁isahan	-10.5715
yama	-10.5716
▁pakahulugan	-10.5719
▁Is	-10.572
▁lupaing	-10.5722
lik	-10.5722
▁Ninoy	-10.5726
▁amino	-10.5734
▁eks	-10.5735
com	-10.5736
▁paglilipat	-10.5738
▁Hanggang	-10.574
▁kapareha	-10.5744
▁kar	-10.5746
ven	-10.5748
▁Mari	-10.5748
mula	-10.5752
▁karga	-10.5756
▁susi	-10.5756
▁independiyente	-10.576
▁tinu	-10.576
▁paglilinaw	-10.5763
ung	-10.5766
letto	-10.5775
▁namamahala	-10.5788
▁itinuturo	-10.5791
▁detalye	-10.5796
tur	-10.58
ea	-10.5804
▁sukdulan	-10.5805
▁Za	-10.5807
▁trangkaso	-10.581
▁Malapit	-10.5812
▁landas	-10.5813
▁Kapulua	-10.5817
▁ti	-10.5818
▁pahintulot	-10.5819
▁demonyo	-10.582
▁hipotesis	-10.582
▁Babilonya	-10.5822
▁State	-10.5838
ev	-10.5839
▁katibayan	-10.584
▁atbp	-10.584
bel	-10.5849
▁Prinsipe	-10.5849
▁nagkamit	-10.585
▁harapan	-10.585
▁post	-10.5852
ier	-10.5854
▁alis	-10.5861
▁asal	-10.5862
▁Talaan	-10.5864
rt	-10.5875
▁Silanganin	-10.5877
▁autoridad	-10.5879
▁kasintahan	-10.5889
toku	-10.5897
▁lo	-10.5898
▁pagbabawal	-10.59
▁kanonikal	-10.59
ros	-10.5903
▁henetika	-10.5909
tamo	-10.5912
▁Cal	-10.5915
▁Taguig	-10.5919
▁Cotabato	-10.5919
▁tan	-10.5925
ere	-10.5926
▁law	-10.5927
▁Human	-10.5932
▁nasusulat	-10.5933
pol	-10.5937
▁pasahero	-10.5939
▁1939	-10.5941
▁Tri	-10.5946
99	-10.5947
▁kamakailan	-10.596
▁pakiramdam	-10.596
▁mayayaman	-10.5961
▁Unido	-10.5977
▁nagtatrabaho	-10.598
▁papasok	-10.598
▁1985	-10.5982
▁2014	-10.5982
▁midya	-10.5985
ning	-10.5989
▁Kroasya	-10.599
▁nakukuha	-10.599
▁48	-10.5994
▁Act	-10.5997
▁radyasyon	-10.6
▁Paskuwa	-10.6
▁Iceland	-10.6
▁Olandes	-10.6
▁ani	-10.6001
etto	-10.6007
▁bisig	-10.601
▁baba	-10.6016
▁pinakamarami	-10.602
▁Bra	-10.6021
ras	-10.6025
▁gantimpala	-10.603
▁pinakamahusay	-10.6031
ous	-10.6053
▁Palasyo	-10.6061
▁naitatag	-10.6061
▁tuktok	-10.6069
▁pagtugon	-10.6069
▁Andres	-10.607
▁binuksan	-10.6071
▁Society	-10.6072
▁patinig	-10.6077
▁Pas	-10.6078
▁pinakamatao	-10.608
bigay	-10.6083
port	-10.6088
que	-10.6094
▁politikal	-10.6095
▁medyo	-10.6102
▁bus	-10.6108
▁Iberia	-10.6115
▁yaon	-10.6119
▁Duma	-10.6121
▁parisukat	-10.6122
▁pagkakatulad	-10.6123
▁pagkakamali	-10.6124
▁hibla	-10.6132
▁Es	-10.6137
dagdag	-10.6138
▁galaksiya	-10.6142
▁pinakamalapit	-10.6143
▁Alehandriya	-10.6143
▁sermon	-10.6144
▁nagwagi	-10.6156
▁Elizabeth	-10.6163
ingnan	-10.6168
lar	-10.6171
▁madilim	-10.6173
▁sumusuporta	-10.6173
▁sapilitan	-10.6173
bas	-10.6175
▁kusa	-10.6182
▁Einstein	-10.6183
ren	-10.6183
tawan	-10.6184
▁alpabeto	-10.6186
▁Institute	-10.6195
▁pagsukat	-10.6196
▁pagsasalita	-10.6199
cho	-10.62
▁we	-10.6201
▁kabundukan	-10.6204
▁unyon	-10.6208
40	-10.6208
▁Buo	-10.6209
▁nakakaraan	-10.6214
▁lumisan	-10.6215
▁pampang	-10.6222
fo	-10.6226
▁itinuro	-10.6228
let	-10.6228
▁panghimpapawid	-10.623
▁nagpasya	-10.623
▁Island	-10.6236
kaw	-10.6237
▁Pula	-10.6239
▁pinayagan	-10.6245
▁Theodosius	-10.6247
song	-10.6249
▁ospital	-10.625
uli	-10.625
▁pe	-10.6252
▁katanggap	-10.6254
aguyod	-10.6258
▁hinati	-10.6259
▁malalang	-10.6263
▁mayor	-10.6266
▁Victorina	-10.6266
tel	-10.6267
▁pinakakilala	-10.6268
▁Ji	-10.6268
ari	-10.6269
▁Adan	-10.6269
▁naglabas	-10.6273
▁hitsura	-10.6276
▁1999	-10.6279
▁go	-10.6279
ab	-10.6281
▁Golpo	-10.6287
▁nawalan	-10.6294
▁Ban	-10.6296
ish	-10.6297
▁Macapagal	-10.6297
▁Ginamit	-10.6297
▁krisis	-10.6298
▁maunawaan	-10.6298
▁Look	-10.6298
▁daluyan	-10.6308
▁reyna	-10.6308
▁2016	-10.631
bit	-10.631
anan	-10.6313
▁sabi	-10.6315
▁pangmatagalan	-10.6318
▁kapalaran	-10.6318
▁ipinag	-10.6324
▁Briton	-10.6325
▁kinakain	-10.6326
sel	-10.6327
▁diplomatiko	-10.6329
▁kin	-10.6332
▁misa	-10.6336
▁lahing	-10.6338
▁Black	-10.6339
isado	-10.6342
▁inom	-10.6343
hen	-10.6346
▁angaw	-10.6347
▁Komonwelt	-10.6349
▁antropolohiya	-10.635
▁High	-10.635
▁hanggan	-10.6351
▁laganap	-10.6352
▁nagpapatuloy	-10.6356
▁mono	-10.6364
▁palasyo	-10.6365
kasingkahulugan	-10.6367
▁bolyum	-10.637
▁pulong	-10.6374
▁min	-10.6375
▁Zi	-10.6376
uma	-10.6376
▁Komunista	-10.6381
anay	-10.6382
▁pagpapaliwanag	-10.6387
▁inhinyeriyang	-10.6389
▁Ad	-10.639
▁Eskoses	-10.6391
▁buhat	-10.6391
▁namuhay	-10.6392
▁pagkasira	-10.6396
til	-10.6403
▁Negros	-10.6405
▁Quran	-10.6406
▁magsimula	-10.6407
unan	-10.6407
bat	-10.6411
▁dumadaan	-10.642
kapagbigay	-10.6423
▁tangway	-10.6423
▁Indian	-10.6425
lon	-10.6432
katagpo	-10.6433
▁nabubuo	-10.6433
▁Timoteo	-10.6434
aw	-10.6434
▁nagtagal	-10.6435
▁gabay	-10.6441
▁pagbubuo	-10.6444
▁disorder	-10.6444
▁single	-10.6445
▁pambatas	-10.645
▁homo	-10.6453
▁Irlandes	-10.6455
naw	-10.6455
▁tumulong	-10.6456
▁pagsisikap	-10.6457
▁Valentinian	-10.6458
▁mapanatili	-10.6459
▁Binigyan	-10.6465
▁balak	-10.6466
▁Mesa	-10.6469
tum	-10.647
▁banta	-10.647
▁ranggo	-10.6473
▁roon	-10.6476
▁perpekto	-10.6476
▁Niceno	-10.6477
▁Ethiopia	-10.6477
▁mapanganib	-10.6479
▁2010.	-10.6486
▁internasyunal	-10.6487
tura	-10.6492
▁Occidental	-10.6497
▁sinusuportahan	-10.6497
▁monarkiya	-10.6508
▁sihay	-10.6508
▁Salungat	-10.6509
▁1944	-10.6509
▁Asia	-10.6517
▁tagapangasiwa	-10.6518
mbi	-10.6522
▁dasal	-10.6522
syo	-10.6527
matay	-10.6531
▁estruktura	-10.6535
▁pagluluto	-10.6535
▁Sibyla	-10.654
▁komunista	-10.654
▁pinakamaliit	-10.654
75	-10.654
if	-10.6544
▁epektibong	-10.6546
▁Gantimpala	-10.655
▁madla	-10.6551
▁riles	-10.6551
▁Mai	-10.6558
▁And	-10.6564
▁Latino	-10.6567
▁paglilingkod	-10.6568
my	-10.6568
▁Pakistan	-10.6572
▁Wa	-10.6573
hati	-10.6582
85	-10.6585
▁pagkabalisa	-10.6588
▁historyan	-10.659
▁rebelde	-10.6593
▁anya	-10.6595
kikipagtulungan	-10.6596
par	-10.6599
▁Arhentina	-10.6604
▁bomba	-10.6607
▁likha	-10.6608
▁kahawig	-10.6616
▁non	-10.6619
des	-10.662
▁baril	-10.6633
▁buma	-10.6635
▁nabawasan	-10.6637
▁Ten	-10.6644
eto	-10.6645
▁Washington	-10.6647
▁tumakbo	-10.6647
▁51	-10.6648
may	-10.665
▁pambansa	-10.6654
panatili	-10.6657
▁birhen	-10.6658
suportahan	-10.6663
aniniwala	-10.6668
iga	-10.6676
▁malinis	-10.6677
usan	-10.6679
▁Pelikula	-10.6679
▁Windows	-10.6679
▁Pilato	-10.668
siyon	-10.6681
▁Sol	-10.6682
▁magkabila	-10.6687
▁Ce	-10.6687
▁Torre	-10.6688
▁pagkalat	-10.669
▁absoluto	-10.669
ram	-10.669
▁Smith	-10.6701
▁Nahahati	-10.6702
▁mu	-10.6704
yl	-10.671
cu	-10.671
▁Aserbayan	-10.6712
▁laboratoryo	-10.6712
▁tipikal	-10.6712
▁integral	-10.6713
▁bulubundukin	-10.6723
▁Min	-10.6729
▁Lopez	-10.6734
▁minuto	-10.6734
▁dahan	-10.6735
▁pagpaparami	-10.6736
▁Kalaunan	-10.6738
▁tipo	-10.6747
▁Men	-10.6748
▁kontra	-10.6749
▁aplikasyon	-10.6755
▁sunog	-10.6758
▁abala	-10.6759
▁Sun	-10.6761
▁nagpadala	-10.6761
▁tanawin	-10.6761
ville	-10.677
▁Reino	-10.6773
▁paglabag	-10.6777
▁Pangalawa	-10.6778
▁1969	-10.6779
▁pangangatwiran	-10.678
▁eskwela	-10.6788
▁mahal	-10.6798
▁eksakto	-10.6799
▁75	-10.6806
▁Ukranya	-10.681
▁parokya	-10.6821
▁tinukoy	-10.6821
▁mahinang	-10.6825
▁molekular	-10.6833
ibo	-10.6834
dan	-10.6835
lus	-10.684
▁korupsiyon	-10.6843
▁nayon	-10.6843
15	-10.6843
pp	-10.6845
▁43	-10.6848
▁Nigeria	-10.685
▁pagtatanggol	-10.6858
▁wasto	-10.6859
eta	-10.6861
▁tindahan	-10.6865
▁Paliparan	-10.6865
▁pagtatanghal	-10.687
sing	-10.6872
▁gu	-10.6875
▁genome	-10.6876
▁momentum	-10.6876
tar	-10.6878
▁Rico	-10.688
▁bughaw	-10.6887
▁kantidad	-10.6887
▁makata	-10.6888
bay	-10.6894
▁Bulubundukin	-10.6898
▁Jeremias	-10.6898
taw	-10.6899
▁kuma	-10.6905
lantad	-10.6907
▁regalo	-10.6914
▁gi	-10.6916
kad	-10.6921
▁parangal	-10.6921
iri	-10.6922
▁Rocca	-10.6922
▁asin	-10.6926
▁aabuso	-10.6943
▁ipinagdiriwang	-10.6943
gpunta	-10.6944
▁panlalaki	-10.6954
▁Lee	-10.6955
▁inyo	-10.6956
fer	-10.696
▁pulis	-10.6961
▁pabor	-10.6962
▁kahalintulad	-10.6967
▁Judas	-10.6972
▁apo	-10.6975
▁debate	-10.6976
▁Herodes	-10.6976
ub	-10.698
▁pangka	-10.6984
▁nananaig	-10.6986
▁Liga	-10.6986
▁Naga	-10.6987
ae	-10.6989
▁Alejandro	-10.6998
▁diskriminasyon	-10.6998
▁inspirasyon	-10.6998
▁korporasyon	-10.6998
▁Jean	-10.6998
▁1947	-10.6999
gar	-10.7
▁argumento	-10.7009
▁bituka	-10.7009
▁namumulaklak	-10.7009
laban	-10.701
rya	-10.7013
▁nukleyar	-10.7013
▁panggitna	-10.7015
▁Roxas	-10.702
ono	-10.7028
balik	-10.7035
▁nagsisilbi	-10.704
▁pinagmumulan	-10.7043
▁Australya	-10.7043
gpapalagay	-10.7044
▁Isinaa	-10.7045
sulong	-10.7047
pat	-10.7053
▁meron	-10.7053
23	-10.7056
▁pangako	-10.7057
asan	-10.707
ena	-10.707
▁Kataas	-10.707
▁dimensiyon	-10.7072
tus	-10.7075
▁pinangunahan	-10.7077
▁Ke	-10.7078
▁ki	-10.7081
▁disease	-10.7088
▁distansiya	-10.7088
▁rural	-10.7088
hr	-10.7091
:	-10.7094
zu	-10.7095
▁malawakan	-10.7095
,000	-10.7097
▁62	-10.7099
▁Lupon	-10.7103
▁Albert	-10.7104
▁lasa	-10.7106
pis	-10.7118
▁September	-10.7122
▁ban	-10.7122
itis	-10.7125
▁nagtagumpay	-10.7126
▁Company	-10.7133
▁pagtitiwala	-10.7133
▁tumatagal	-10.7135
▁input	-10.7136
kuha	-10.7138
nas	-10.714
▁Jacob	-10.7141
tch	-10.7142
▁Krusada	-10.7144
dyang	-10.715
▁Mary	-10.715
▁pataas	-10.7154
▁pulgada	-10.7156
ama	-10.7156
▁uuri	-10.7158
ship	-10.7162
▁1935	-10.7168
▁materyales	-10.7168
▁Val	-10.7169
▁masyadong	-10.717
▁order	-10.7182
▁media	-10.7185
▁65	-10.7191
▁darating	-10.7193
▁bagama	-10.7194
▁maganap	-10.7194
▁masasama	-10.7195
▁alaga	-10.72
▁Francis	-10.721
kaimpluwensiya	-10.7211
▁iiba	-10.7211
▁pagpapatupad	-10.7214
yum	-10.7218
kong	-10.7219
▁huwaran	-10.7226
▁Roman	-10.723
▁anuman	-10.723
▁hanga	-10.7232
▁alin	-10.7235
▁Mexico	-10.7235
iinit	-10.7236
▁Basil	-10.7242
mus	-10.7242
▁tuldok	-10.7243
▁matigas	-10.7244
net	-10.7246
▁Camarines	-10.7247
▁are	-10.7249
▁nagtuturo	-10.725
▁pangpagtatalik	-10.725
sara	-10.7253
▁pagbubukas	-10.7253
gpahayag	-10.726
mb	-10.7265
▁Isla	-10.7267
▁Ur	-10.7272
▁44	-10.7273
ilang	-10.7273
▁Ginawa	-10.7274
ksiyon	-10.7274
▁anggulo	-10.7286
lito	-10.7289
▁150	-10.7297
▁madre	-10.7301
▁tingin	-10.7303
kha	-10.7308
▁Nazi	-10.7308
▁baybay	-10.7309
▁posibilidad	-10.7316
▁Kinatawan	-10.7316
▁paglilitis	-10.7319
▁Isaac	-10.732
hiya	-10.7324
bre	-10.7326
ese	-10.7328
▁abo	-10.7332
los	-10.7334
gamit	-10.7336
kit	-10.7338
▁pagbasa	-10.7338
▁konserbatibo	-10.7339
19	-10.735
▁Doukas	-10.735
▁ipinakita	-10.7351
▁Persia	-10.7359
ey	-10.736
▁Laskaris	-10.7362
▁Sabado	-10.7362
▁tali	-10.7364
▁inapo	-10.737
▁Sanskrit	-10.7374
▁daungan	-10.7374
▁ipinagbabawal	-10.7375
▁47	-10.7376
turang	-10.739
▁Day	-10.7394
▁Law	-10.7406
▁dumaan	-10.7407
83	-10.7407
▁handa	-10.7408
▁pwede	-10.7408
▁Maliban	-10.741
▁Bur	-10.7418
▁his	-10.7419
▁Tom	-10.742
▁kinalalagyan	-10.7421
▁CD	-10.7424
▁komedya	-10.7431
▁Channel	-10.7432
▁himpapawid	-10.7443
▁negatibo	-10.7443
gpapataas	-10.7445
▁balahibo	-10.7455
▁opinyon	-10.7455
▁kalye	-10.7455
▁Sweden	-10.7456
▁magkakaroon	-10.7456
ft	-10.7457
▁panghuli	-10.7458
▁People	-10.7467
▁Java	-10.7468
sik	-10.7469
▁palakasan	-10.7473
▁malambot	-10.7474
▁singaw	-10.7474
▁sinag	-10.7475
▁pakikipaglaban	-10.7478
▁Pre	-10.7479
▁basiko	-10.7479
ide	-10.748
▁elektroniko	-10.7483
▁Rosa	-10.7485
▁ngayo	-10.7488
sol	-10.7488
▁maipa	-10.7491
▁Ramon	-10.7492
▁fi	-10.75
▁pagtanggi	-10.7502
▁nilalarawan	-10.7503
▁panalangin	-10.751
▁Ocean	-10.7511
▁pagkapangulo	-10.7514
▁pakikidigma	-10.7514
▁antibiyotiko	-10.7515
▁magkakaugnay	-10.7537
▁Hall	-10.7539
▁wa	-10.7542
▁makilala	-10.7542
▁pinagkunan	-10.755
▁Kanila	-10.7553
ico	-10.7553
▁America	-10.7556
▁Corporation	-10.7561
▁mikrobyo	-10.7561
▁namumuhay	-10.7561
▁Batasan	-10.7571
▁katubigan	-10.7573
▁linyar	-10.7574
▁ubo	-10.7575
▁panaginip	-10.7578
▁Pala	-10.7578
▁milagro	-10.7579
▁kinalabasan	-10.7584
▁nagpapahayag	-10.7587
ive	-10.7597
▁Ramos	-10.7598
▁mood	-10.7599
▁pagtatata	-10.7599
▁SM	-10.7603
▁pagsabog	-10.7603
▁can	-10.7614
▁Luther	-10.7619
▁Hawaii	-10.762
▁Libya	-10.762
▁menor	-10.7624
▁Ako	-10.7624
▁Nicaea	-10.7632
▁kahilingan	-10.7632
00	-10.7635
▁uusig	-10.7639
▁Tai	-10.7641
▁Lupain	-10.7642
▁Sal	-10.7645
mento	-10.7646
▁ph	-10.7647
▁nagpasimula	-10.7648
▁Henesis	-10.7648
▁English	-10.7656
▁abenida	-10.7656
▁administratibo	-10.7656
nib	-10.7656
▁Peter	-10.7657
hara	-10.766
▁ikot	-10.7661
▁Nations	-10.7662
▁amoy	-10.7665
▁Kim	-10.7667
gtayo	-10.7667
▁Ermita	-10.7668
▁aalsa	-10.7668
▁data	-10.7668
▁Croatia	-10.7668
▁handog	-10.7675
▁nakalagay	-10.7678
▁nagdala	-10.7678
▁ahensiya	-10.768
▁Natagpuan	-10.7692
▁internet	-10.7693
tagal	-10.7696
rang	-10.7696
ase	-10.7697
▁lit	-10.7697
nte	-10.7699
bukod	-10.7699
▁pagtatalo	-10.7704
▁pumalit	-10.7704
▁nagsasama	-10.7705
▁ipinalabas	-10.7706
▁Mindoro	-10.7715
▁Taon	-10.772
▁Napoleon	-10.7722
▁Sr	-10.7723
▁bungo	-10.7729
pas	-10.773
▁Solomon	-10.7739
tial	-10.7746
▁kumain	-10.7749
▁gagamitin	-10.7752
yn	-10.7753
isip	-10.7754
wood	-10.7756
▁hiwa	-10.776
▁idinagdag	-10.7761
▁metodo	-10.7763
▁kanang	-10.7764
▁ehekutibo	-10.7764
▁orgasmo	-10.7764
▁Organization	-10.7764
▁pandiwa	-10.7764
▁European	-10.7765
▁inilunsad	-10.7766
▁Hinang	-10.777
istiko	-10.7773
▁sintesis	-10.7774
▁Health	-10.7776
▁romantiko	-10.7777
▁shi	-10.7779
VI	-10.7782
▁propesiya	-10.7788
▁Troya	-10.7788
ira	-10.7788
▁host	-10.7789
▁umano	-10.7791
▁pinto	-10.7791
▁out	-10.7792
▁2008.	-10.7799
▁Internet	-10.78
▁pinamamahalaan	-10.7805
▁France	-10.7805
▁konstitusyon	-10.7807
▁hapon	-10.7811
▁Com	-10.7812
▁relatibidad	-10.7812
▁isinilang	-10.7812
▁kunin	-10.7818
▁simbolong	-10.7823
▁Espiritu	-10.7836
▁Kasapi	-10.7837
▁pagkakamit	-10.7839
mpananampalataya	-10.7847
▁kakayanan	-10.7848
gagamit	-10.7855
▁hurisdiksiyon	-10.786
▁Armenya	-10.786
▁Cambrian	-10.7862
▁sinusundan	-10.7864
▁iilan	-10.7864
▁pagkaunawa	-10.7866
daan	-10.7867
▁Pinaka	-10.7867
▁Alagad	-10.7873
▁proton	-10.7873
suri	-10.7873
nya	-10.7874
▁Magmula	-10.788
▁ugnay	-10.7884
▁pagtatakda	-10.7894
elos	-10.7896
▁paliparan	-10.7897
▁impeksiyong	-10.79
▁Vi	-10.7903
tupad	-10.7905
▁Cambodia	-10.7909
▁tinggil	-10.7912
▁lunti	-10.7913
▁Gen	-10.7913
lig	-10.7914
▁magawa	-10.7916
▁Hinduismo	-10.7924
ante	-10.7925
▁Proto	-10.7928
lla	-10.7931
▁pantelebisyon	-10.7934
▁responsibilidad	-10.7934
▁Mahalaga	-10.7934
▁kumpol	-10.7935
▁senador	-10.7936
sin	-10.7936
rim	-10.7944
▁Cape	-10.7946
▁Iloilo	-10.7946
▁libre	-10.7947
▁nalikha	-10.7951
▁katapatan	-10.7955
asca	-10.7955
▁Sub	-10.7958
▁nucleus	-10.796
iugnay	-10.7967
▁dis	-10.7968
▁Quirino	-10.7971
▁Itim	-10.7971
▁ibinalik	-10.7972
11	-10.7972
▁Babae	-10.7974
bili	-10.7979
oid	-10.7981
▁membrano	-10.7983
▁bakas	-10.7983
ete	-10.7983
▁puki	-10.7985
▁patron	-10.7989
▁kontrobersiya	-10.7989
▁Hina	-10.799
▁multi	-10.7992
▁sakupin	-10.7994
▁nalilikha	-10.7996
▁mamuhay	-10.7996
▁Nangangahulugan	-10.7996
▁pagsakop	-10.8002
pl	-10.8005
▁ikaw	-10.8006
ensiya	-10.8007
kar	-10.801
▁It	-10.8013
tak	-10.8013
▁mabagal	-10.8014
30	-10.8019
▁taglamig	-10.802
nig	-10.8025
luklok	-10.8031
▁matematiko	-10.8032
▁Luis	-10.8035
▁epektibo	-10.8038
ilalapat	-10.804
▁pamp	-10.8042
▁kalangitan	-10.8045
wasak	-10.8046
▁pagkalipas	-10.8047
ture	-10.8048
▁huming	-10.8049
▁Marino	-10.8049
gma	-10.805
▁manatili	-10.8051
▁54	-10.8052
▁ahedres	-10.8057
▁Agham	-10.8057
▁Kardinal	-10.8058
▁balikat	-10.8058
▁pinakahuli	-10.8059
iyak	-10.8061
ibalik	-10.8066
phi	-10.8066
▁Bawa	-10.8068
dis	-10.8068
▁Sanggunian	-10.807
▁mabuo	-10.807
▁sya	-10.8073
▁Serbya	-10.8083
lum	-10.8087
▁arko	-10.8088
▁pagdaka	-10.8092
▁tuwid	-10.8092
▁imbensiyon	-10.8095
tas	-10.8099
ii	-10.8101
cio	-10.8102
▁Inc	-10.8104
▁iglesia	-10.8107
▁lumaganap	-10.8107
▁dinisenyo	-10.8108
▁naglingkod	-10.8109
husay	-10.811
▁bawa	-10.8117
▁Tina	-10.8117
▁entidad	-10.8119
▁katungkulan	-10.8119
▁kulto	-10.812
▁pagmamay	-10.812
▁Air	-10.812
▁video	-10.8132
bul	-10.8134
▁industriyal	-10.8145
▁Army	-10.8145
ikayat	-10.8145
▁mabigyan	-10.8147
tahan	-10.8152
▁Netherlands	-10.8157
▁atraksiyon	-10.8157
▁tinipon	-10.8158
▁Har	-10.8161
ology	-10.8166
kot	-10.8167
▁ro	-10.8168
eb	-10.8168
mina	-10.8171
▁Samakat	-10.8174
▁kayumanggi	-10.8177
▁pagtulong	-10.8182
pal	-10.8182
ula	-10.8183
20	-10.8188
▁babasahin	-10.8195
ogen	-10.8202
▁mapang	-10.8202
pataas	-10.8205
90	-10.821
▁katabi	-10.8211
▁Victoria	-10.8214
sha	-10.8218
▁Pali	-10.8219
mas	-10.8219
▁pagdurusa	-10.822
▁Sentral	-10.822
kay	-10.8221
▁matataa	-10.8223
ral	-10.8228
▁Lupangyelo	-10.8232
▁makatulong	-10.8234
▁1900	-10.8235
▁marka	-10.8236
▁Magallanes	-10.8245
▁propesor	-10.8245
▁ibabang	-10.8251
▁pagpapalabas	-10.8253
▁semi	-10.8254
▁kayo	-10.8256
▁kinaroroonan	-10.8258
▁kritisismo	-10.8258
▁1971	-10.8258
uwid	-10.8263
▁usapin	-10.8263
▁her	-10.8263
▁nakipag	-10.8264
▁pagtulog	-10.8267
▁kanan	-10.8267
gno	-10.8268
▁ilegal	-10.827
▁tabla	-10.8275
▁makit	-10.8276
▁paghihirap	-10.8276
▁denominasyon	-10.8283
▁panatilihin	-10.8283
▁mamimili	-10.8283
▁inilathala	-10.8285
▁magkahiwalay	-10.8292
▁Del	-10.8294
▁Gregorio	-10.8296
▁himagsikan	-10.8296
▁interbal	-10.8297
▁1896	-10.8298
▁Higi	-10.8307
▁santauhan	-10.8309
▁mineral	-10.8312
ghayag	-10.8314
▁iniwan	-10.8315
ire	-10.8318
▁umiikot	-10.8334
haw	-10.8335
▁tumigil	-10.8335
▁gina	-10.834
▁saloobin	-10.8349
▁mana	-10.835
▁pastol	-10.8353
▁sexual	-10.8357
ste	-10.836
▁Colombia	-10.836
▁nilay	-10.8363
▁pagkakabuo	-10.8363
06	-10.8365
▁prusisyon	-10.8365
limbag	-10.8367
▁tigdas	-10.8372
▁Bisaya	-10.8373
▁pribado	-10.8375
ugan	-10.8379
▁naniwala	-10.838
▁pangatlong	-10.838
▁urbano	-10.8382
kr	-10.8382
▁1942	-10.8386
▁Lukas	-10.8387
▁nagka	-10.8395
▁alituntunin	-10.8398
▁distribusyon	-10.8398
kaharap	-10.8403
▁pinapa	-10.8404
▁pri	-10.8408
▁semilya	-10.8411
▁pagkatalo	-10.8413
glunsad	-10.8414
▁benepisyo	-10.8415
rum	-10.8416
▁hininga	-10.8423
▁Academy	-10.8424
▁kaka	-10.8424
▁Exodo	-10.8424
ola	-10.8424
Z	-10.8426
nto	-10.843
▁kaiba	-10.8431
▁Narit	-10.8432
▁Col	-10.8433
▁nating	-10.8437
▁my	-10.8439
▁silbi	-10.8441
▁Litwanya	-10.845
▁pangmusika	-10.845
▁tropikal	-10.845
▁Antioquia	-10.845
▁sekular	-10.845
ju	-10.845
▁leon	-10.8451
▁pagsasaka	-10.8452
▁atomic	-10.8455
▁Benedicto	-10.8459
ez	-10.846
sky	-10.8462
70	-10.8462
sinulat	-10.8462
▁Gloria	-10.8463
▁limitasyon	-10.8463
▁1961	-10.8464
▁1918	-10.8465
▁Dan	-10.8469
line	-10.8471
▁pisiko	-10.8476
▁kagawaran	-10.8476
▁pinakatanyag	-10.8477
har	-10.8477
hon	-10.8479
▁Arius	-10.848
▁Cas	-10.8488
▁Ipinapakita	-10.8489
▁41	-10.8489
▁bihirang	-10.8492
▁pagbubuntis	-10.8492
don	-10.8494
hit	-10.8499
▁Liechtenstein	-10.8501
▁konsentrasyon	-10.8501
nik	-10.8504
lia	-10.8504
▁utong	-10.8509
▁52	-10.8511
cc	-10.8512
atalakay	-10.8513
▁electron	-10.8518
▁Palestina	-10.8527
▁Free	-10.8527
▁pagdadala	-10.8529
▁57	-10.8535
▁makakuha	-10.8541
▁1953	-10.8542
▁Kina	-10.8545
▁naisulat	-10.8547
68	-10.8552
und	-10.8553
ulebar	-10.8553
▁Zoroastrianismo	-10.8554
orazon	-10.8555
▁pinagtibay	-10.8562
▁Templo	-10.8567
▁naghahanap	-10.8573
▁tanggapin	-10.8574
▁palagian	-10.8576
▁seksiyon	-10.858
▁bilangguan	-10.858
▁gulong	-10.8586
tre	-10.8587
▁paglabas	-10.8589
▁Che	-10.8589
▁kalihim	-10.8593
▁binibigkas	-10.8593
▁piso	-10.8593
dala	-10.8598
▁pintor	-10.86
uran	-10.861
▁iwan	-10.8614
sca	-10.8617
▁nananatili	-10.8617
▁Ghana	-10.862
▁Bell	-10.862
▁cell	-10.8631
▁Patriarka	-10.8632
▁Kasalukuya	-10.8635
▁kaibahan	-10.8636
▁Ipinaliwana	-10.8638
tataas	-10.864
lak	-10.864
▁Belb	-10.8642
▁lindol	-10.8645
▁okasyon	-10.8646
▁doble	-10.865
dakip	-10.865
▁babala	-10.8654
▁Liwasan	-10.8658
kahiwalay	-10.8659
12	-10.8662
▁masigla	-10.8666
▁kabuhayan	-10.8672
ndo	-10.8672
by	-10.8683
▁sampu	-10.8684
▁kanais	-10.8685
wag	-10.8685
▁1929	-10.8687
▁Gayon	-10.869
▁Medina	-10.8694
▁nangangasiwa	-10.8698
▁henus	-10.8699
▁pagpapakasal	-10.8699
laan	-10.8703
▁Her	-10.8703
▁organisado	-10.8703
▁Sri	-10.8706
long	-10.871
patupad	-10.8711
hy	-10.8714
▁akyat	-10.8715
▁pagpapalitan	-10.8716
▁pagpapasya	-10.8718
uhin	-10.8718
▁bidyo	-10.8725
▁Road	-10.8728
ilan	-10.8732
adong	-10.8733
▁March	-10.8734
▁ri	-10.8734
▁Pangasinan	-10.8738
▁Metro	-10.8738
▁makatwiran	-10.874
▁inilimbag	-10.8741
▁Malate	-10.8741
▁napansin	-10.8743
▁makapal	-10.8744
▁Zealand	-10.8751
▁nangingibabaw	-10.8751
▁monghe	-10.8752
16	-10.8752
▁nagsasarili	-10.8753
▁realidad	-10.8753
▁pagkontrol	-10.8755
▁vi	-10.8756
▁binabanggi	-10.8757
▁UN	-10.8767
▁iniisip	-10.8769
▁koleksiyon	-10.8778
▁Thai	-10.8782
▁400	-10.8789
uga	-10.879
▁Malolos	-10.8791
▁singsing	-10.8793
hambing	-10.8797
▁Qur	-10.8801
▁lumahok	-10.8805
▁pagtutol	-10.8805
▁Kon	-10.8811
▁espiritwal	-10.8818
▁malay	-10.8818
▁milenyo	-10.882
▁White	-10.8821
▁Fr	-10.8826
▁katarungan	-10.8827
▁namamatay	-10.8832
▁panlupa	-10.8832
gat	-10.8834
sus	-10.8835
ob	-10.8839
stan	-10.8844
▁reproduktibo	-10.8845
▁watawat	-10.8845
▁Kautusan	-10.8845
▁hukom	-10.8845
mun	-10.8846
▁kalahok	-10.8853
syong	-10.8856
smo	-10.8856
▁pamumuhunan	-10.8858
28	-10.8864
▁maikli	-10.8865
▁panandalian	-10.8872
▁presensiya	-10.8872
▁59	-10.8876
▁Kadalasa	-10.8879
▁punsiyong	-10.888
▁One	-10.8898
▁nalaman	-10.8899
laga	-10.8905
kol	-10.8907
▁Villa	-10.8908
laya	-10.891
▁rebolusyonaryo	-10.8912
▁69	-10.8916
▁memorya	-10.8918
▁emosyon	-10.8921
▁Comoros	-10.8926
▁bum	-10.8927
80	-10.8928
glalagay	-10.8932
aceae	-10.8933
ensis	-10.8936
▁atoms	-10.8937
▁sulatin	-10.8937
▁Austrya	-10.8939
▁bariasyon	-10.8939
▁kombinasyon	-10.8939
▁Polako	-10.8939
▁eksklusibo	-10.8939
▁kompetisyon	-10.8939
▁ya	-10.8949
▁Polo	-10.895
▁1974	-10.8954
▁erotiko	-10.8954
▁Lakas	-10.8956
▁sibilyan	-10.8959
tter	-10.8961
▁z	-10.8963
▁baguhin	-10.8965
▁pagninilay	-10.8966
▁istilo	-10.8966
▁kagaya	-10.8968
▁nakakaapekto	-10.8968
ormida	-10.8969
▁ben	-10.8971
mana	-10.8972
▁Tra	-10.8972
▁Justin	-10.8972
▁States	-10.8975
▁Gal	-10.8975
98	-10.8979
▁pinapayagan	-10.898
▁lehislatura	-10.898
▁ekspresyon	-10.8982
▁Binago	-10.8982
▁likuran	-10.8982
▁maabot	-10.8983
▁Fe	-10.8983
▁Duke	-10.8986
ela	-10.899
▁panitik	-10.8991
▁Achilles	-10.8993
▁pop	-10.8999
▁tampok	-10.9001
▁itina	-10.9007
▁1967	-10.9009
▁halik	-10.9012
▁kolonyal	-10.9014
▁Nu	-10.9016
hing	-10.9018
▁ek	-10.9018
▁lumalago	-10.902
bin	-10.9024
buo	-10.9027
▁Victor	-10.9032
▁imam	-10.9033
ilo	-10.9033
libing	-10.9033
▁pandigma	-10.9034
▁hanapbuhay	-10.9035
▁el	-10.9038
▁astronomiya	-10.9039
▁car	-10.9041
▁ho	-10.9042
▁Anti	-10.9043
lulu	-10.9047
▁pagkakasunud	-10.9048
▁kausap	-10.9051
ente	-10.9057
▁Mongol	-10.9058
▁hini	-10.9062
▁tumutur	-10.9062
oto	-10.9063
ias	-10.9064
▁Luma	-10.9066
▁hulihan	-10.9068
▁Mac	-10.9073
▁Bautista	-10.9076
▁Luksemburgo	-10.9076
▁Mozambique	-10.9076
▁akademiko	-10.9076
ep	-10.9078
ayon	-10.9078
▁1917	-10.9079
▁Kenya	-10.9079
▁alinman	-10.9081
79	-10.909
▁tumira	-10.909
18	-10.909
▁1959	-10.9091
kamit	-10.9097
imo	-10.9101
▁pintuan	-10.9104
▁1964	-10.9104
▁Augustus	-10.9108
▁apektado	-10.9109
▁2009.	-10.9112
48	-10.9114
▁lubusan	-10.9117
▁Haiti	-10.9118
▁marahas	-10.9119
pr	-10.912
ello	-10.9122
▁Rus	-10.9124
17	-10.9128
uwi	-10.9131
▁Bahagi	-10.9132
▁who	-10.9133
▁have	-10.9135
▁kontrata	-10.9136
lag	-10.9139
itan	-10.9142
ney	-10.9143
▁ala	-10.9143
▁kulisap	-10.9145
▁nakatatanda	-10.9145
▁karatig	-10.915
III	-10.9151
▁hum	-10.9151
▁kaligayahan	-10.9158
▁pagnanasa	-10.9158
▁Katutubo	-10.9159
tatag	-10.9163
anak	-10.9167
▁sariwa	-10.917
▁paglalapat	-10.917
▁ilagay	-10.9174
logo	-10.9177
▁maimpluwensiya	-10.9179
▁Sunni	-10.9179
▁patag	-10.9185
▁im	-10.9185
▁pangkompyuter	-10.9186
▁kuwadrado	-10.9186
▁pinagtatalunan	-10.9187
▁nagkakaisa	-10.919
▁Taga	-10.9192
▁noo	-10.9198
▁Pri	-10.9199
sia	-10.92
▁Kasakistan	-10.92
▁Zimbabwe	-10.92
▁diyalekto	-10.92
▁tumatakbo	-10.9201
▁Reyes	-10.9201
▁Judah	-10.9202
pak	-10.9203
▁kahon	-10.9204
▁Filipo	-10.9209
enos	-10.9209
▁Prefecture	-10.9214
▁tuberkulosis	-10.9214
▁Makikita	-10.9216
▁itinakwil	-10.9216
▁1898	-10.9219
▁kontemporaryo	-10.9228
▁mansanas	-10.9228
▁kotse	-10.9229
▁Nordiko	-10.923
the	-10.9234
▁Pilosopo	-10.9242
▁Tanzania	-10.9242
▁mapayapa	-10.9242
▁erectus	-10.9242
▁hinahati	-10.9248
▁Pam	-10.925
▁paglaon	-10.9252
▁Gan	-10.9254
▁Bal	-10.9254
▁sosyolohiya	-10.9256
▁kardinal	-10.9257
▁Alba	-10.9261
▁napapa	-10.9265
▁kape	-10.9268
▁Os	-10.9268
▁bintana	-10.927
▁Tawi	-10.927
▁1968	-10.9272
▁Tora	-10.928
uin	-10.928
▁Ex	-10.9284
▁Lanao	-10.9284
▁53	-10.9288
▁2011.	-10.9292
▁nasakop	-10.9293
▁narinig	-10.9297
▁pinakamababa	-10.9297
▁putik	-10.9297
▁Pokemon	-10.9298
▁bulwagan	-10.9298
▁teologo	-10.9298
▁pagdaragdag	-10.9299
rian	-10.9302
▁bayad	-10.9302
▁Hor	-10.9303
▁korona	-10.9304
▁sex	-10.9306
▁Panitikan	-10.9308
▁pagtakbo	-10.931
▁aktres	-10.9312
▁inutusan	-10.9314
▁Bang	-10.9314
▁pamama	-10.9317
▁pigura	-10.9317
ulan	-10.9319
pabuti	-10.932
▁Ber	-10.9324
▁Agustin	-10.9326
▁nilalapat	-10.9326
▁pakikibaka	-10.9326
▁mangyayari	-10.9327
▁Awards	-10.9333
▁Gordian	-10.934
▁Expressway	-10.934
▁pondo	-10.9341
▁awtoridad	-10.9341
ili	-10.9349
git	-10.9357
rivia	-10.9358
▁oryentasyo	-10.9365
▁sala	-10.9365
▁homosekswal	-10.9367
kawa	-10.9371
▁2018	-10.9371
osis	-10.9373
pot	-10.9377
▁namamana	-10.9379
▁Namibia	-10.9383
▁klasikal	-10.9383
▁Borneo	-10.9383
▁pagkakatatag	-10.9384
▁tinutulan	-10.9387
ves	-10.9388
▁Dios	-10.9391
▁Sir	-10.9391
▁Bataan	-10.9394
▁takbo	-10.9396
▁panimula	-10.9397
▁quark	-10.9397
▁pasilidad	-10.9397
▁1952	-10.9398
▁Maya	-10.9399
▁Lim	-10.9401
▁Sea	-10.9402
unlad	-10.9404
ute	-10.9404
cal	-10.9408
▁Cap	-10.941
▁Tibet	-10.9415
▁Un	-10.9416
hanap	-10.9418
▁dumalo	-10.9423
▁Rivera	-10.9424
kt	-10.9424
▁Jordan	-10.9425
▁inilalagay	-10.9427
▁pagkabulok	-10.9427
▁Nakilala	-10.9428
▁dengue	-10.944
▁mekanikal	-10.9441
▁mahahaba	-10.9441
▁nagwakas	-10.9442
lapit	-10.945
ei	-10.9454
▁paglisan	-10.9454
▁tuhod	-10.9455
▁pinu	-10.9457
hirap	-10.9457
▁naglalakbay	-10.9458
au	-10.9458
▁yumao	-10.9462
pus	-10.9467
01	-10.9467
▁Maguindanao	-10.9468
▁Tan	-10.9469
▁Monako	-10.947
▁China	-10.9471
▁sibilisasyon	-10.9471
▁Miss	-10.9474
ukan	-10.9474
▁number	-10.9478
ise	-10.9479
▁kami	-10.9482
▁Cameroon	-10.9482
▁Heyorhiya	-10.9482
▁demokratiko	-10.9482
▁1933	-10.9485
▁idina	-10.9493
▁salungat	-10.9496
▁espesiasyon	-10.9497
▁kumikilos	-10.9497
▁Kabisayaan	-10.9511
▁katunggali	-10.9512
▁1962	-10.9512
elle	-10.9518
▁61	-10.9524
niko	-10.9526
▁meta	-10.9526
▁nilagdaan	-10.9526
▁Kredo	-10.9527
▁ahas	-10.953
galit	-10.953
▁grap	-10.9533
▁ibigay	-10.9534
ahan	-10.9534
▁espasyong	-10.9536
▁Pasay	-10.9543
kul	-10.9545
▁ninanais	-10.9554
▁bektor	-10.9555
▁iingat	-10.9555
ance	-10.9555
▁nakabase	-10.9556
▁Bible	-10.956
▁pen	-10.9563
▁galang	-10.9565
▁Florida	-10.9565
▁tahimik	-10.9565
▁Bor	-10.9566
▁ibn	-10.9567
▁Marcion	-10.9567
win	-10.9568
lisan	-10.9569
▁prostitusyon	-10.9569
▁Shin	-10.9572
▁Baguio	-10.9583
▁Galilea	-10.9583
▁panginoon	-10.9583
▁medalya	-10.9584
▁1936	-10.9585
▁dalawampu	-10.9585
oy	-10.9586
78	-10.9587
▁ap	-10.9592
▁Serra	-10.9593
▁nakagawa	-10.9594
▁sumi	-10.9595
▁nagagamit	-10.9596
▁Nai	-10.9597
▁Madagascar	-10.9598
▁kompuwesto	-10.9598
▁turista	-10.9599
▁kampo	-10.9604
▁Je	-10.9607
sagisag	-10.961
▁kapisanan	-10.9612
▁syndrome	-10.9612
▁text	-10.9612
▁pumili	-10.9613
▁akin	-10.9614
yar	-10.9614
▁Sibil	-10.9614
▁Carl	-10.9615
aapekto	-10.9616
▁lingguwistika	-10.962
33	-10.9625
akwil	-10.9625
mahan	-10.9626
▁acid	-10.9627
▁kompositor	-10.9627
▁biolohikal	-10.9627
▁genetic	-10.9632
▁ikina	-10.9635
▁kagalingan	-10.9641
▁Tarsilo	-10.9641
▁Andora	-10.9641
▁kredo	-10.9642
ayos	-10.9642
▁palaro	-10.9644
haba	-10.9651
▁56	-10.9652
▁Gabi	-10.9653
▁Zambia	-10.9656
▁Madrid	-10.9656
▁viral	-10.9658
ski	-10.966
inam	-10.9666
▁Gilgamesh	-10.967
▁katatagan	-10.967
▁Super	-10.9672
iro	-10.9674
▁Kal	-10.9679
▁sensitibo	-10.9683
tanggal	-10.9684
▁bumili	-10.9685
▁85	-10.9686
ef	-10.9686
▁pangunguna	-10.9686
▁lumago	-10.9687
▁ipinakikita	-10.9688
▁abstrakto	-10.969
ril	-10.9697
▁1000	-10.9698
▁Trinidad	-10.97
▁Triasiko	-10.97
▁all	-10.9703
95	-10.9708
▁aalok	-10.9708
ograpiya	-10.9709
can	-10.971
▁mikro	-10.9712
▁2007.	-10.9712
▁Hersegobina	-10.9714
▁Tarlac	-10.9714
▁Julian	-10.9714
▁dumadaloy	-10.9717
lli	-10.9717
▁Sant	-10.972
▁Osiris	-10.9729
▁ekspedisyon	-10.9729
▁kuta	-10.9733
▁SI	-10.9734
van	-10.9734
▁55	-10.9735
▁ligaw	-10.9739
▁Cho	-10.974
▁maitim	-10.9743
▁ikalabing	-10.9744
▁kapilya	-10.9744
▁95	-10.9745
▁oposisyon	-10.9747
zano	-10.975
▁Hua	-10.9757
▁Caesar	-10.9758
▁densidad	-10.9758
▁Bissau	-10.9758
▁pagpaplano	-10.9758
agan	-10.9759
▁umi	-10.9761
▁maingat	-10.9762
▁dambana	-10.9768
▁Maka	-10.9772
▁nakapaligid	-10.9773
hinto	-10.9775
▁2017	-10.9776
ell	-10.9776
▁umpisa	-10.9777
kto	-10.9778
halo	-10.9779
▁Van	-10.9782
▁Bol	-10.9784
▁episodyo	-10.9788
harap	-10.9788
▁Sus	-10.9789
▁guma	-10.9793
▁ngalan	-10.9793
bago	-10.9794
▁sumama	-10.9795
▁com	-10.9796
▁pampook	-10.9802
▁tainga	-10.9803
▁Edward	-10.9803
▁biolohiya	-10.9804
▁Poland	-10.9804
▁tulungan	-10.9809
▁Mecca	-10.981
▁Iraq	-10.9814
26	-10.9815
▁Ye	-10.9816
▁power	-10.9818
▁River	-10.9821
▁Easter	-10.9828
▁Science	-10.9828
▁ana	-10.9829
▁Bangko	-10.9831
lap	-10.9832
▁Canaan	-10.9832
▁1957	-10.9834
▁sulok	-10.9835
▁inihalal	-10.9836
▁ju	-10.9837
ilyo	-10.9839
▁dalisay	-10.9842
▁Isina	-10.9844
▁Surigao	-10.9847
▁ginagampanan	-10.9847
▁pandinig	-10.9847
▁lumaban	-10.9847
▁Paloma	-10.9849
▁puntos	-10.9852
▁unggoy	-10.9862
▁pangarap	-10.9863
▁isama	-10.9863
▁1966	-10.9863
▁bala	-10.9865
▁Cuba	-10.9868
▁Italyanong	-10.987
▁katimugan	-10.9871
hulog	-10.9872
fu	-10.9876
▁Arturo	-10.9877
▁tagapagmana	-10.9878
▁1943	-10.9878
ani	-10.9879
▁alok	-10.9884
▁bio	-10.9887
▁lumi	-10.9888
▁Moldabya	-10.9892
▁Lansangan	-10.9892
▁Nepal	-10.9892
▁Gran	-10.9893
▁bihira	-10.9894
▁Tangi	-10.99
▁kal	-10.9901
▁sumisi	-10.9903
xi	-10.9906
▁Sukarno	-10.9906
▁kumilos	-10.9906
▁Oxford	-10.9906
▁solido	-10.9908
▁Marie	-10.9913
▁papaano	-10.9914
▁64	-10.9918
bang	-10.9919
▁Uganda	-10.9921
▁tagapagpaganap	-10.9922
▁tumakas	-10.9922
larawan	-10.9934
▁paglalaro	-10.9934
bok	-10.9939
laman	-10.994
▁gala	-10.9942
▁Baha	-10.9943
liko	-10.9946
▁Ateneo	-10.9952
▁Arianismo	-10.9952
tsa	-10.9956
ipon	-10.9959
▁kasangkot	-10.996
▁Shu	-10.996
▁kaba	-10.9961
▁mandirigma	-10.9966
▁pagkakatapon	-10.9967
▁nakakita	-10.9967
alan	-10.9967
▁sumasalungat	-10.9971
▁Nan	-10.9973
▁pambayan	-10.9974
ther	-10.9978
▁Pangkalahata	-10.9978
▁Son	-10.9979
▁imp	-10.9981
▁stress	-10.9981
aglalaman	-10.9981
▁bakulaw	-10.9981
▁kaaya	-10.9985
▁magamit	-10.9986
▁Romania	-10.999
▁kata	-10.999
▁nagturo	-10.9993
▁kala	-10.9994
▁insekto	-10.9996
ret	-10.9998
isyon	-10.9999
liwanag	-11.0004
ben	-11.001
▁akto	-11.0013
▁kama	-11.0014
▁pagku	-11.0014
▁matalik	-11.0016
▁sinapupunan	-11.0027
▁Sumeryo	-11.0027
▁sandatahan	-11.0029
▁Avenue	-11.0042
▁gabinete	-11.0042
▁pangitain	-11.0042
▁tiwala	-11.0043
▁lumapit	-11.0043
▁biglaang	-11.0047
▁Mal	-11.0047
uto	-11.0047
▁itinala	-11.0049
▁gay	-11.0057
▁Crisostomo	-11.0057
▁Sel	-11.0062
▁Bato	-11.0069
▁sambahayan	-11.0072
▁bisita	-11.0072
▁nakakatulong	-11.0073
▁sumuko	-11.0074
▁chi	-11.0074
▁neuro	-11.0082
rie	-11.0082
▁rock	-11.0083
▁hybrid	-11.0087
▁ordinaryo	-11.0087
▁magkapareho	-11.0088
▁hinua	-11.0088
▁matagpuan	-11.0089
libot	-11.009
▁pagbili	-11.0094
gising	-11.0095
▁pagsa	-11.0097
▁kara	-11.01
▁right	-11.01
▁nabibilang	-11.0101
▁prekwensiya	-11.0103
▁Qing	-11.0106
▁Biyetnam	-11.0107
bra	-11.0111
▁lin	-11.0114
lohiya	-11.0115
▁Edukasyon	-11.0118
▁wangis	-11.0118
▁dosis	-11.0122
inom	-11.013
▁analysis	-11.0133
▁Music	-11.0134
▁trutsa	-11.0136
▁naglalakad	-11.0136
▁Ci	-11.0141
▁Krus	-11.0141
▁Foundation	-11.0148
▁pagsilang	-11.0148
▁1958	-11.015
▁nakaligtas	-11.015
▁estadistikal	-11.0151
ikap	-11.0152
▁rayuma	-11.0153
▁unahan	-11.0154
▁Museo	-11.0155
▁Best	-11.016
yente	-11.0161
▁Hispano	-11.0164
▁penetrasyon	-11.0164
▁tumugon	-11.0164
▁tinangka	-11.0164
▁1963	-11.0165
▁Tito	-11.0165
▁pauna	-11.0167
▁tig	-11.0169
yal	-11.0169
▁one	-11.0169
▁paglalahad	-11.0171
▁Georgia	-11.0171
▁Jun	-11.0172
iglio	-11.0174
mel	-11.0174
Q	-11.0178
▁pagmamasid	-11.0179
▁Nikephor	-11.0179
▁kumuku	-11.0179
pinangangasiwaan	-11.018
ou	-11.0183
dio	-11.0187
▁pamana	-11.019
▁neutron	-11.0192
▁high	-11.0196
▁lima	-11.0201
96	-11.0202
▁Long	-11.0206
▁kaarawan	-11.021
▁aksidente	-11.0211
car	-11.0214
▁pagsama	-11.0219
▁mananampalataya	-11.0225
oon	-11.0229
▁had	-11.0231
▁Il	-11.0231
▁nakamamatay	-11.0232
▁Homer	-11.0238
▁ideolohiya	-11.0256
ichi	-11.0264
▁patas	-11.0269
▁napilitan	-11.027
bagsak	-11.0272
tok	-11.0274
▁salaysayin	-11.0277
▁Mandaluyong	-11.0287
▁teoretikal	-11.0287
▁Soviet	-11.0287
▁Mountain	-11.0287
▁delusyon	-11.0287
▁pagpapakilala	-11.0288
▁konstruksiyon	-11.0288
▁tumama	-11.0301
▁Top	-11.0303
▁tagapagligtas	-11.0303
ile	-11.0304
▁tra	-11.0307
▁Awstronesyo	-11.0318
▁Luxembourg	-11.0318
▁Maharlika	-11.0319
▁digri	-11.032
▁genus	-11.0321
▁propesyonal	-11.0323
▁lalagyan	-11.0325
glio	-11.0327
▁ja	-11.0328
loy	-11.0332
▁software	-11.0334
▁Gautam	-11.0334
▁degri	-11.0338
pt	-11.0338
▁Chu	-11.0343
▁Av	-11.0345
hal	-11.0348
▁Algeria	-11.0349
ua	-11.0356
amatay	-11.0357
▁hamon	-11.0358
niniwala	-11.0358
▁aklatan	-11.0363
▁has	-11.0363
tso	-11.0365
▁Moscow	-11.0365
▁puhunan	-11.0365
▁nalalabi	-11.0365
▁Christ	-11.0366
umi	-11.0368
tukoy	-11.037
▁patayin	-11.0373
▁umakya	-11.038
▁Bethlehem	-11.0381
▁Wo	-11.0382
▁Allah	-11.0386
▁pagsasaayos	-11.0387
▁Olon	-11.0392
tanong	-11.0395
pagtanggol	-11.0404
▁tumutung	-11.0406
▁Kin	-11.0407
ksi	-11.0411
▁pagkama	-11.0415
▁Fi	-11.0417
▁kaagahan	-11.0418
rm	-11.0423
tibay	-11.0424
▁balyena	-11.0428
▁komposisyon	-11.0428
▁strain	-11.0428
▁Palawan	-11.0429
▁lider	-11.0429
▁Gambia	-11.043
▁polo	-11.0441
▁bumasa	-11.0448
▁Emili	-11.045
▁Sei	-11.0454
▁test	-11.0454
▁line	-11.0455
▁mambabasa	-11.0459
▁1956	-11.0461
lahad	-11.0461
▁Code	-11.0463
▁Fra	-11.0464
▁pormula	-11.047
sikat	-11.047
▁aalipin	-11.0474
▁Judea	-11.0475
▁tagapagtaguyod	-11.0476
▁magkakasama	-11.0477
▁nakatulong	-11.0477
▁Leone	-11.0478
▁Stalin	-11.0479
hina	-11.0481
▁sagrado	-11.0481
moto	-11.0486
▁Turkey	-11.0491
▁Valens	-11.0491
▁Pati	-11.0494
▁mabawas	-11.0498
▁pagtatala	-11.0501
nce	-11.0501
▁palagay	-11.0503
▁Quiapo	-11.0507
▁kabayaran	-11.0508
▁Ser	-11.0508
▁komisyon	-11.0511
▁alisin	-11.0512
lic	-11.0516
▁Pin	-11.0516
▁Nam	-11.0519
▁Gold	-11.0522
▁Raha	-11.0526
▁Pinoy	-11.0528
29	-11.053
▁Ze	-11.0531
ubos	-11.0532
▁ginaganap	-11.0539
▁pinakamahaba	-11.0539
▁dalawampung	-11.0541
hari	-11.0542
▁nakalaan	-11.0545
hol	-11.0547
▁kasu	-11.0549
▁Lambak	-11.0549
linang	-11.0551
ele	-11.0554
▁sinasadya	-11.0556
▁Ay	-11.0557
▁lambat	-11.0558
▁pangangalakal	-11.056
▁Base	-11.0564
▁gr	-11.0566
▁Wu	-11.0567
▁pinipili	-11.0569
uc	-11.057
▁Finland	-11.057
▁1932	-11.0572
▁over	-11.058
▁nanguna	-11.0581
wer	-11.0583
trop	-11.0585
▁natutulog	-11.0586
▁pangingibabaw	-11.0587
▁Lanka	-11.0588
dal	-11.0593
upo	-11.0599
▁asno	-11.0601
▁Pito	-11.0602
▁Constans	-11.0602
▁Council	-11.0602
▁pambiyolohiya	-11.0602
▁pananim	-11.0603
▁plasma	-11.061
▁kom	-11.0615
▁Arsobispo	-11.0618
▁Morocco	-11.0618
▁seguridad	-11.0618
▁Kilusan	-11.0618
▁atensiyon	-11.0618
▁importante	-11.0619
▁residente	-11.0619
▁kong	-11.0619
▁magkasama	-11.0622
25	-11.0624
▁were	-11.0626
▁nagsi	-11.0634
▁Caloocan	-11.0634
▁paglaganap	-11.0634
▁primado	-11.0635
▁lata	-11.0643
▁lum	-11.0645
trabaho	-11.0646
ized	-11.065
▁bariabulo	-11.065
▁gerilya	-11.065
▁ganoon	-11.0651
▁polar	-11.0651
▁magaganda	-11.0653
ction	-11.0654
her	-11.0656
▁66	-11.0658
lle	-11.0661
▁2006.	-11.0664
▁ayos	-11.0665
▁Marikina	-11.0667
13	-11.0667
▁pinakadakila	-11.0667
▁nagbalik	-11.067
▁epiko	-11.0671
rat	-11.0674
eno	-11.0675
▁Ph	-11.0678
▁Angola	-11.068
▁Botswana	-11.0683
▁Eusebio	-11.0683
▁Kalendaryo	-11.0683
▁Samuel	-11.0683
sp	-11.0683
▁palayaw	-11.0684
▁opera	-11.0686
94	-11.0686
unti	-11.0687
▁naglilingkod	-11.0688
▁lumipas	-11.0688
▁nu	-11.069
▁makaranas	-11.0693
▁mesa	-11.0697
▁Mesopotamia	-11.0699
▁hudyat	-11.0699
▁biyaya	-11.07
▁Sentro	-11.07
▁nagtatapos	-11.0711
ghahayag	-11.0713
▁kinailangan	-11.0715
▁sen	-11.0716
tta	-11.0717
kapaloob	-11.0718
ken	-11.0719
likha	-11.0722
▁hilaw	-11.0728
▁plural	-11.0731
▁telepono	-11.0731
▁pambibig	-11.0732
▁lalim	-11.0734
▁nasira	-11.0734
▁Isaias	-11.0735
▁Virginia	-11.0735
▁tore	-11.0736
ym	-11.0736
▁abay	-11.0736
▁Cabo	-11.0739
▁dinadaglat	-11.0747
▁Agusan	-11.0748
wo	-11.0748
▁mahilig	-11.0748
▁nagduru	-11.0749
▁masidhi	-11.0751
pahiwatig	-11.0754
60	-11.076
▁men	-11.0766
▁Repormasyon	-11.0766
▁pun	-11.0774
▁Mongolia	-11.0774
▁hatiin	-11.0775
▁Nauchn	-11.078
▁impormal	-11.078
▁kagawian	-11.078
▁tuntunin	-11.078
▁makabu	-11.0786
▁karapat	-11.0789
▁malalayo	-11.0789
iao	-11.0794
▁Entertainment	-11.0796
▁Valenzuela	-11.0796
▁nakarati	-11.0797
▁Noe	-11.0802
awa	-11.0804
sip	-11.0809
red	-11.0822
▁katwiran	-11.0827
▁simboliko	-11.0829
▁pagpapalaki	-11.0831
▁sarado	-11.0832
▁motor	-11.0833
hos	-11.0842
lok	-11.0842
pili	-11.0845
▁kaurian	-11.0845
▁Abriol	-11.0845
▁Hepburn	-11.0845
▁stratehiya	-11.0845
▁abogado	-11.0845
▁seryoso	-11.0845
▁tatsulok	-11.0846
▁piyesa	-11.0847
▁bahid	-11.0847
▁kg	-11.0848
▁Mang	-11.085
▁kanal	-11.0853
▁Bina	-11.0856
▁gulo	-11.0858
▁nahati	-11.0861
▁Elena	-11.0863
▁nagagawa	-11.0864
▁kapansin	-11.0868
▁Lady	-11.0868
▁Dalubhasaan	-11.0878
▁imposible	-11.0879
▁49	-11.088
▁music	-11.088
▁Garcia	-11.0881
▁Malaya	-11.0882
illa	-11.0883
▁Tar	-11.0884
▁Chad	-11.0884
▁st	-11.0887
mes	-11.089
▁sili	-11.0903
nilarawan	-11.0908
▁Eu	-11.0911
ima	-11.0911
▁Sebastian	-11.0911
▁pluwido	-11.0911
mal	-11.0912
▁Silla	-11.0913
▁Tsu	-11.0918
yaya	-11.0928
val	-11.0928
▁nagpapanatili	-11.0929
hayag	-11.0931
▁Peroe	-11.0931
▁mababasa	-11.0933
▁sandataha	-11.0938
roon	-11.0942
▁kalipa	-11.0943
▁Herzegovina	-11.0944
▁computer	-11.0944
▁eksperimental	-11.0944
▁sakristan	-11.0944
▁Medical	-11.0944
▁social	-11.0947
▁ikawalo	-11.0955
▁Liberal	-11.0955
▁Kultura	-11.0961
jin	-11.0966
▁Ain	-11.0968
▁organiko	-11.0968
▁Max	-11.097
▁sul	-11.0971
▁hubad	-11.0973
▁paksiyon	-11.0973
▁pagpapadala	-11.0973
▁pasa	-11.0975
tte	-11.0976
▁group	-11.0977
▁alerhiya	-11.0978
▁pangkabuhayan	-11.0978
▁dalhin	-11.0978
08	-11.0978
▁Bakr	-11.0979
rado	-11.0983
▁paglaban	-11.0987
umating	-11.099
36	-11.0992
salin	-11.0994
▁sentimetro	-11.0994
▁1954	-11.0995
▁pagdaan	-11.0997
▁mass	-11.1
▁naghahanga	-11.1001
▁Hen	-11.1006
pina	-11.1009
▁Ap	-11.1011
▁Katolika	-11.1011
▁Helen	-11.1013
▁kaparusahan	-11.1015
▁Togo	-11.1017
▁pagbabayad	-11.1017
▁pagtuklas	-11.1019
med	-11.1026
uka	-11.1026
▁Brasil	-11.1028
▁segundo	-11.1028
▁Bahay	-11.1028
▁kalatagan	-11.1028
▁supot	-11.1028
▁sumasailalim	-11.1029
api	-11.1034
▁isinasa	-11.1035
▁Langh	-11.1042
▁hormone	-11.1044
▁sur	-11.1048
▁nagpapaliwanag	-11.105
bag	-11.1051
▁Tunisia	-11.1052
▁pagkabigo	-11.1061
38	-11.1064
▁baryo	-11.1066
oma	-11.1067
▁kapa	-11.1072
takwil	-11.1075
ador	-11.109
▁makapa	-11.1092
▁pagta	-11.1093
sco	-11.1093
▁Dictionary	-11.1095
▁Somalia	-11.1095
▁serotonin	-11.1095
▁paghihimagsik	-11.1095
▁pampalasa	-11.1095
▁Serbiya	-11.1095
▁Cara	-11.1095
▁apostoliko	-11.1096
▁Port	-11.1097
▁1919	-11.1098
▁Sch	-11.1098
▁Arab	-11.1102
▁Ak	-11.1107
anda	-11.1111
▁insidente	-11.1111
▁katuwaan	-11.1111
▁Mark	-11.1112
▁ikapito	-11.1112
▁Far	-11.1113
▁Pen	-11.1115
▁pagpapalawig	-11.1117
II	-11.1118
ksyon	-11.1119
handog	-11.1121
▁Brown	-11.1123
▁nawasak	-11.1125
eti	-11.1126
ica	-11.1131
▁manipis	-11.1132
▁1899	-11.1132
▁inimbento	-11.1136
tibo	-11.1138
▁Yugoslav	-11.114
aran	-11.1143
ngaw	-11.1145
▁akademiya	-11.1145
pahayag	-11.1147
▁panganganak	-11.1149
tos	-11.1153
▁auto	-11.1153
▁Ottoman	-11.1154
▁patunay	-11.1154
▁sinapit	-11.1159
▁Buwan	-11.116
nganganak	-11.1162
▁Lesotho	-11.1162
▁munggo	-11.1162
▁Yemen	-11.1163
▁UP	-11.1168
▁mamamatay	-11.1179
▁Dagdag	-11.1179
▁1927	-11.1181
▁pangkimika	-11.1185
lapad	-11.119
▁kri	-11.1194
▁sakuna	-11.1196
▁pluido	-11.1196
▁Empire	-11.1196
▁kampus	-11.1197
cino	-11.1198
ex	-11.1198
▁00	-11.12
tz	-11.1201
▁magpakita	-11.1201
▁kanin	-11.1203
▁Abraham	-11.1204
hor	-11.1206
libutan	-11.1208
say	-11.1209
69	-11.121
▁uling	-11.1212
▁Ecija	-11.1213
▁Kalusugan	-11.1214
▁1937	-11.1215
are	-11.1218
▁light	-11.1222
▁nahuli	-11.1229
▁empleyado	-11.123
▁paggana	-11.1234
tama	-11.1234
▁sapatos	-11.1236
▁Magi	-11.1238
▁pampag	-11.1241
▁hidwaan	-11.1241
▁makatang	-11.1246
▁Ebionita	-11.1247
▁isinusulat	-11.1248
▁pagharap	-11.1248
▁gamma	-11.1248
▁Niger	-11.1255
67	-11.1257
▁va	-11.126
hala	-11.1262
▁Iminungkahi	-11.1264
▁apelyido	-11.1264
▁pinagsasaluhan	-11.1264
▁prinsipe	-11.1264
▁trapiko	-11.1264
▁Prusya	-11.1264
bar	-11.1268
▁marangal	-11.1269
▁bigas	-11.1271
▁Apostoliko	-11.1272
▁gana	-11.1278
▁alinsuno	-11.1279
▁October	-11.1281
▁ikono	-11.1282
gay	-11.1283
forte	-11.1285
▁klinikal	-11.1287
▁maiksi	-11.1288
▁malakihan	-11.1288
▁Kaaga	-11.129
gui	-11.1295
▁pinanggalingan	-11.1298
▁Nazareth	-11.1299
▁1938	-11.1301
▁binabasa	-11.1302
▁Gin	-11.1305
▁adulto	-11.1309
field	-11.1309
▁Pra	-11.1309
▁Gre	-11.131
▁tumutu	-11.1311
▁Enrique	-11.1314
▁Clemente	-11.1316
▁Territory	-11.1316
▁naglaho	-11.1317
▁des	-11.1321
cia	-11.1323
77	-11.1323
▁paki	-11.1326
▁Cote	-11.1326
▁Ab	-11.1331
▁pagdurugo	-11.1333
▁Malabon	-11.1333
▁sikologo	-11.1333
▁mananakop	-11.1333
abanggit	-11.1336
▁tagagamit	-11.1337
▁nabigyan	-11.1345
▁kaliwa	-11.1345
▁pampulitika	-11.135
▁Ortodoksiya	-11.135
▁325	-11.1351
▁Gil	-11.1352
kahanap	-11.136
▁Mona	-11.136
sch	-11.1361
▁kababalaghan	-11.1367
▁merkado	-11.1368
▁rehimen	-11.1372
▁Time	-11.1374
▁napatay	-11.1378
▁kilalanin	-11.138
▁Papua	-11.1382
iki	-11.1383
▁Mauritius	-11.1385
▁Paranaque	-11.1385
ukol	-11.1386
lakas	-11.1388
▁ape	-11.1388
▁Wi	-11.139
▁Hin	-11.1393
▁time	-11.1397
▁Justinian	-11.1398
▁tipan	-11.1398
gnanais	-11.14
▁napagmasdan	-11.1402
▁Popular	-11.1402
▁tuberculosis	-11.1402
▁Mad	-11.1405
▁inuuri	-11.1405
▁munti	-11.1405
▁panunu	-11.1406
▁whi	-11.1407
▁IPA	-11.1408
wis	-11.1408
bilis	-11.1408
tamasa	-11.1409
37	-11.1412
palapit	-11.1413
wn	-11.1414
▁Sede	-11.1414
▁sistematiko	-11.1415
▁top	-11.1416
▁Antipolo	-11.1419
▁kabalyero	-11.1419
▁humahawa	-11.1419
▁reperensiya	-11.142
▁pagkabata	-11.1421
kapiling	-11.1434
▁samang	-11.1436
▁Kalayaan	-11.1437
▁Nicolas	-11.1437
▁nagpapatakbo	-11.1438
▁Benin	-11.144
▁armado	-11.144
39	-11.1443
▁Tutankhamun	-11.1454
▁pagsuporta	-11.1454
▁sinu	-11.1455
cus	-11.1458
▁68	-11.1464
sanay	-11.1465
▁August	-11.1467
kai	-11.1469
▁mong	-11.1469
▁Senegal	-11.1472
▁Sinimulan	-11.1472
▁laruan	-11.1472
▁Grand	-11.1476
▁pagkakasunod	-11.1477
bad	-11.1477
dami	-11.1477
▁pabrika	-11.1478
▁alikabok	-11.1479
▁banayad	-11.1481
▁agimat	-11.1489
▁soberano	-11.1489
▁katanyagan	-11.1489
▁kurba	-11.149
▁Malawi	-11.149
▁talumpati	-11.1501
▁napalitan	-11.1501
out	-11.1505
▁Djibouti	-11.1507
▁trabahador	-11.1507
▁alyansa	-11.1507
▁bulutong	-11.1507
▁tensiyon	-11.1507
▁Cesar	-11.1508
dom	-11.1508
▁Theodore	-11.1509
▁urban	-11.1511
▁Lisa	-11.1513
▁bati	-11.1515
▁por	-11.1516
▁kuw	-11.1516
▁masang	-11.1517
▁nakakabit	-11.1524
▁depinisyon	-11.1524
▁gulugod	-11.1524
▁pagwawakas	-11.1525
▁umangkop	-11.1526
inggil	-11.153
loob	-11.1532
▁piloto	-11.1532
▁Solar	-11.1539
▁bumababa	-11.1542
▁gramo	-11.1542
▁kritikal	-11.1542
inae	-11.1544
▁Hermaniko	-11.1544
▁milon	-11.1547
▁idineklara	-11.1559
▁produktibidad	-11.1559
▁Minor	-11.156
▁1914	-11.1562
▁Gor	-11.1563
▁1910	-11.1564
▁Bruno	-11.1572
pananampalataya	-11.1574
▁pagpasa	-11.1574
▁negosyante	-11.1577
▁teorema	-11.1577
▁nakasakay	-11.158
▁ge	-11.1581
▁sakup	-11.1588
▁terapiya	-11.1589
24	-11.159
dikit	-11.1591
yer	-11.1595
▁binansagan	-11.1595
▁ekstinksiyon	-11.1595
▁biswal	-11.1595
▁Tala	-11.1595
▁espirito	-11.1595
▁pagmamana	-11.1597
put	-11.1598
papa	-11.16
35	-11.1601
▁saglit	-11.1603
▁lumba	-11.1605
▁Song	-11.1608
▁pagbu	-11.1609
▁hapdi	-11.1611
▁monasteryo	-11.1612
▁panibago	-11.1613
▁duktor	-11.1613
▁Media	-11.1613
▁kawing	-11.1613
▁siko	-11.1613
▁inihanda	-11.1614
▁kambal	-11.1615
▁1.5	-11.1621
igi	-11.1626
kikilala	-11.1628
▁Dionysus	-11.163
▁Eritrea	-11.163
▁Ilokano	-11.163
▁Nagsisimula	-11.163
not	-11.1631
▁Gaya	-11.1631
kula	-11.1633
▁Torah	-11.1634
▁kasamaan	-11.1636
▁malimit	-11.1641
▁ke	-11.1641
▁Bus	-11.1642
lab	-11.1644
▁Freud	-11.1648
▁makilahok	-11.1648
▁pama	-11.1652
pukaw	-11.1658
▁tagapamahala	-11.1662
▁puson	-11.1667
▁Lupa	-11.1672
▁air	-11.1675
agtatalik	-11.1679
tanghal	-11.1679
ati	-11.168
▁but	-11.168
▁Economic	-11.1683
▁Telebisyon	-11.1683
▁schizophrenia	-11.1684
▁makasalanan	-11.1684
▁teatro	-11.1684
▁embahador	-11.1684
aka	-11.1694
▁gayunpama	-11.1696
kita	-11.17
▁Gabriel	-11.1701
▁ekwilibrium	-11.1701
▁pandaraya	-11.1701
▁imbestigasyon	-11.1702
▁kapinsalaan	-11.1702
▁kasukdulan	-11.1702
▁manlalakbay	-11.1702
▁kontrobersiyal	-11.1703
34	-11.1704
mok	-11.171
lanta	-11.1713
izei	-11.1713
▁Lev	-11.1715
liit	-11.1715
por	-11.1716
ole	-11.172
▁censo	-11.1723
▁nagsisi	-11.1723
▁Gar	-11.1725
▁lumalaban	-11.1729
▁Peru	-11.1732
▁Development	-11.1737
▁poli	-11.1738
tiyak	-11.174
▁ibin	-11.174
▁keso	-11.1741
▁hangarin	-11.1744
▁sinadya	-11.1745
▁misteryo	-11.1748
▁tumatawa	-11.1752
▁malusog	-11.1755
▁Timor	-11.1757
▁Gui	-11.1758
▁tono	-11.1758
▁Ginagawa	-11.176
▁back	-11.1761
▁Galen	-11.1764
▁gang	-11.1764
▁biyo	-11.1767
▁Line	-11.1771
▁Atanasio	-11.1773
▁Litwaniya	-11.1773
▁Neanderthal	-11.1773
▁nakakalat	-11.1779
walang	-11.1779
▁samu	-11.178
▁Chan	-11.1781
▁manirahan	-11.1782
bayad	-11.179
▁berde	-11.1792
▁Ariano	-11.18
sunog	-11.1801
▁dumaraan	-11.1803
▁Fo	-11.1804
thi	-11.1806
batas	-11.1809
▁mananatili	-11.1809
▁kwantiko	-11.181
ics	-11.1812
▁pagkakahati	-11.1813
▁nakaupo	-11.1814
▁buntis	-11.1816
unin	-11.1818
▁pumu	-11.1821
act	-11.1821
▁Jin	-11.1822
▁global	-11.1827
▁engineering	-11.1827
▁kadiliman	-11.1827
▁braso	-11.1828
▁pinansiyal	-11.1831
sinasagawa	-11.1831
lugod	-11.1831
hiram	-11.1833
▁hanapin	-11.1833
palabas	-11.1836
▁commercial	-11.1845
▁Sandatahan	-11.1845
07	-11.1846
▁lupon	-11.1854
lamat	-11.1855
,000,000	-11.1855
▁kuko	-11.186
▁Coast	-11.1864
▁nagtipon	-11.1864
iz	-11.1864
▁puke	-11.1866
97	-11.1872
91	-11.1872
tive	-11.1874
▁ser	-11.1875
▁aalala	-11.1877
▁Aurora	-11.1882
45	-11.1882
▁kwadrado	-11.1882
▁naghari	-11.1883
▁sumusu	-11.1885
▁Montald	-11.1886
artikular	-11.1887
▁monoamino	-11.1889
lapat	-11.1891
▁palapag	-11.1891
uta	-11.1894
▁tulisan	-11.1901
▁pinaunlad	-11.1904
▁Mars	-11.1904
▁Afghanistan	-11.1918
▁Swaziland	-11.1918
▁kagawad	-11.1918
▁martir	-11.1918
▁Burundi	-11.1918
▁4,	-11.1919
▁Christopher	-11.192
▁ikaanim	-11.192
▁1861	-11.192
Ang	-11.1924
tatapos	-11.1924
pur	-11.1925
itaguyod	-11.1929
rio	-11.1929
pok	-11.1932
▁Bill	-11.1932
bus	-11.1934
▁Pascual	-11.1936
▁Rwanda	-11.1936
▁magkakasunod	-11.1937
▁pangamba	-11.1938
▁Bene	-11.195
isi	-11.1952
ali	-11.1953
▁free	-11.1954
▁Legazpi	-11.1955
▁gra	-11.1963
▁nuno	-11.1964
▁Kara	-11.1969
▁bal	-11.1972
▁pormulang	-11.1975
▁Alam	-11.1983
▁Dia	-11.1983
▁term	-11.1984
▁Liber	-11.1985
▁pr	-11.1987
mura	-11.1988
▁100,000	-11.1992
▁tagapagsalita	-11.1992
▁pagtataguyod	-11.1992
▁sundin	-11.1992
▁County	-11.1994
▁maiikli	-11.1995
▁pagsasalinwika	-11.1995
▁Zo	-11.1996
hn	-11.1997
▁Karl	-11.1997
▁inutos	-11.2002
▁orkestra	-11.2006
▁House	-11.2007
palit	-11.2008
oso	-11.2009
▁Giovanni	-11.201
▁tagapagbatas	-11.2011
▁sangkot	-11.2011
▁Salle	-11.2012
▁himala	-11.2012
tunaw	-11.2013
umunod	-11.2014
▁Lumi	-11.2018
▁Sy	-11.2024
▁900	-11.2024
▁pasukan	-11.2026
▁Real	-11.2027
▁Lebanon	-11.2028
▁arsobispo	-11.2028
▁estatwa	-11.2028
▁ekonomiks	-11.2028
▁terminal	-11.2028
▁ekonomista	-11.2028
▁Josue	-11.2028
▁fe	-11.203
▁magsalita	-11.2033
▁napunta	-11.2036
2.	-11.2038
simula	-11.2041
▁oso	-11.2044
▁Bri	-11.2045
▁detalyado	-11.2047
▁kontribusyon	-11.2047
▁Nuestr	-11.2047
▁67	-11.2048
▁minorya	-11.2054
▁naglalabas	-11.2055
▁puna	-11.2056
27	-11.2056
▁Kosovo	-11.2065
▁monoteistiko	-11.2065
▁kandila	-11.2065
▁Gabon	-11.2066
▁peryodiko	-11.2066
▁humi	-11.207
▁graph	-11.2073
▁suot	-11.2073
angkop	-11.2074
kata	-11.2074
lohikal	-11.2075
▁will	-11.2076
kikipagsapalaran	-11.208
▁lathalain	-11.2083
▁Julius	-11.2084
▁patnugot	-11.2084
nus	-11.2085
▁Halalan	-11.2085
▁umuwi	-11.2086
▁Paco	-11.2088
▁kasa	-11.2099
▁Venezuela	-11.2102
▁pagpipinta	-11.2102
▁kawayan	-11.2103
▁kabanalan	-11.2103
▁Macedonian	-11.2103
▁bugtong	-11.2104
huli	-11.2105
▁pinalaya	-11.2107
▁konstante	-11.2107
▁pananda	-11.2108
▁Tian	-11.2118
ward	-11.2119
▁Age	-11.212
▁hapunan	-11.2121
▁Seychelles	-11.2121
▁entablado	-11.2121
▁salik	-11.2121
kapagduru	-11.2121
ization	-11.2122
sagot	-11.2124
handa	-11.2125
▁Isabela	-11.2125
▁magsilbi	-11.2125
▁Oro	-11.2125
puno	-11.2127
▁nagdaan	-11.2127
▁Laban	-11.2133
▁This	-11.2134
▁Pia	-11.2136
▁LRT	-11.214
▁kaangkupan	-11.214
22	-11.2141
▁Jones	-11.2142
▁magkakapatid	-11.2142
▁Hun	-11.2149
tain	-11.215
▁hinuha	-11.2157
▁comp	-11.2157
▁USSR	-11.2158
▁daangbakal	-11.2158
▁estratehiya	-11.2158
▁lumawak	-11.2159
▁seks	-11.2159
▁Ve	-11.216
▁espesipiko	-11.2161
▁mammal	-11.2162
aki	-11.2164
14	-11.2165
tangkilik	-11.2166
▁kontrolado	-11.2168
din	-11.217
ator	-11.217
ial	-11.217
▁Lama	-11.2174
▁paghalili	-11.2174
elektromagnetiko	-11.2177
▁pananalig	-11.2177
▁nakababata	-11.2179
▁pagpapabuti	-11.2181
sasagawa	-11.2182
ologo	-11.2184
▁this	-11.2186
patalsik	-11.2188
▁Tinong	-11.2188
pet	-11.2189
▁artritis	-11.2196
▁quantum	-11.2196
▁Kha	-11.2197
bon	-11.2198
▁Kanta	-11.22
88	-11.2202
aangat	-11.2203
kos	-11.2212
▁teolohikal	-11.2215
dadagdag	-11.2216
▁Johann	-11.2218
tina	-11.2225
▁isulat	-11.2226
▁form	-11.2229
▁Navotas	-11.2234
▁daglat	-11.2234
▁Burkina	-11.2234
▁online	-11.2235
58	-11.2239
▁1,000	-11.2241
▁Milan	-11.2242
▁proto	-11.2245
ore	-11.2249
▁aa	-11.2251
▁Microsoft	-11.2252
▁nararamdaman	-11.2253
▁obaryo	-11.2254
▁pakikilahok	-11.2254
▁600	-11.2257
▁Dong	-11.2258
▁bulati	-11.2259
ilya	-11.2263
▁Kay	-11.2264
▁mental	-11.2264
lika	-11.2265
▁Ming	-11.2271
▁antidepressant	-11.2271
▁panlikod	-11.2271
▁Semitiko	-11.2272
▁lupalop	-11.2273
▁regulasyon	-11.2273
▁tapos	-11.2278
eus	-11.2279
▁Japanese	-11.2291
▁eo	-11.2291
▁magaganap	-11.2292
▁Korte	-11.2293
ally	-11.2297
▁buntal	-11.2299
59	-11.23
▁palamuti	-11.2304
▁kompleks	-11.2308
▁Anatolia	-11.2309
▁kumbinasyon	-11.2309
▁kahinaan	-11.2309
▁Pangkaraniwan	-11.2309
▁Buhay	-11.2311
▁algoritmo	-11.2312
cle	-11.2312
▁panulat	-11.2314
▁Im	-11.2315
▁talento	-11.2316
▁ibat	-11.2317
▁pinaikli	-11.2318
▁nagtangka	-11.2318
tory	-11.2326
▁Trade	-11.2326
▁Ukraine	-11.2328
▁first	-11.2328
▁Tome	-11.2329
papatunay	-11.2338
▁puri	-11.234
▁organ	-11.2342
hun	-11.2342
uni	-11.2344
▁Minsan	-11.2345
bahagi	-11.2347
▁pinagkukunan	-11.2347
▁reputasyon	-11.2347
▁tinanggal	-11.2347
▁humawa	-11.2348
▁Josephus	-11.2351
▁masagana	-11.2351
▁epi	-11.2353
▁Armenia	-11.2356
▁reptilya	-11.2359
▁dumana	-11.2365
▁Kodigo	-11.2366
▁Pacific	-11.2366
▁http	-11.2366
▁sunud	-11.2367
▁Western	-11.2367
▁paglalayag	-11.237
rma	-11.237
▁katuparan	-11.2371
▁Inter	-11.2374
▁dalang	-11.2375
▁ampon	-11.2376
▁10,000	-11.2383
▁himpilang	-11.2384
▁Cananeo	-11.2386
▁sisidlan	-11.2386
▁nakasentro	-11.2386
bantog	-11.2386
▁Philip	-11.2387
▁Faso	-11.2389
▁manonood	-11.2396
57	-11.2397
▁limampu	-11.2401
▁matatawag	-11.2404
▁Mauritania	-11.2405
▁eksperto	-11.2405
▁sakramento	-11.2405
▁pra	-11.2409
▁anal	-11.241
▁tuli	-11.241
▁nanaig	-11.2417
▁hangga	-11.2424
▁taktika	-11.2424
ence	-11.2424
▁tanghalan	-11.2425
▁Bohol	-11.2425
▁Tro	-11.2425
▁Masoretiko	-11.2443
▁koneksiyon	-11.2443
▁puwede	-11.2443
▁Teresa	-11.2443
▁kumikilala	-11.2443
▁Sale	-11.2444
▁130	-11.2445
▁day	-11.2446
▁itatag	-11.2451
▁tagpuan	-11.2455
tugtog	-11.2455
▁harang	-11.2455
▁ipinasa	-11.2457
▁nakapagpa	-11.2459
▁under	-11.246
▁alkohol	-11.2461
▁Clark	-11.2462
▁buhangin	-11.2462
▁kalinisan	-11.2462
▁mikroskopyo	-11.2462
▁pagtanggal	-11.2463
▁look	-11.2463
para	-11.2464
▁dumami	-11.2467
liliwanag	-11.247
▁Art	-11.247
▁Ipinagdiriwan	-11.2475
lita	-11.2478
linis	-11.2479
▁Taka	-11.248
▁Wilhelm	-11.2482
▁hinihingi	-11.2482
▁Cer	-11.2484
▁litid	-11.2484
76	-11.2488
▁Huwa	-11.249
▁Uma	-11.2493
▁bara	-11.2496
ray	-11.2499
ee	-11.2499
bro	-11.2499
▁salinlahi	-11.2501
▁bihasa	-11.2502
▁dioxide	-11.2502
▁papuri	-11.2502
▁naiwan	-11.2506
▁wo	-11.2506
▁Wales	-11.2506
leon	-11.2508
ever	-11.2509
ated	-11.2514
▁Binondo	-11.252
▁pagnanakaw	-11.252
▁Arthur	-11.2521
▁Group	-11.2521
▁ipinatapon	-11.2521
ual	-11.2527
▁pagda	-11.2528
umasok	-11.2529
▁hene	-11.2532
▁naroon	-11.2535
baybay	-11.2538
▁bungang	-11.2539
▁Paminsan	-11.254
▁Sampaloc	-11.254
▁kanino	-11.254
halintulad	-11.254
▁kainin	-11.254
gpalagay	-11.2542
▁maginhawa	-11.2542
▁Nagpa	-11.2548
▁lason	-11.2548
▁SF	-11.2548
▁Neo	-11.2549
▁ingat	-11.2549
tatawag	-11.2554
▁2004.	-11.2554
▁web	-11.2556
▁bag	-11.2558
▁katoliko	-11.2559
▁nagebolb	-11.2559
▁orientasyon	-11.2559
▁Antioch	-11.2559
▁particle	-11.2559
▁Matindi	-11.2563
klas	-11.2566
▁emosyonal	-11.2566
▁piny	-11.2571
▁pinalawi	-11.2572
▁naghihiwalay	-11.2573
5,000	-11.2574
sensiyon	-11.2579
▁kalamangan	-11.2579
▁katalinuhan	-11.2579
▁patriarka	-11.2579
▁lumubog	-11.2579
▁Royal	-11.258
▁itinanghal	-11.258
▁immuno	-11.2581
▁binili	-11.2585
84	-11.2586
▁lumala	-11.2586
▁uusapan	-11.2589
SH	-11.2594
ress	-11.2594
▁paglapit	-11.2598
▁Enrile	-11.2598
▁Equatoria	-11.2598
▁kumpanya	-11.2598
▁Casal	-11.2599
▁plastik	-11.2607
ldo	-11.2607
nal	-11.261
ord	-11.2611
▁Dar	-11.2611
▁mamaya	-11.2613
▁Pangalan	-11.2614
ities	-11.2616
▁Salmo	-11.2617
▁koalisyon	-11.2618
▁soberanya	-11.2618
▁Principe	-11.2619
▁pagpapatiwakal	-11.2621
▁Rock	-11.2622
▁Pamayanan	-11.2624
▁Cune	-11.2625
▁Ul	-11.2626
sabi	-11.263
▁Senor	-11.2632
▁Bangladesh	-11.2637
▁arkitekto	-11.2637
▁pangkaisipan	-11.2638
▁panggagahasa	-11.2638
▁Country	-11.2638
▁burol	-11.2639
▁Harry	-11.2639
▁humalili	-11.2639
nit	-11.2641
▁1800	-11.2642
▁aming	-11.2649
▁naghiwalay	-11.265
▁Tanggapan	-11.265
hihiwalay	-11.2651
▁Pulang	-11.2652
▁Luna	-11.2652
43	-11.2656
▁Service	-11.2657
▁Negrito	-11.2657
▁Mao	-11.2657
▁nya	-11.2658
▁walo	-11.2659
▁Guo	-11.2663
▁batasan	-11.2664
▁Party	-11.2665
▁dai	-11.2669
▁liga	-11.267
▁saksi	-11.2676
▁Deuteronomio	-11.2677
▁elementaryo	-11.2677
▁kalakaran	-11.2677
▁dependensiya	-11.2677
▁Pagkabuhay	-11.2678
▁pantubig	-11.2678
▁1916	-11.268
▁sumu	-11.268
▁langaw	-11.2681
▁pagbisita	-11.2685
21	-11.2689
bb	-11.2693
▁pagpapalaya	-11.2696
▁napagkukunan	-11.2696
▁Wojtyla	-11.2697
▁kapapahan	-11.2697
▁ekstra	-11.2697
▁Biblia	-11.2697
form	-11.2698
pulong	-11.2699
nie	-11.2699
▁Book	-11.27
▁mabubuti	-11.2701
▁natira	-11.2701
hanay	-11.2702
▁imbentor	-11.2703
akakatulong	-11.2704
resulta	-11.2706
▁reaksiyong	-11.2706
▁Noli	-11.2707
▁Zu	-11.2711
▁pagdami	-11.2714
▁game	-11.2716
▁Technology	-11.2716
▁bumisita	-11.2716
▁Russell	-11.2716
▁panghihina	-11.2717
nin	-11.2721
▁natamo	-11.2726
▁Salita	-11.2726
▁logo	-11.2726
▁Tuma	-11.2728
▁sea	-11.2728
olohikal	-11.273
umitaw	-11.2732
lalahad	-11.2735
▁Akhenaten	-11.2736
▁Matematika	-11.2736
▁panuntunan	-11.2736
▁Billboard	-11.2736
▁Cat	-11.2739
ich	-11.2739
▁Pangkat	-11.2745
▁Vis	-11.2746
▁Trans	-11.2747
▁dinosauro	-11.2749
glit	-11.275
▁napakarami	-11.2754
▁Myanmar	-11.2756
▁1951	-11.2756
▁Hapunan	-11.2756
▁pinangungunahan	-11.2756
gtataguyod	-11.2759
▁1902	-11.2761
▁Levi	-11.2763
▁kaliwang	-11.2764
riya	-11.2765
▁kalakihan	-11.2769
▁Natuklasan	-11.2776
▁empirikal	-11.2776
pagpatuloy	-11.2776
▁Liberia	-11.2777
▁pagpapalagay	-11.2778
ento	-11.278
▁major	-11.2781
pagtalakay	-11.2783
katuklas	-11.2785
▁matanggap	-11.2786
▁kahanga	-11.2787
▁aalaga	-11.2793
▁Pol	-11.2793
87	-11.2793
▁etc	-11.2794
▁kristal	-11.2795
▁Heswita	-11.2796
▁masturbasyon	-11.2796
▁paghirang	-11.2796
▁nanganganib	-11.2796
▁alahas	-11.2796
ces	-11.28
▁Prince	-11.2802
▁Mapa	-11.2805
▁its	-11.2806
▁Kuma	-11.2806
▁naroroon	-11.2816
▁sanlibutan	-11.2816
▁pinakamalawak	-11.2816
▁protesta	-11.2817
▁awa	-11.2819
kalakal	-11.2823
▁matuwid	-11.2825
bulok	-11.2825
▁asul	-11.2826
▁Pana	-11.2829
▁Tagapangasiwa	-11.2836
▁kapakinabangan	-11.2836
▁Dominikano	-11.2836
▁executive	-11.2837
▁pagtanda	-11.2838
▁Mabilis	-11.284
▁sugo	-11.2841
▁ipinako	-11.2848
▁pagha	-11.2849
▁impiyerno	-11.2856
▁Chinese	-11.2856
gaw	-11.2856
sundan	-11.2857
▁Kan	-11.2859
▁pangingisda	-11.286
▁Ham	-11.286
iv	-11.2869
▁Trist	-11.287
▁fu	-11.2871
▁luntian	-11.2872
▁Ven	-11.2872
▁pagdaloy	-11.2874
ological	-11.2875
▁Monggol	-11.2876
▁apatnapu	-11.2876
▁eksena	-11.2876
▁year	-11.2877
▁Taft	-11.2877
▁Juda	-11.2878
▁nagbubunga	-11.288
▁signal	-11.288
pangalan	-11.2881
▁kabu	-11.2881
▁pantasya	-11.2882
hel	-11.2882
turo	-11.2884
▁eu	-11.2885
gagaling	-11.2886
▁var	-11.2887
kov	-11.2888
▁napakalaking	-11.2889
mann	-11.2892
▁matata	-11.2892
▁usa	-11.2893
▁Zambales	-11.2896
▁musikero	-11.2896
▁Binibigyan	-11.2896
▁pagtatantiya	-11.2896
kasalubong	-11.2896
▁pagkabahala	-11.2897
▁Les	-11.29
▁nagbabayad	-11.2901
▁natukoy	-11.2907
▁pagsasalaysay	-11.291
▁Boy	-11.2911
▁matiyak	-11.2913
kapasok	-11.2914
▁tsaa	-11.2914
▁Vol	-11.2915
▁udyok	-11.2915
▁kabiguan	-11.2916
▁Tungko	-11.2922
46	-11.2927
▁hila	-11.2928
parusahan	-11.2928
bil	-11.2929
▁Bro	-11.2929
▁Abra	-11.2931
▁emerhensiya	-11.2936
▁Laos	-11.2936
▁kalkulo	-11.2939
▁Cart	-11.2941
sangguni	-11.2942
bot	-11.2943
pre	-11.2946
▁Europe	-11.2946
yakap	-11.2949
47	-11.2949
▁Ac	-11.2954
▁manunu	-11.2959
mamana	-11.2962
▁Mc	-11.2962
▁Aragon	-11.2965
▁Batang	-11.2965
▁nota	-11.2971
▁paraon	-11.2973
hahalal	-11.2974
▁red	-11.2976
▁sasabihin	-11.2977
▁basa	-11.2978
aya	-11.2979
klaw	-11.298
mpo	-11.298
▁Nakapag	-11.2981
▁land	-11.2982
kulong	-11.2983
day	-11.2983
gapi	-11.2986
▁Tanar	-11.2988
▁itinu	-11.2988
▁anino	-11.2989
ight	-11.299
▁amp	-11.299
▁000	-11.2995
▁film	-11.2997
▁sangandaan	-11.2997
▁pagkaantig	-11.2998
86	-11.3002
▁Daan	-11.3005
▁CH	-11.3005
▁Nais	-11.3008
74	-11.3009
▁ab	-11.3009
pipi	-11.3015
▁lumilipad	-11.3018
▁paghinto	-11.3018
▁Kabite	-11.3018
▁Severus	-11.3019
▁iwasan	-11.3021
▁Records	-11.3024
iwas	-11.3025
▁Arts	-11.3026
uring	-11.3027
syunal	-11.3032
▁Kum	-11.3032
triko	-11.3036
▁Jan	-11.3038
▁Imelda	-11.3038
▁hominin	-11.3038
▁sinusukat	-11.3038
▁Broadcasting	-11.3039
▁grabidad	-11.3044
metro	-11.3049
hiwalay	-11.3051
upa	-11.3058
▁Constantinopla	-11.3058
▁Cyprus	-11.3058
▁oportunidad	-11.3058
▁pumatay	-11.3061
▁taglay	-11.3065
▁dibuho	-11.3068
lamig	-11.3074
pel	-11.3076
▁kalsada	-11.3079
▁lubid	-11.3079
gol	-11.3082
▁mangingisda	-11.3082
▁pinakaluma	-11.3083
▁magkaugnay	-11.3086
glayag	-11.3086
▁Shan	-11.309
▁also	-11.3093
▁madilaw	-11.3099
▁Konsilyo	-11.31
▁katambal	-11.3101
▁pagpapalawak	-11.3101
wat	-11.3103
▁konstitusyonal	-11.3108
▁naglalayon	-11.3112
yi	-11.3119
▁Anderson	-11.3121
▁libangan	-11.3121
▁1905	-11.3124
▁Anne	-11.3126
▁Hero	-11.313
▁aw	-11.3131
▁proporsiyon	-11.3136
uru	-11.3138
▁musiko	-11.314
blo	-11.314
▁Masbate	-11.3141
▁Pamantayan	-11.3141
▁Mabuti	-11.3142
▁1955	-11.3143
ath	-11.3144
66	-11.3148
kaapat	-11.3149
panggap	-11.3152
▁pagkonsumo	-11.3154
▁nars	-11.3154
iglie	-11.3156
▁sapin	-11.3157
▁Ano	-11.3159
▁Gayumpa	-11.3161
▁Departamento	-11.3161
▁lumagda	-11.3161
▁rehiyonal	-11.3163
pailalim	-11.3163
▁1931	-11.3164
▁ipinagkaloob	-11.3164
▁paghahang	-11.3165
▁Mes	-11.3165
▁inilibing	-11.3165
paalam	-11.3165
ligtas	-11.3167
▁binigay	-11.3168
▁masasabing	-11.3173
31	-11.3179
49	-11.3181
▁Catholic	-11.3182
▁metabolismo	-11.3182
▁utusan	-11.3182
▁museo	-11.3182
▁napapaligiran	-11.3183
▁Macra	-11.3185
▁dia	-11.3194
dello	-11.3195
lagyan	-11.3197
▁water	-11.3197
▁Monastero	-11.3203
▁gamutin	-11.3203
▁puntahan	-11.3203
▁country	-11.3203
▁Force	-11.3204
gbabawal	-11.3205
taguyod	-11.3207
▁kinukuha	-11.3211
less	-11.3216
▁nakikilahok	-11.3219
hasa	-11.322
tabi	-11.3221
agpatuloy	-11.3223
▁Jeronimo	-11.3223
▁Penafrancia	-11.3223
▁biyokimika	-11.3224
▁boses	-11.3224
▁pamalagian	-11.3224
▁Domingo	-11.3224
▁pangsikolohiya	-11.3224
▁1903	-11.3226
▁Alaska	-11.3226
▁letra	-11.3227
▁work	-11.3229
▁Pederal	-11.323
▁biro	-11.3231
▁ul	-11.3232
hubog	-11.3234
65	-11.3234
amin	-11.3235
▁pagpapasok	-11.3239
▁kalimitan	-11.3239
▁kampana	-11.3244
▁karwahe	-11.3244
▁pagdidisenyo	-11.3245
▁kasabihan	-11.3246
lista	-11.3248
riva	-11.3249
▁pagkawasak	-11.3249
▁takda	-11.3251
▁ipinapa	-11.3251
▁cha	-11.3253
▁Pinas	-11.3254
▁Doon	-11.3254
▁pagbebenta	-11.3255
▁paghahatid	-11.3258
▁Sahra	-11.3258
▁Ekonomiya	-11.3265
▁Burma	-11.3266
taas	-11.3268
▁paghahayag	-11.3271
▁katamtaman	-11.3271
palaki	-11.3272
▁bur	-11.3273
tibong	-11.3278
▁parlamento	-11.3279
▁Mara	-11.3281
▁paputok	-11.3286
▁kapasidad	-11.3286
▁Mahayana	-11.3286
▁Tinangka	-11.3286
▁Otomano	-11.3286
▁Version	-11.3287
ugnay	-11.3295
▁paglilinis	-11.3296
▁mababago	-11.3296
▁Ivan	-11.33
bunsod	-11.3304
▁biseksuwal	-11.3306
▁hidroheno	-11.3307
▁payagan	-11.3307
▁nauunawaan	-11.3308
cher	-11.3308
▁Albay	-11.331
▁pare	-11.3313
▁pamamahagi	-11.3313
▁takip	-11.3313
sina	-11.3315
guro	-11.3315
yuhan	-11.3315
sagip	-11.3323
▁kasi	-11.3325
▁naghihintay	-11.3328
▁Rosario	-11.3328
▁Au	-11.3332
benta	-11.3332
▁hatol	-11.3334
▁nagtatakda	-11.3336
▁micro	-11.3338
▁malabo	-11.3343
▁kahusayan	-11.3349
▁tropa	-11.335
▁pwesto	-11.335
▁Life	-11.3351
▁1859	-11.3352
tek	-11.3352
berg	-11.3354
mini	-11.3355
▁Piemonte	-11.3364
41	-11.3364
▁58	-11.3369
▁pangseks	-11.337
ill	-11.337
▁Cunha	-11.337
▁Global	-11.337
▁makaraan	-11.3371
▁ensaym	-11.3371
▁Pun	-11.3372
▁basahin	-11.3373
pha	-11.3379
susulat	-11.3382
▁Mago	-11.3383
▁kaisa	-11.3386
ntal	-11.3386
▁kons	-11.3388
▁sumasa	-11.3391
▁Villanova	-11.3391
▁historyador	-11.3391
malupit	-11.3392
▁Frederick	-11.3393
▁talababa	-11.3393
▁Lapu	-11.3396
▁Rose	-11.3396
mos	-11.3397
len	-11.34
aalok	-11.34
▁grado	-11.3401
▁Tim	-11.3402
▁umayon	-11.3403
▁state	-11.3404
▁natitiyak	-11.3406
rup	-11.3406
▁matapat	-11.3407
mata	-11.341
▁turo	-11.3412
▁Benigno	-11.3413
▁Tasio	-11.3413
▁bumoto	-11.3414
tolohiya	-11.3415
▁paglutas	-11.3417
▁Khan	-11.3419
▁Yoshi	-11.342
▁News	-11.3423
▁magtrabaho	-11.3424
▁pagkakasundo	-11.3424
▁elementarya	-11.3434
▁petrolyo	-11.3434
▁talakayan	-11.3434
▁usbong	-11.3434
▁Little	-11.3435
▁balanse	-11.344
▁makabayan	-11.3442
▁nagbunga	-11.3443
▁barya	-11.3445
▁Israeli	-11.3447
▁Kala	-11.3448
▁Kasalukuyan	-11.345
mbu	-11.3452
alat	-11.3454
▁Commonwealth	-11.3455
▁suriin	-11.3456
▁pinamahalaan	-11.3456
▁kahugis	-11.3457
tera	-11.346
▁Bulkan	-11.346
▁marinig	-11.3462
▁sinuportahan	-11.3462
gdagdag	-11.3464
▁pagpipilian	-11.3467
salaysay	-11.3467
tigas	-11.3467
aakit	-11.3468
▁turismo	-11.3477
pagsasakatuparan	-11.3479
,500	-11.348
kumpirma	-11.3482
▁pagkakaunawa	-11.3482
▁magtalik	-11.3483
▁neuron	-11.3484
▁sy	-11.3485
▁Og	-11.3495
pang	-11.3496
▁monoteismo	-11.3498
▁baywang	-11.3498
▁solar	-11.3499
▁labag	-11.35
pek	-11.35
▁makalipas	-11.3501
▁magpakasal	-11.3503
▁Green	-11.3504
▁gum	-11.3506
▁Nagsa	-11.3508
▁persona	-11.3517
▁band	-11.3518
▁Byzantine	-11.3519
DA	-11.352
▁Ren	-11.3521
▁kasamahan	-11.3522
▁Bad	-11.3523
▁j	-11.3524
▁Yugoslavia	-11.3525
▁akma	-11.353
▁Germany	-11.3532
kara	-11.3532
vera	-11.3535
gul	-11.3538
▁Ivoire	-11.3539
nate	-11.354
▁Muntinlupa	-11.3541
▁Reunion	-11.3541
▁tonelada	-11.3541
▁higante	-11.3541
▁ketongin	-11.3541
▁nagtatangka	-11.3541
▁ginampanan	-11.3541
▁amo	-11.3543
▁pinaghalo	-11.3544
▁3,000	-11.3545
edo	-11.3547
▁System	-11.355
atas	-11.355
▁magaling	-11.3553
09	-11.3556
▁Jerusalem	-11.3562
▁pampilosopiya	-11.3562
▁kosmolohiya	-11.3562
▁pangkapaligiran	-11.3562
▁pamalit	-11.3566
▁pagmimina	-11.3567
karugtong	-11.3571
▁mekanika	-11.3571
▁1922	-11.3578
time	-11.358
▁nahawaan	-11.358
lawak	-11.3583
▁Kolombiya	-11.3584
▁paglalathala	-11.3584
▁nagtatala	-11.3591
▁Hot	-11.3592
▁binaba	-11.3594
ntas	-11.3595
speras	-11.3599
suke	-11.3601
▁nakakahawa	-11.3604
▁Roosevelt	-11.3605
▁kliyente	-11.3605
▁Calamba	-11.3605
▁pilosopikal	-11.3605
▁Seoul	-11.3605
▁tamod	-11.3606
▁Bernardino	-11.3606
▁Caesarea	-11.3606
▁Maximin	-11.3607
pen	-11.361
▁EU	-11.3616
▁koro	-11.3624
▁Vaticano	-11.3624
▁migrasyon	-11.3627
▁enzyme	-11.3627
▁2012.	-11.3627
▁minamahal	-11.3627
▁maki	-11.3628
payak	-11.3628
▁Sam	-11.3635
▁Costa	-11.3635
dai	-11.3638
▁maluwag	-11.3638
rami	-11.3638
mm	-11.3643
kla	-11.3644
▁siruhiya	-11.3645
kes	-11.3647
▁pabigat	-11.3648
▁Tower	-11.3649
▁heolohiya	-11.365
▁misyonero	-11.3652
▁Sinang	-11.3653
palibot	-11.3657
▁Kaiba	-11.3657
ford	-11.3658
▁mababaw	-11.366
nago	-11.3661
▁bali	-11.3662
▁mawala	-11.3668
erya	-11.3669
lalagyan	-11.367
▁gaganapin	-11.367
▁center	-11.3671
▁nagta	-11.3675
▁magtayo	-11.3676
▁Mont	-11.3678
▁Pilipina	-11.3681
▁lamig	-11.3681
▁tagagawa	-11.3682
▁hardin	-11.3686
lino	-11.3692
▁Castiglione	-11.3692
▁Pradesh	-11.3692
▁pangkalinangan	-11.3692
▁tignan	-11.3693
▁maisagawa	-11.3693
▁sumasalamin	-11.3694
▁kali	-11.3698
mili	-11.3699
▁Masa	-11.3699
▁tagal	-11.3702
▁cor	-11.3703
▁babaing	-11.3703
rik	-11.3706
▁propesyon	-11.3707
▁Kampo	-11.3707
▁matalo	-11.371
mor	-11.3711
▁balik	-11.3712
▁Ed	-11.3713
▁Kapisanan	-11.3714
▁aspekto	-11.3714
▁kudeta	-11.3714
▁lutasin	-11.3714
▁magpakamatay	-11.3714
▁Niseno	-11.3714
▁Stephen	-11.3714
▁paghingi	-11.3714
▁Vienna	-11.3714
▁humina	-11.372
▁isinasaala	-11.3723
▁pamunuan	-11.3724
▁bagoong	-11.3728
tuwa	-11.3732
56	-11.3736
▁First	-11.3736
▁akawnt	-11.3736
▁pinaslang	-11.3736
num	-11.3748
▁maigi	-11.3749
outen	-11.3751
▁magkamit	-11.3752
▁sugatan	-11.3752
▁MacArthur	-11.3758
▁Salvador	-11.3758
▁dominyo	-11.3758
▁propesyunal	-11.3758
▁pagbabasa	-11.3758
▁kadena	-11.3758
▁kondom	-11.3758
pangasawa	-11.3758
▁Stefano	-11.376
▁Dinala	-11.3768
ors	-11.377
▁aba	-11.3776
▁paghina	-11.3778
ens	-11.3779
ette	-11.3779
▁Pictures	-11.378
▁primitibo	-11.378
▁pandarayuhan	-11.378
▁Dapa	-11.3782
▁natatagpuan	-11.3785
▁Dai	-11.3786
agkalipas	-11.3786
▁naaayon	-11.3788
▁419	-11.3791
▁50,000	-11.3794
▁ver	-11.3795
▁ilipat	-11.3795
▁Radio	-11.3796
▁Bali	-11.3799
▁more	-11.3799
tric	-11.38
▁2005.	-11.3801
▁Perseus	-11.3802
▁StarStruck	-11.3802
▁magkasintahan	-11.3802
▁Dependensiya	-11.3802
▁plato	-11.3802
55	-11.3808
53	-11.3809
▁Jer	-11.3811
tuon	-11.3812
yod	-11.3816
▁buko	-11.382
▁guni	-11.3822
▁obligasyon	-11.3824
▁pakanluran	-11.3824
▁people	-11.3824
▁gagamba	-11.3824
▁Lake	-11.3824
▁manunula	-11.3824
▁nararanasan	-11.3825
▁Bikol	-11.3826
▁left	-11.3827
▁pinakabata	-11.3827
▁pinalawak	-11.3827
sariling	-11.3831
▁malala	-11.3833
book	-11.3834
▁123	-11.3846
▁Madali	-11.3846
▁Kipot	-11.3847
▁mais	-11.3849
▁pagtatalaga	-11.3851
▁hiniling	-11.3854
▁Tele	-11.3859
kontrol	-11.3867
▁French	-11.3868
▁Orthodox	-11.3868
▁alongpunsiyon	-11.3868
▁Katarungan	-11.3868
▁bukid	-11.3868
▁kinondena	-11.3868
▁pinapatakbo	-11.3871
hiro	-11.3871
▁ii	-11.3871
wala	-11.3873
▁tulin	-11.3878
lex	-11.3878
uunlad	-11.388
▁tumor	-11.388
kaakibat	-11.3881
himlay	-11.3881
▁Apat	-11.3883
del	-11.3887
▁Malawakan	-11.3887
▁school	-11.3888
▁nalathala	-11.389
▁itinatakwil	-11.3892
agkus	-11.3893
▁atas	-11.3893
▁bumu	-11.3893
▁dinadala	-11.3897
▁code	-11.3898
▁tagalog	-11.3899
ulat	-11.3902
umagamit	-11.391
▁Biyernes	-11.3913
▁manlilikha	-11.3914
▁tinatalakay	-11.3915
▁Sabah	-11.3918
kalat	-11.3921
akyat	-11.3923
▁sun	-11.3927
habol	-11.3929
▁makikilala	-11.3932
▁Aristotle	-11.3935
▁Fernandez	-11.3935
▁paterno	-11.3935
▁Maganda	-11.3936
▁Area	-11.3936
▁aasawa	-11.3936
▁armas	-11.3937
▁1870	-11.3938
▁nor	-11.3939
▁lolo	-11.3942
▁1901	-11.3942
pasailalim	-11.3946
▁Ai	-11.3948
▁tribu	-11.395
▁Yang	-11.3952
uzzo	-11.3952
▁malikhain	-11.3952
takip	-11.3957
▁Azerbaijan	-11.3957
▁departamento	-11.3957
▁kognitibo	-11.3957
▁Consolacion	-11.3957
▁Dutch	-11.3958
▁life	-11.3959
▁1924	-11.396
▁kainan	-11.3973
palakas	-11.3975
▁hipon	-11.3976
▁away	-11.3976
▁Karibe	-11.398
▁Puntlandiya	-11.398
▁domestikado	-11.398
▁konstelasyon	-11.398
ions	-11.398
▁mananayaw	-11.398
▁Menor	-11.3983
▁Tinan	-11.3983
▁presidente	-11.3987
▁Ale	-11.3987
een	-11.3992
▁dinamika	-11.3992
bara	-11.3993
▁Mababang	-11.3993
▁natupad	-11.3996
▁hinahal	-11.3996
▁Nin	-11.3998
▁Cro	-11.3999
▁Paano	-11.3999
▁Irenaeus	-11.4002
▁haka	-11.4003
▁Tiburcio	-11.4003
▁Siberia	-11.4004
galaw	-11.4004
▁kalalang	-11.4005
▁komiks	-11.4008
▁sampol	-11.4009
side	-11.4014
sho	-11.4023
▁Ken	-11.4024
kura	-11.4025
wid	-11.4025
▁Kapwa	-11.4025
▁kumplikado	-11.4025
▁Inangkin	-11.4026
▁pagpapatakbo	-11.4026
rasyon	-11.4028
patibay	-11.4028
▁mis	-11.4029
▁akay	-11.4042
▁AI	-11.4044
his	-11.4044
non	-11.4044
kausap	-11.4045
▁nuclei	-11.4045
▁patunayan	-11.4047
ulit	-11.4047
▁Child	-11.4047
▁Airlines	-11.4047
▁Magellan	-11.4047
▁Magsaysay	-11.4047
▁Lorenzo	-11.4047
▁intra	-11.4048
▁Ibn	-11.4048
▁hiyas	-11.4048
AR	-11.4048
▁Hospital	-11.4048
92	-11.4048
▁espirituwal	-11.4048
lampas	-11.4049
▁1934	-11.405
ides	-11.4052
▁kinaka	-11.4052
▁Kawa	-11.4056
▁ninakaw	-11.406
▁am	-11.4061
papanumbalik	-11.4063
▁Mr	-11.4065
▁Din	-11.4069
▁pribilehiyo	-11.407
▁pagsasarili	-11.4071
▁magpapa	-11.4071
▁lb	-11.4072
▁Franco	-11.4075
▁debosyon	-11.4078
▁Anna	-11.4078
▁Plum	-11.408
▁Balita	-11.408
sari	-11.4081
▁him	-11.4087
▁Kapayapaan	-11.4093
▁Sacramento	-11.4093
▁guwardiya	-11.4093
▁pambihira	-11.4093
▁Lewis	-11.4094
ganti	-11.4095
pabilang	-11.4095
kouz	-11.4095
▁sirkito	-11.4098
tia	-11.41
▁Hol	-11.4101
▁sinisi	-11.4105
sali	-11.4107
▁inplasyon	-11.4115
▁trahedya	-11.4116
▁Diocletian	-11.4116
▁Atenas	-11.4117
▁inog	-11.4117
ding	-11.4117
ade	-11.4117
▁1913	-11.4119
▁br	-11.4119
▁panda	-11.4122
▁agos	-11.4123
93	-11.4129
▁0.5	-11.4129
vin	-11.4132
▁humahara	-11.4136
▁Master	-11.4137
▁Askenasi	-11.4138
▁talambuhay	-11.4138
▁Manggagawa	-11.4138
▁litrato	-11.4139
▁peke	-11.414
▁Isinila	-11.414
▁kababayan	-11.4141
hagis	-11.4142
▁pangasiwaan	-11.4142
▁makabuluhang	-11.4143
▁Bata	-11.4144
▁mina	-11.4153
▁Yuan	-11.416
▁Pilosopiya	-11.4161
▁aberahe	-11.4161
▁Nyor	-11.4161
▁Norway	-11.4161
▁UTC	-11.4162
▁Ganito	-11.4162
dadala	-11.4162
▁1880	-11.4164
yari	-11.4166
▁Itina	-11.4166
▁humili	-11.4166
baw	-11.4172
▁700	-11.4174
gram	-11.4175
▁Felix	-11.4184
▁ikinatwiran	-11.4184
▁palatuntunan	-11.4184
▁palumpong	-11.4184
▁taludtod	-11.4184
▁pananamit	-11.4184
▁elektro	-11.4185
▁inhinyeriya	-11.4188
▁jo	-11.42
▁Kata	-11.4201
▁Benguet	-11.4207
▁magkakahiwalay	-11.4208
▁labor	-11.4213
lalapit	-11.4215
gulat	-11.4216
▁patimog	-11.4218
▁Rob	-11.4219
▁il	-11.4219
▁nagtungo	-11.422
▁Serbia	-11.4222
▁ft	-11.4222
▁DC	-11.4223
▁Keltiko	-11.423
▁yumabong	-11.423
▁nagtu	-11.423
▁lagusan	-11.4231
▁hotel	-11.4231
▁SE	-11.4231
▁trigo	-11.4235
▁bida	-11.4237
nder	-11.4238
▁kaalyado	-11.4243
nse	-11.4247
▁bertebrado	-11.4248
▁handaan	-11.4248
▁ekumenikal	-11.4253
▁kimiko	-11.4253
▁eleksiyon	-11.4253
▁erehe	-11.4253
▁matanggal	-11.4254
▁Benito	-11.4254
kaapekto	-11.4256
▁Maha	-11.4259
▁kakilala	-11.4261
▁Ger	-11.4262
▁pananatili	-11.4266
▁hab	-11.4268
▁pasulong	-11.4271
▁umaasal	-11.4273
papaloob	-11.4273
▁Somalilandiya	-11.4276
▁Tinagurian	-11.4276
▁Office	-11.4276
▁jazz	-11.4276
▁show	-11.4278
▁Bohr	-11.4278
▁Kalinga	-11.4279
▁sangang	-11.4279
timbang	-11.428
kulo	-11.4281
▁Barbara	-11.4282
bosa	-11.4289
▁Opera	-11.4291
▁kan	-11.4291
ular	-11.4295
▁home	-11.4296
▁Koran	-11.4297
▁pakiki	-11.4298
▁tagasuporta	-11.4299
▁krema	-11.4299
▁transmisyon	-11.4299
▁makatotohanan	-11.43
▁bandila	-11.4301
▁maasahan	-11.4302
iisip	-11.4302
▁71	-11.4303
▁beke	-11.4306
▁Lumaba	-11.4306
▁Pho	-11.4307
▁Ikaw	-11.4312
lalagay	-11.4314
hem	-11.4314
org	-11.4319
▁iss	-11.432
▁November	-11.4322
▁tagsibol	-11.4322
▁Florante	-11.4322
▁nutrisyon	-11.4323
▁kulungan	-11.4323
▁pitak	-11.4323
tawid	-11.4324
▁kamukha	-11.4326
▁Tanso	-11.433
▁Uri	-11.4331
▁ngiti	-11.4332
▁kundisyon	-11.4336
▁diyosan	-11.4339
▁paninindigan	-11.4346
▁basketbol	-11.4346
▁panulaan	-11.4346
▁elektrikal	-11.4346
▁Tour	-11.4346
▁gumaling	-11.4346
▁pulutong	-11.4347
▁1907	-11.435
▁sakali	-11.4357
laki	-11.4362
saya	-11.4366
omi	-11.4367
babagay	-11.4368
▁Mehikano	-11.4369
▁monumento	-11.4369
▁kalupaan	-11.4369
▁Front	-11.4369
▁Basilika	-11.437
hur	-11.437
▁Hipona	-11.437
iman	-11.4374
tanim	-11.4374
▁bulag	-11.4375
kasal	-11.4378
▁pasya	-11.4381
▁matamis	-11.4382
ugin	-11.4383
▁Mata	-11.4389
▁Borgo	-11.4391
▁nagkokodigo	-11.4392
▁prodyuser	-11.4392
▁Memorial	-11.4392
▁Frank	-11.4392
▁etimolohiya	-11.4393
▁saysay	-11.4393
▁Gusto	-11.4394
▁isinaayos	-11.4394
makatuwi	-11.4395
▁Kinuha	-11.4395
▁Urban	-11.4397
▁itinaas	-11.4397
pabilis	-11.4398
▁tele	-11.4398
▁kapal	-11.4402
▁sign	-11.4407
▁Lucia	-11.4408
yak	-11.4409
▁paglalaan	-11.4409
RI	-11.4415
▁astronomo	-11.4416
▁sinoptiko	-11.4416
▁praksiyon	-11.4416
▁sumikat	-11.4416
▁pagdara	-11.4422
▁pangsubok	-11.443
▁Qui	-11.4432
▁sta	-11.4437
▁Bini	-11.4437
▁Marinduque	-11.4439
▁Ireland	-11.4439
▁Laurel	-11.4439
▁bingi	-11.4441
▁matapang	-11.4441
▁pagkakasakit	-11.4446
▁ion	-11.4446
kwa	-11.4447
▁malalakas	-11.4452
▁Dala	-11.4453
▁Kom	-11.4454
▁q	-11.4455
▁sakay	-11.446
▁pagkakalikha	-11.4461
▁Klasiko	-11.4463
▁sinagoga	-11.4463
▁Karapatan	-11.4463
▁93	-11.4463
▁panunungkulan	-11.4463
▁Wood	-11.4463
▁amin	-11.4464
kso	-11.4466
▁pagpapadama	-11.4468
▁Ara	-11.4468
row	-11.447
▁karo	-11.4473
▁Ch	-11.4473
buksan	-11.4475
▁iiwan	-11.4477
▁pagpaya	-11.4478
sangkutan	-11.448
61	-11.4481
▁star	-11.4481
▁sansinukob	-11.4486
▁Malakanyang	-11.4486
▁bloke	-11.4486
▁esperma	-11.4486
▁Denmark	-11.4486
▁Hudea	-11.4486
▁level	-11.4487
▁Airport	-11.4487
▁Armenian	-11.4489
low	-11.449
▁Indus	-11.4492
plano	-11.4497
kakabit	-11.4501
▁kawani	-11.4502
pansin	-11.4503
▁alhebra	-11.4504
tili	-11.4507
▁black	-11.451
▁disyerto	-11.451
▁kaigihan	-11.451
▁Persiya	-11.4512
▁palayok	-11.4513
house	-11.4514
iks	-11.4514
▁nagsa	-11.4519
72	-11.4519
▁Samaritano	-11.4523
▁Senador	-11.4526
▁Kura	-11.4531
▁maglakbay	-11.4533
▁prehistoriko	-11.4534
ille	-11.4535
▁Cristo	-11.4535
▁patimpalak	-11.4537
CC	-11.4537
▁kati	-11.4551
▁Alfredo	-11.4551
▁125	-11.4553
▁Chernykh	-11.4557
▁Massachusetts	-11.4557
▁ekwador	-11.4557
▁panglipunan	-11.4557
▁63	-11.4558
guhit	-11.4558
▁Trent	-11.456
aral	-11.4561
▁tableta	-11.4561
buk	-11.4561
▁tambalan	-11.4563
▁cu	-11.4564
saka	-11.4572
▁ham	-11.4573
▁ant	-11.4573
kaligtas	-11.4577
▁fungi	-11.4578
art	-11.458
▁kuwartel	-11.4581
palagay	-11.4583
▁Times	-11.4584
▁nangatwiran	-11.4586
heno	-11.4587
▁Anton	-11.4588
upok	-11.4591
▁Peninsula	-11.4594
▁Datu	-11.4595
▁lapad	-11.4597
nundan	-11.4597
▁ganya	-11.4598
▁Puti	-11.4598
▁harapang	-11.4602
tio	-11.4604
04	-11.4604
▁bonobo	-11.4606
▁pinakabago	-11.461
▁Wall	-11.4612
▁Tang	-11.4613
kun	-11.4614
▁Manu	-11.462
▁Damian	-11.4621
▁bra	-11.4625
▁konduktor	-11.4625
▁Cher	-11.4626
▁masakit	-11.4626
▁down	-11.4626
▁Oh	-11.4627
▁boluntaryo	-11.4629
▁iskala	-11.4629
▁itsura	-11.4629
▁arte	-11.463
▁Opisyal	-11.463
▁inilalabas	-11.463
▁henero	-11.4632
32	-11.4632
▁mosyon	-11.4634
▁tabing	-11.4641
▁Blue	-11.4642
▁inilaan	-11.4645
▁hap	-11.4647
▁namama	-11.465
▁Mahigi	-11.4652
▁Chalcedon	-11.4653
▁pagbibiti	-11.4653
▁Somma	-11.4653
▁magkakatulad	-11.4654
▁padron	-11.4655
▁Par	-11.4656
▁awtonomo	-11.4656
▁73	-11.4656
▁katlo	-11.4657
▁temporal	-11.466
▁ber	-11.4663
▁nagpaalam	-11.4672
▁Education	-11.4677
▁hustisya	-11.4677
▁nakapipinsala	-11.4677
▁neutral	-11.4677
▁naapektuhan	-11.4677
▁nangako	-11.4678
▁tumutubo	-11.468
▁nauuna	-11.4681
▁bol	-11.4684
▁250	-11.4687
▁nagsulat	-11.4691
▁cho	-11.4693
zon	-11.4694
graph	-11.4695
▁Puno	-11.4698
▁general	-11.4698
tanyag	-11.4699
ines	-11.4699
ori	-11.47
▁rosas	-11.4701
▁umusbong	-11.4701
▁elektriko	-11.4705
▁emp	-11.4705
rama	-11.4705
▁gumagam	-11.4706
▁Savi	-11.4708
▁alamang	-11.471
yana	-11.471
▁rh	-11.4712
som	-11.4712
taka	-11.4713
▁solong	-11.4715
▁magtatag	-11.4716
talo	-11.4717
ihan	-11.4719
▁140	-11.4723
▁Medi	-11.4724
▁eukaryote	-11.4725
▁kongregasyon	-11.4725
▁Tseko	-11.4725
▁tribunal	-11.4725
▁radikal	-11.4726
▁pinakamayaman	-11.4727
▁malalaman	-11.473
▁random	-11.4731
him	-11.4734
makapangyarihan	-11.4736
chu	-11.4741
▁nukleyo	-11.4743
illo	-11.4744
▁Ste	-11.4745
▁Spanish	-11.4749
▁drift	-11.4749
▁sinubukan	-11.4749
▁public	-11.4749
▁Nichol	-11.475
tti	-11.4754
mahal	-11.4755
▁Sanhedrin	-11.4756
rate	-11.4759
plan	-11.4761
▁Puso	-11.4761
nuov	-11.4763
▁pagtawa	-11.4764
haharap	-11.4766
wit	-11.4767
gbayad	-11.4769
▁hubog	-11.477
kabisa	-11.477
nyo	-11.4771
▁Bon	-11.4772
▁Mura	-11.4773
▁Basedow	-11.4774
▁Basketball	-11.4774
▁Claudius	-11.4774
▁Karagdagan	-11.4775
▁ulap	-11.4775
▁Hini	-11.4778
TV	-11.478
▁pino	-11.478
bangon	-11.4781
▁Poe	-11.4782
▁nagsalita	-11.4783
▁nagtala	-11.4783
ique	-11.4783
▁800	-11.4784
▁Nor	-11.4784
▁photon	-11.4784
▁Arabya	-11.4785
laro	-11.4785
▁Danes	-11.4788
lop	-11.4789
▁Carol	-11.4789
▁katu	-11.4792
patay	-11.4793
▁Lao	-11.4793
▁pagpunta	-11.4794
▁Sinu	-11.4795
▁likidong	-11.4795
▁Spi	-11.4795
▁nagkaka	-11.4797
▁anibersaryo	-11.4798
▁bumabalik	-11.48
▁lakad	-11.4803
▁sukatan	-11.4805
▁Fla	-11.4807
▁tini	-11.4808
tian	-11.4809
▁Dam	-11.4814
▁Dina	-11.4815
yos	-11.4816
▁Rio	-11.4817
▁genital	-11.4818
▁ls	-11.4819
▁nililikha	-11.4819
▁tinanggihan	-11.4822
▁labanang	-11.4822
▁lehitimo	-11.4823
▁LGBT	-11.4823
▁lamok	-11.4824
▁Asian	-11.4826
ult	-11.4831
mir	-11.4832
▁mamuno	-11.4833
posisyon	-11.4833
tse	-11.4839
▁mati	-11.484
▁protons	-11.4841
uporta	-11.4841
ahon	-11.4842
▁Natatangi	-11.4847
▁inirerekomenda	-11.4848
ami	-11.485
▁Inaasahan	-11.4851
▁nagsama	-11.4861
▁hawakan	-11.4862
▁sinunod	-11.4863
▁respeto	-11.4864
▁ple	-11.4866
▁paglaho	-11.4866
▁strikto	-11.4871
▁depression	-11.4871
▁katamaran	-11.4871
▁panghukbo	-11.4871
gamot	-11.4872
▁pinanatili	-11.4872
▁konsilyo	-11.4872
▁pinakamalalaki	-11.4872
▁Valle	-11.4873
▁maalamat	-11.4873
▁Pilar	-11.4874
▁Ari	-11.4874
ets	-11.4884
▁Haya	-11.4886
▁magbago	-11.4886
▁Indones	-11.4886
agdating	-11.4889
▁grapo	-11.4891
mot	-11.4892
▁Eba	-11.4892
▁tigil	-11.4893
pahamak	-11.4895
▁kalansay	-11.4896
▁katapangan	-11.4896
▁royal	-11.4896
▁Luc	-11.4897
▁topolohiya	-11.4897
▁aambag	-11.4899
▁deboto	-11.4899
▁Dal	-11.4906
▁diyeta	-11.4906
▁pagtatag	-11.4909
▁hinira	-11.4911
▁pagbanggit	-11.4911
kikita	-11.4911
yx	-11.4913
paliwanag	-11.4914
lathala	-11.4915
▁Ipinangalan	-11.4921
▁daambakal	-11.4922
▁Militar	-11.4922
▁makakatulong	-11.4923
▁Mori	-11.4925
▁Labi	-11.493
▁only	-11.493
henesis	-11.4933
rich	-11.4935
▁ginawaran	-11.4936
seo	-11.4936
▁Sh	-11.4938
luto	-11.4941
▁PS	-11.4942
▁Vatican	-11.4942
▁Apollo	-11.4944
nts	-11.4944
▁Concepcion	-11.4945
▁eksplorador	-11.4945
▁tumutugma	-11.4946
ashi	-11.4947
▁matulungan	-11.495
▁alaman	-11.4951
▁gonad	-11.4953
burg	-11.4957
tungo	-11.4958
▁Power	-11.4962
▁magdala	-11.4963
▁Jing	-11.4965
omenclature	-11.497
▁Benjamin	-11.497
▁gorilya	-11.497
▁diyaryo	-11.497
dahilan	-11.4971
▁tsismis	-11.4971
▁Helenistiko	-11.4971
▁sosyalista	-11.4971
82	-11.4971
▁Nilikha	-11.4971
▁naipa	-11.4974
▁play	-11.4977
▁tabako	-11.4981
▁Likas	-11.4983
tapat	-11.4984
▁Noon	-11.4984
▁pastor	-11.4985
likas	-11.4988
bun	-11.4989
▁Tanda	-11.4989
▁Saksi	-11.499
yen	-11.4991
▁Chile	-11.4991
▁Switzerland	-11.4995
▁civil	-11.4995
▁mithiin	-11.4995
▁pagtatrabaho	-11.4995
▁hurado	-11.4995
▁Nokia	-11.4996
▁malaria	-11.4997
▁sosyal	-11.5002
▁katangi	-11.5003
▁kaha	-11.5007
▁CO	-11.5009
▁Meta	-11.5009
▁Arali	-11.501
▁Mana	-11.5015
▁libu	-11.5016
▁along	-11.5016
sim	-11.5017
▁Sumerya	-11.502
▁imigrante	-11.502
▁publikasyon	-11.502
▁Franklin	-11.502
▁paborito	-11.5021
▁nagkakaiba	-11.5022
▁1925	-11.5023
▁new	-11.5024
▁hayagan	-11.5025
▁monarka	-11.5026
▁Gra	-11.5029
istikong	-11.5034
miya	-11.5036
▁pito	-11.5039
angat	-11.504
▁Ok	-11.504
▁nguni	-11.5042
▁almoranas	-11.5045
▁kalungkutan	-11.5045
▁pisngi	-11.5045
▁retorika	-11.5045
▁sinunog	-11.5045
▁ponema	-11.5045
▁tanggalin	-11.5045
lipad	-11.5045
▁kubo	-11.5046
▁Club	-11.5047
▁onsa	-11.5049
▁mabu	-11.5049
▁kapantay	-11.5052
▁malalaya	-11.5054
kor	-11.5056
▁pagtu	-11.5057
sukat	-11.5059
tero	-11.5063
▁har	-11.5064
▁terorismo	-11.5065
▁Angel	-11.5065
▁pananggalang	-11.5068
▁Unti	-11.5068
▁Iglesya	-11.507
▁delegasyon	-11.507
▁mikroorganismo	-11.507
▁resolusyon	-11.507
▁paggasta	-11.507
▁makapagparami	-11.507
▁pagsusulit	-11.507
▁Final	-11.5071
kabuo	-11.5071
▁pagpapagaling	-11.5071
▁Mycenae	-11.5071
rol	-11.5072
patayo	-11.5074
pahintulot	-11.5075
▁puwitan	-11.5077
bunton	-11.5079
bunyag	-11.508
▁tabang	-11.5084
▁Ol	-11.5085
▁manana	-11.5088
valle	-11.5089
▁nerbiyos	-11.509
usad	-11.509
cent	-11.5094
▁tumatag	-11.5094
▁Organisasyon	-11.5095
▁direksyon	-11.5095
▁pintakasi	-11.5095
▁eskolar	-11.5095
▁paroko	-11.5095
▁Tangere	-11.5095
asultanan	-11.5096
▁pagtatanong	-11.5097
▁MRT	-11.5097
▁gayun	-11.5098
▁Federal	-11.5099
▁Marya	-11.5099
talikod	-11.51
llah	-11.5101
eli	-11.5101
▁kinu	-11.5102
ngaral	-11.5102
▁Irak	-11.5103
200	-11.5105
▁tugmaan	-11.5107
ikot	-11.5114
▁pagtrato	-11.5117
lid	-11.5118
▁Revolution	-11.512
▁habitat	-11.512
▁Galerius	-11.512
▁Christmas	-11.512
▁sungay	-11.512
▁hadlang	-11.5121
▁makaluma	-11.5122
▁Konde	-11.5123
▁pagpapangalan	-11.5123
▁matugunan	-11.5125
ensya	-11.5126
▁Mariano	-11.5127
▁Pampa	-11.513
nasanay	-11.5131
▁Dao	-11.5131
▁nabago	-11.5134
dam	-11.5139
gagamot	-11.514
▁Aki	-11.5143
▁Mall	-11.5144
▁koordinato	-11.5145
▁rebelyon	-11.5145
▁nilalayon	-11.5146
▁Metropolitan	-11.5146
▁paglalaban	-11.5147
eni	-11.5148
▁kasuan	-11.5148
▁Kita	-11.5148
▁dugong	-11.5149
▁hinihint	-11.5149
▁nadagdagan	-11.515
▁Fuji	-11.5153
▁war	-11.5154
▁mura	-11.5162
talik	-11.5164
▁pagtuon	-11.5164
▁pagtayo	-11.5167
▁ibinu	-11.5167
▁sakahan	-11.5167
tagapagtangkilik	-11.517
▁Bonaparte	-11.517
▁Khmer	-11.517
bah	-11.517
▁umurong	-11.517
▁kronolohiya	-11.517
▁synod	-11.517
▁nagsasanay	-11.5171
▁Street	-11.5171
▁pagtaban	-11.5171
tatamo	-11.5173
▁Cai	-11.5175
▁ratio	-11.5176
▁naisip	-11.5176
▁makapasok	-11.5177
▁nakakapag	-11.5179
saalang	-11.5187
part	-11.5193
▁Toba	-11.5193
▁tat	-11.5193
samu	-11.5195
▁mortal	-11.5196
▁Kapanahunan	-11.5196
▁Recto	-11.5196
▁kapitulo	-11.5196
▁degree	-11.5196
dyo	-11.5196
▁pinakamalakas	-11.5196
nganak	-11.5197
▁hanap	-11.5197
▁iniksiyon	-11.5199
▁Cur	-11.5202
bilanggo	-11.5202
▁Bala	-11.5203
▁panga	-11.5203
▁His	-11.5206
▁pulisya	-11.5206
enberg	-11.5207
▁pagpapala	-11.5217
▁saka	-11.5218
▁destinasyon	-11.5219
▁kaanyuan	-11.5221
▁siruhano	-11.5221
▁patpat	-11.5221
▁nuclear	-11.5222
▁Espana	-11.5222
▁makinarya	-11.5223
▁1906	-11.5226
▁1923	-11.5226
lasyon	-11.5228
yun	-11.523
▁poly	-11.5231
langhap	-11.5236
ipikasyon	-11.5242
inig	-11.5246
▁Baptist	-11.5246
▁eigen	-11.5246
▁umupo	-11.5249
▁Nagawa	-11.5249
▁1892	-11.525
▁pumipili	-11.5252
▁mor	-11.5254
▁upo	-11.5259
▁moda	-11.5259
▁2013.	-11.5262
▁palay	-11.5263
tinatakda	-11.5264
▁imbakan	-11.5265
tutulungan	-11.5268
kra	-11.527
labanan	-11.5272
▁INC	-11.5272
▁kakampi	-11.5272
▁pangsayaw	-11.5272
▁tumutol	-11.5272
▁mamamahayag	-11.5273
▁sirkulasyon	-11.5273
▁dato	-11.5274
uuri	-11.5275
▁pamalo	-11.5276
tem	-11.5277
64	-11.5277
▁dalagang	-11.5278
bik	-11.5281
▁Good	-11.5281
▁Nisan	-11.5283
▁henera	-11.5284
bli	-11.5286
vy	-11.5291
off	-11.5292
02	-11.5293
lambot	-11.5293
▁Jehova	-11.5295
▁Ikinatwiran	-11.5297
▁inakdaan	-11.5298
▁house	-11.5298
▁76	-11.5301
toryo	-11.5303
balita	-11.5305
▁Land	-11.5306
yuki	-11.5313
zen	-11.5314
saayos	-11.5316
▁Mayor	-11.5318
talastasan	-11.532
▁Nabu	-11.5321
neurotransmitter	-11.5323
▁plataporma	-11.5323
▁panukat	-11.5323
▁Kristyano	-11.5323
kaugnay	-11.5324
god	-11.5326
▁lesbiana	-11.5327
▁Gregorian	-11.5328
▁tangka	-11.5329
▁alay	-11.5329
▁pamba	-11.5329
▁any	-11.533
iling	-11.5331
▁2,000	-11.5331
▁Yuki	-11.5333
▁paghatol	-11.5333
kaayos	-11.5337
▁umiino	-11.5338
▁German	-11.5338
▁poot	-11.5342
▁pangingi	-11.5345
▁kataas	-11.5348
▁balarila	-11.5349
▁imprastraktura	-11.5349
▁kaantasan	-11.5349
▁mabait	-11.5349
▁pamasko	-11.5349
▁Hungary	-11.5349
▁istasyon	-11.5349
▁tagamasid	-11.535
▁bitak	-11.5351
▁ikasiyam	-11.5353
▁two	-11.5354
▁Lipunan	-11.536
▁niyog	-11.5362
▁Nara	-11.5364
▁Mala	-11.5364
▁nawawalan	-11.5364
ket	-11.5367
▁madalang	-11.5367
gsasalo	-11.5371
hl	-11.5371
palitan	-11.5372
▁Cross	-11.5376
▁Young	-11.5376
▁hirap	-11.5379
▁pagkapukaw	-11.5379
▁inatasan	-11.538
nulat	-11.5381
▁Saga	-11.5383
▁paglilimbag	-11.5387
▁Gaga	-11.5388
bura	-11.5391
▁lumapa	-11.5391
dado	-11.5393
▁Origen	-11.54
▁matuklasan	-11.54
▁basura	-11.5401
▁kabuluhan	-11.5401
lipol	-11.5401
▁Highway	-11.5401
gdiwang	-11.5403
▁isinalaysay	-11.5404
udi	-11.5405
▁transpormasyon	-11.5409
▁sindroma	-11.5411
▁Cent	-11.5415
▁381	-11.5417
▁Girl	-11.5419
sawsaw	-11.5419
bilidad	-11.5421
▁federal	-11.5426
▁kasagsagan	-11.5426
▁Strauss	-11.5426
▁nakagawian	-11.5426
▁Sergio	-11.5426
▁average	-11.5427
▁dangal	-11.5428
▁Arabiko	-11.5428
▁Thi	-11.543
▁Bul	-11.5435
▁Dis	-11.5435
▁Tre	-11.5438
▁paghihiganti	-11.5438
▁Lalo	-11.5443
lio	-11.5444
liligtas	-11.5445
▁Qi	-11.545
▁February	-11.5452
▁Pransiskano	-11.5452
▁reseptor	-11.5452
▁Plaza	-11.5452
▁istorya	-11.5452
▁Sosyalista	-11.5453
▁paglilihi	-11.5453
dol	-11.5454
tino	-11.5456
▁pagreregla	-11.5456
▁depensa	-11.5456
▁makabalik	-11.5458
▁Night	-11.546
▁aalay	-11.5463
alala	-11.5465
▁Sto	-11.5467
▁pagbibilang	-11.5468
▁planta	-11.5469
▁babalik	-11.5471
▁chart	-11.5475
▁kreasyonista	-11.5478
▁pangmedisina	-11.5478
▁websayt	-11.5478
▁magnetiko	-11.5479
▁Macedonia	-11.5481
▁payat	-11.5481
▁bigkis	-11.5481
disenyo	-11.5482
▁alhebraiko	-11.5485
▁Sharif	-11.5486
▁Film	-11.5488
▁agaran	-11.549
▁bukol	-11.5493
▁end	-11.5494
▁magaan	-11.5494
▁Alta	-11.5495
▁pagmama	-11.5496
▁Spring	-11.5497
yabong	-11.5499
▁nakabalukto	-11.5499
▁dual	-11.5503
▁Orihinal	-11.5504
▁panlalawigan	-11.5504
▁kaliwanagan	-11.5504
▁Alyado	-11.5505
▁pagpapako	-11.5511
ektor	-11.5518
81	-11.5519
gbabawas	-11.5519
▁nanggagaling	-11.552
italaga	-11.5522
▁kasalan	-11.5525
▁mean	-11.553
▁Express	-11.553
▁kamangmangan	-11.5531
▁labintatlo	-11.5531
▁Ginintuan	-11.5531
▁resistensiya	-11.5531
▁persepsiyon	-11.5531
▁huminto	-11.5531
tutupad	-11.5531
cca	-11.5531
▁selyo	-11.5532
▁pandayuhan	-11.5534
sum	-11.5535
tismo	-11.5536
▁lagpas	-11.5538
▁pagsasaalang	-11.5538
▁Artiko	-11.554
nanaig	-11.5541
▁Ceres	-11.5541
▁Sini	-11.5542
gupit	-11.5546
▁sintetiko	-11.5546
lement	-11.5548
fre	-11.555
gkakamit	-11.5554
▁der	-11.5555
▁Ifugao	-11.5557
▁tsokolate	-11.5557
▁Watson	-11.5557
▁million	-11.5557
▁anit	-11.5561
▁Nina	-11.557
▁kuro	-11.557
rac	-11.5572
ego	-11.5581
▁screen	-11.5583
▁tunggalian	-11.5583
▁inakala	-11.5583
▁Garden	-11.5585
▁1500	-11.5585
▁pagpapatibay	-11.5586
▁tagapayo	-11.5587
▁Rosh	-11.5589
bio	-11.559
▁Will	-11.559
▁Bob	-11.5594
▁katha	-11.5595
▁orasan	-11.5596
vor	-11.5601
umingi	-11.5605
▁tira	-11.5606
▁Tur	-11.5606
dugtong	-11.5607
▁Bisantino	-11.561
▁Province	-11.561
▁sinusubukan	-11.561
▁tinatagurian	-11.561
▁Cambridge	-11.561
▁science	-11.561
▁talunin	-11.561
▁analitiko	-11.561
▁Nevada	-11.561
▁paganismo	-11.5611
▁singular	-11.5611
▁misyonaryo	-11.5611
bata	-11.5611
▁kumu	-11.5611
▁1872	-11.5612
▁ipinatupad	-11.5613
▁direkta	-11.5613
▁rub	-11.5615
▁Belen	-11.5615
▁Roer	-11.5623
▁ve	-11.5625
butas	-11.5626
▁Tulay	-11.5631
▁pagtata	-11.5633
▁pagsang	-11.5633
▁panunaw	-11.5636
▁Ashoka	-11.5636
▁nagkakahalaga	-11.5636
▁imbis	-11.5637
mum	-11.5637
▁uutos	-11.5638
inanggit	-11.564
▁Pinuno	-11.564
susuot	-11.5643
▁Fort	-11.5643
▁Patay	-11.5644
▁isinasaad	-11.5645
pokus	-11.5645
▁pigilan	-11.5647
▁uli	-11.5649
ligalig	-11.5651
▁Aten	-11.5653
▁Virgin	-11.5657
rok	-11.5658
nismo	-11.5661
▁Alkalde	-11.5663
▁resistansiya	-11.5663
▁halimaw	-11.5663
▁pinakamaganda	-11.5663
▁Joaquin	-11.5663
▁Kasulatan	-11.5663
kikipagkalakalan	-11.5663
▁mandaragat	-11.5663
▁bipolar	-11.5663
▁Bicol	-11.5664
▁pagsasayaw	-11.5664
▁1869	-11.5666
▁nagpapatupad	-11.5666
73	-11.5667
▁paglipad	-11.5667
MA	-11.567
▁Siyam	-11.567
▁Out	-11.5674
▁fr	-11.5675
morph	-11.5676
otte	-11.5677
uh	-11.5678
lf	-11.5679
▁tekniko	-11.5681
▁Tanyag	-11.5689
▁Mongoloid	-11.569
▁grasya	-11.569
▁mapigilan	-11.569
▁bakuran	-11.569
▁inaalagaan	-11.5691
fish	-11.5696
▁ale	-11.5697
▁pakikisalamuha	-11.5699
kakapantay	-11.5699
aririto	-11.5705
▁Zen	-11.5705
▁Tumang	-11.571
riko	-11.5715
▁Matthew	-11.5716
▁Siddharta	-11.5716
▁Sorsogon	-11.5716
▁katedral	-11.5716
▁obhekto	-11.5716
▁Nagsisilbi	-11.5716
▁Linnae	-11.5716
▁palihim	-11.5716
▁gumalaw	-11.5716
▁nakakatanda	-11.5717
telekomunikasyon	-11.5717
▁Uruk	-11.5718
▁tipon	-11.5719
▁kino	-11.572
▁tribute	-11.572
▁theory	-11.5722
aiiba	-11.5727
▁74	-11.5729
aliwas	-11.573
each	-11.5735
▁1200	-11.5736
eda	-11.5737
isang	-11.5737
buwag	-11.5739
▁Gas	-11.5742
▁Australoid	-11.5743
▁parlamentaryo	-11.5743
▁Bulgaria	-11.5743
▁langgam	-11.5743
▁makipagtalik	-11.5743
▁League	-11.5743
▁duwag	-11.5744
▁bihag	-11.5744
▁manalo	-11.5747
iral	-11.5747
▁hy	-11.575
▁Aklatan	-11.5751
kinokontrol	-11.5754
▁Medes	-11.5755
▁there	-11.5758
atake	-11.576
suway	-11.5762
▁point	-11.5764
▁mayorya	-11.5765
apekto	-11.5765
▁ipag	-11.5769
inabibilangan	-11.5769
▁Hispania	-11.5769
onas	-11.5769
▁kaluban	-11.5769
▁kwantika	-11.5769
pagmamanupaktura	-11.577
▁paglalabas	-11.577
▁pampahina	-11.577
▁ci	-11.5771
▁Joe	-11.5771
▁1921	-11.5773
▁pansing	-11.5774
▁Martinian	-11.5774
▁iniinom	-11.5775
▁Arc	-11.5776
▁bond	-11.5781
▁tak	-11.5782
▁kalat	-11.5785
pipigil	-11.5786
lihis	-11.5787
▁labia	-11.579
ovich	-11.5796
▁Research	-11.5796
▁Terminal	-11.5796
▁hudikatura	-11.5796
▁kanayunan	-11.5796
▁magnanakaw	-11.5796
▁pukyutan	-11.5796
▁minimum	-11.5796
▁mangahulugan	-11.5797
▁pampanguluhan	-11.5797
mudmod	-11.5797
▁pangangati	-11.5798
▁square	-11.5798
▁pamumu	-11.5798
▁saging	-11.58
isan	-11.58
▁lohikal	-11.58
▁pambasa	-11.5801
▁altar	-11.5801
▁dingding	-11.5802
▁Dinastiya	-11.5803
aglia	-11.5806
gun	-11.5806
▁kasali	-11.5806
▁link	-11.5808
▁Apo	-11.581
▁72	-11.5811
▁hand	-11.5811
kasalan	-11.5812
daragdag	-11.5816
▁SA	-11.5817
▁Pista	-11.5819
▁bacteria	-11.5822
▁nominal	-11.5823
▁Irene	-11.5823
▁wasakin	-11.5824
▁Polish	-11.5824
▁inihahain	-11.5825
▁mangmang	-11.5825
inabukasan	-11.5825
▁Up	-11.5826
orno	-11.5826
▁1897	-11.5826
▁ipin	-11.5827
▁deposito	-11.583
▁Turing	-11.5831
▁Ty	-11.5832
▁Kitt	-11.5836
▁han	-11.5838
ligiran	-11.5839
BA	-11.5839
fr	-11.5839
▁pangngalan	-11.584
▁Wang	-11.5841
▁Malus	-11.5844
▁sha	-11.5845
▁Hiligaynon	-11.585
▁Kretaseyoso	-11.585
▁Panlulumo	-11.585
▁kontrolin	-11.585
▁Athena	-11.585
▁maaasahan	-11.5851
▁diyus	-11.5852
▁maselan	-11.5853
▁Nakaka	-11.5853
▁1908	-11.5854
▁ten	-11.5856
galing	-11.5857
▁Bakal	-11.5859
▁nakikipagtalik	-11.5859
kitaan	-11.5865
nonood	-11.5865
▁paghaha	-11.5865
pares	-11.5867
hahanap	-11.5873
hes	-11.5875
▁Not	-11.5876
aria	-11.5876
▁200,000	-11.5877
▁lm	-11.5877
▁Katedral	-11.5877
▁nagmamay	-11.5877
▁kamelyo	-11.5877
▁regla	-11.5878
▁ideyal	-11.5879
▁tagapagtanggol	-11.5882
▁Alice	-11.5882
▁paghahandog	-11.5887
ipapasa	-11.5892
▁pagbalik	-11.5893
▁dragon	-11.5893
▁iligtas	-11.5894
▁nakasaad	-11.5895
▁Qu	-11.5897
▁Adam	-11.5899
▁Aristoteles	-11.5905
▁Kristyanismo	-11.5905
▁mawawala	-11.5905
akalipas	-11.5906
▁Marsh	-11.5906
LA	-11.5909
▁mapagmamasda	-11.5909
▁facto	-11.5915
▁neo	-11.5918
▁Pinakama	-11.5919
▁tangkay	-11.5919
42	-11.592
lalaki	-11.592
hua	-11.592
▁nagtrabaho	-11.5927
akma	-11.5928
▁kampeon	-11.5931
▁tumitingin	-11.5932
▁quo	-11.5932
▁paninigarilyo	-11.5932
▁talampas	-11.5932
▁naipakita	-11.5933
▁sinasamba	-11.5934
▁Ehrmann	-11.5934
▁sumasang	-11.5937
▁Major	-11.5937
▁pagkakalantad	-11.5938
▁paglulunsad	-11.5939
Orb	-11.594
▁libing	-11.5942
set	-11.5943
▁th	-11.5952
balangkas	-11.5952
▁trade	-11.5953
engo	-11.5954
▁Hans	-11.5959
▁elektrisidad	-11.5959
▁henitalya	-11.5959
▁nasisiyahan	-11.5959
▁winasak	-11.5959
▁Planck	-11.5959
▁nobelista	-11.5959
▁tagapamagitan	-11.596
▁sanaysay	-11.596
▁aalinlangan	-11.596
▁gayunman	-11.5961
▁tingga	-11.5961
▁Bosco	-11.5961
▁taka	-11.5962
▁patente	-11.5963
▁peri	-11.5964
muni	-11.5965
saliksik	-11.5966
▁head	-11.5971
▁euro	-11.5973
▁isports	-11.5974
▁Hei	-11.5975
▁Ting	-11.5978
▁nagpapatunay	-11.5979
▁model	-11.5983
rarating	-11.5984
▁nasugatan	-11.5986
▁pabahay	-11.5987
▁PNR	-11.5987
▁kalayuan	-11.5988
ach	-11.5988
bibilang	-11.5994
mark	-11.5994
▁basta	-11.5995
▁gutom	-11.5995
▁bugso	-11.5997
▁94	-11.6001
iyo	-11.6002
▁Rama	-11.6003
sagawa	-11.6004
ES	-11.6005
kab	-11.6006
▁nakatali	-11.6009
▁she	-11.6009
▁Grande	-11.6013
▁Apokripa	-11.6014
▁prepektura	-11.6014
▁nakararami	-11.6014
▁sikmura	-11.6014
▁midyum	-11.6014
▁kumpetisyon	-11.6014
▁Ahura	-11.6014
▁literatura	-11.6015
▁Us	-11.6016
kalapit	-11.6017
siklab	-11.602
▁Aires	-11.6022
▁Ray	-11.6023
▁pangnegosyo	-11.6026
bert	-11.6026
gbitiw	-11.6026
istic	-11.6027
iola	-11.6027
dad	-11.6027
bibili	-11.6034
patunay	-11.6034
agaganap	-11.6037
▁Vic	-11.6037
▁pagsuko	-11.6038
angarap	-11.6039
▁Habsburgo	-11.6042
▁identidad	-11.6042
▁Heart	-11.6042
▁Rajah	-11.6043
cause	-11.6044
▁panlasa	-11.6044
▁Itinayo	-11.6044
tanggap	-11.6044
▁Golden	-11.6045
▁gin	-11.605
▁indi	-11.6053
tanda	-11.6053
▁simulain	-11.6056
▁Ati	-11.6057
tisismo	-11.6057
▁0.3	-11.6058
▁Biyetnames	-11.6061
iyon	-11.6063
62	-11.6064
▁Comp	-11.6065
▁paniwala	-11.6068
▁artipakto	-11.6069
▁district	-11.6069
▁variable	-11.6069
▁Rodriguez	-11.6069
▁Women	-11.607
▁hinahanap	-11.607
▁vol	-11.6071
▁maipakita	-11.6071
▁pum	-11.6072
▁Str	-11.6072
▁3000	-11.6072
pay	-11.6079
ramdaman	-11.608
▁Kor	-11.6082
▁makakapag	-11.6082
▁fire	-11.6085
nasyon	-11.6087
▁bahala	-11.6088
▁tuklas	-11.6088
▁Jacque	-11.6091
antok	-11.6092
ghanda	-11.6095
▁deribatibo	-11.6097
▁siksik	-11.6099
babanggit	-11.6102
▁1911	-11.6102
paalis	-11.6104
▁Sirmi	-11.6106
takpan	-11.6106
▁namin	-11.6106
top	-11.6109
▁92	-11.6118
▁Aramaiko	-11.6125
▁Harvard	-11.6125
▁Osmena	-11.6125
▁ungguwento	-11.6125
▁espada	-11.6125
▁hinahawakan	-11.6125
▁Ginoo	-11.6125
▁Op	-11.6125
▁pagkapanalo	-11.6126
▁Herakl	-11.6126
▁Kiev	-11.6126
itago	-11.6126
▁Scott	-11.6126
▁fiber	-11.6127
▁lampas	-11.6128
▁1521	-11.6129
▁pangkalawakan	-11.613
▁lehislatibo	-11.6131
▁Guam	-11.6134
saki	-11.6135
▁Basilan	-11.6139
▁Sinai	-11.6142
▁mataba	-11.6144
▁Lang	-11.6145
▁tinata	-11.6148
▁Nino	-11.6151
▁maalam	-11.6152
▁Pentateuch	-11.6152
▁ampibyan	-11.6152
▁instruksiyon	-11.6152
▁kongkreto	-11.6152
▁episode	-11.6152
▁studio	-11.6152
▁Ikalima	-11.6152
▁Fall	-11.6156
▁Walter	-11.6156
▁port	-11.6156
▁Nilalarawan	-11.6158
▁masigasig	-11.616
▁net	-11.6164
ungan	-11.6165
▁dinagdagan	-11.6167
ngibabaw	-11.617
▁170	-11.6178
gkaloob	-11.6179
▁Maurice	-11.618
▁Korona	-11.618
▁Januar	-11.6181
▁napakahalaga	-11.6181
▁pagpapatayo	-11.6181
▁Earth	-11.6181
▁ekolohiya	-11.6181
▁1871	-11.6182
acion	-11.6182
▁alpha	-11.6182
▁harmoniya	-11.6183
mah	-11.6183
▁alala	-11.6188
elli	-11.6189
▁muta	-11.6189
▁Huang	-11.6195
pagbigay	-11.6197
▁Bueno	-11.6197
ons	-11.6197
▁Vares	-11.6197
rato	-11.62
▁Kir	-11.6202
▁Lie	-11.6203
▁Commission	-11.6204
▁paghawak	-11.6206
7,000	-11.6208
▁pasimula	-11.6208
▁Vladimir	-11.6208
▁Valtellin	-11.6208
▁intelihensiya	-11.6209
▁mananalita	-11.6209
▁kaanib	-11.6209
gagawa	-11.6209
▁minor	-11.6209
tulad	-11.6212
▁mal	-11.6212
▁nagsasa	-11.6214
▁kas	-11.6217
▁Aklan	-11.6217
bagal	-11.622
hab	-11.6224
▁rasyo	-11.6225
▁bini	-11.6231
▁Pr	-11.6234
▁Basilica	-11.6235
industriyalisado	-11.6235
lahat	-11.6235
▁Dharma	-11.6237
▁Giorgio	-11.6237
▁Lithuania	-11.6237
▁Patakaran	-11.6237
▁kweba	-11.6237
▁kasawian	-11.6237
▁radiasyon	-11.6237
▁Maagang	-11.6238
▁tanga	-11.6238
▁Radyo	-11.6239
▁Chang	-11.6239
▁End	-11.624
▁tatawagin	-11.624
▁susund	-11.6241
▁Gumaw	-11.6243
▁Ciro	-11.6248
▁pagpupu	-11.625
ST	-11.6251
▁nagsusuot	-11.6251
▁culture	-11.6254
▁world	-11.6255
▁Ipinahaya	-11.6258
▁being	-11.6258
▁komputasyon	-11.626
susunog	-11.6261
ktibo	-11.6262
▁Zhu	-11.6262
▁print	-11.6262
lian	-11.6262
oidea	-11.6264
ques	-11.6264
▁manipestasyon	-11.6265
▁pattern	-11.6265
▁Pandacan	-11.6265
esa	-11.6265
▁Chalcedoniano	-11.6265
▁England	-11.6265
▁pinapakahulugan	-11.6267
▁pagtiti	-11.6267
dukto	-11.6269
▁hepe	-11.6269
▁Mono	-11.627
▁Press	-11.627
▁Oman	-11.6271
pabago	-11.6272
▁Phil	-11.6274
▁Henri	-11.6275
▁mini	-11.6276
▁ayusin	-11.6277
NA	-11.6277
eso	-11.6281
ipiko	-11.6282
bet	-11.6283
▁Mazda	-11.6284
▁Our	-11.6284
▁sarsa	-11.6287
▁alalahanin	-11.6293
▁hinulaan	-11.6293
▁hydrogen	-11.6293
▁Fidel	-11.6293
▁nakatutul	-11.6295
▁Panlabas	-11.6295
▁kulog	-11.6296
▁paggagamot	-11.6298
▁pagkakaayos	-11.63
daos	-11.63
▁Satanas	-11.6301
enta	-11.6302
▁yo	-11.6305
wika	-11.6307
▁iron	-11.6308
▁tapa	-11.6308
▁ginug	-11.631
▁their	-11.6311
▁uka	-11.6313
▁Kam	-11.6315
lly	-11.6315
▁malalapit	-11.6315
▁Sum	-11.6316
mukha	-11.6317
masa	-11.6319
▁Suprema	-11.6321
▁aayuno	-11.6321
▁domestiko	-11.6321
▁glukosa	-11.6321
▁biblikal	-11.6321
▁Nilarawan	-11.6323
tali	-11.6323
late	-11.6326
▁nakatalaga	-11.6328
▁mm	-11.6328
▁Alfred	-11.6328
54	-11.6329
▁optimisasyon	-11.6331
▁Dur	-11.6331
tangi	-11.6331
▁pahiwatig	-11.6336
▁Region	-11.6341
kiusap	-11.6341
▁Pinangalanan	-11.6341
▁Jane	-11.6342
patakbo	-11.6344
buwal	-11.6344
▁ballet	-11.6349
▁patalastas	-11.635
zar	-11.635
▁Shanghai	-11.635
▁Nicomedia	-11.635
▁pampaaralan	-11.635
▁hinanap	-11.635
▁tangke	-11.635
▁baitang	-11.6353
▁kapaki	-11.6353
ett	-11.6365
▁pasalita	-11.6365
▁manatiling	-11.6366
▁simulan	-11.6367
▁kariton	-11.637
▁taun	-11.6371
asim	-11.6374
▁kh	-11.6376
psiyon	-11.6378
▁Theravada	-11.6378
▁inaakala	-11.6378
▁panggatong	-11.6378
▁ganiyan	-11.6379
▁iniibig	-11.6379
▁Aphrodite	-11.6379
▁kinita	-11.638
▁kasiglahan	-11.638
frac	-11.6383
ix	-11.6383
▁nagpakasal	-11.6388
uda	-11.6389
▁aling	-11.6391
▁Campania	-11.6391
▁taguri	-11.6392
▁dilim	-11.6396
iligtas	-11.6396
▁naririnig	-11.6397
▁98	-11.6398
▁Libi	-11.6398
▁panayam	-11.6399
gsasalaysay	-11.6401
▁Konstitusyon	-11.6402
▁Bos	-11.6402
ory	-11.6403
▁makakain	-11.6405
▁balo	-11.6406
▁Kapistahan	-11.6407
▁kasaganaan	-11.6407
▁respektibo	-11.6407
▁pepper	-11.6407
▁bawasan	-11.6408
▁pagdadalaga	-11.6411
▁Terr	-11.6412
apatid	-11.6415
▁Mani	-11.6417
rak	-11.6421
▁patak	-11.6426
▁paghipo	-11.6428
▁isin	-11.6432
rica	-11.6435
▁Gram	-11.6435
▁depekto	-11.6435
▁magnetic	-11.6436
▁binuwag	-11.6436
▁hilig	-11.6437
cre	-11.6438
sakay	-11.6447
sino	-11.6449
▁metapisika	-11.6454
oyd	-11.6454
▁tort	-11.6459
▁batis	-11.6462
▁Mahistrado	-11.6464
▁Ugnayan	-11.6464
▁pinaniwalaan	-11.6464
▁natutunghayan	-11.6464
▁Macau	-11.6467
▁Lunes	-11.6468
ule	-11.6469
▁1890	-11.6469
gdudugtong	-11.6471
painam	-11.6473
▁sus	-11.6475
dhra	-11.6477
▁350	-11.6478
▁moth	-11.648
▁Bat	-11.6482
▁into	-11.6484
▁magbalik	-11.6486
ora	-11.6488
▁pigi	-11.6488
bilang	-11.6492
▁Shirakawa	-11.6493
▁Westminster	-11.6493
▁language	-11.6493
▁prominente	-11.6493
▁supply	-11.6493
▁kinopya	-11.6493
▁would	-11.6493
▁Simbolo	-11.6493
▁numerikal	-11.6493
pad	-11.6494
kamay	-11.6497
glaon	-11.6499
shu	-11.6499
▁magpatuloy	-11.6502
▁aayos	-11.6502
▁ihayag	-11.6503
▁mapili	-11.6505
▁Andrew	-11.6508
▁harapin	-11.6508
▁1.6	-11.6515
▁pinta	-11.6517
▁Kas	-11.652
▁Sanjo	-11.6521
▁karayom	-11.6522
▁nakasaksi	-11.6522
▁subdibisyon	-11.6522
▁Jorge	-11.6522
▁pinanghahawakan	-11.6522
▁polusyon	-11.6522
▁bot	-11.6523
war	-11.6531
▁bl	-11.6534
atan	-11.6535
▁sahig	-11.6535
sambit	-11.6536
▁pagsunog	-11.654
▁Queen	-11.6544
▁pagsasara	-11.6544
▁Sala	-11.655
▁Statistic	-11.6551
▁diskreto	-11.6551
▁nucleotide	-11.6551
▁Eurasya	-11.6551
▁Galileo	-11.6551
▁Romulus	-11.6551
▁panunumpa	-11.6552
▁Katotohanan	-11.6552
▁editor	-11.6553
▁There	-11.6554
▁bug	-11.6554
▁talo	-11.6557
▁1850	-11.6557
zawa	-11.6559
▁mantika	-11.6559
▁pagsisi	-11.6566
▁Wika	-11.6566
PA	-11.6568
▁Sex	-11.6574
▁Bl	-11.6578
▁Bei	-11.6579
▁Festival	-11.658
▁panghalip	-11.658
ulungan	-11.658
▁Mitolohiya	-11.6581
▁buuin	-11.6581
tadhana	-11.6581
lunga	-11.6582
▁disk	-11.6583
AT	-11.6583
▁tumututol	-11.6583
▁Sicilia	-11.6583
▁1926	-11.6585
▁sister	-11.6586
padala	-11.6587
▁likhain	-11.6589
▁Zheng	-11.6589
uwa	-11.6592
oka	-11.6597
▁panay	-11.66
▁lay	-11.6603
▁Columbia	-11.6604
▁Sexual	-11.6605
▁Gaul	-11.6606
▁kahang	-11.6608
▁pagbabaybay	-11.6609
▁utilidad	-11.6609
▁Lenin	-11.661
▁1863	-11.6611
sero	-11.6613
lilok	-11.6613
▁Slav	-11.6613
▁Campo	-11.6614
▁Benedict	-11.6617
▁Set	-11.6618
aire	-11.6618
tai	-11.6622
▁Eat	-11.6623
▁bula	-11.6627
▁Banda	-11.6632
▁Cam	-11.6634
▁Akkad	-11.6638
▁part	-11.6638
▁Observatory	-11.6638
▁salamangkero	-11.6638
▁tarangkahan	-11.6638
▁pinangasiwa	-11.6638
▁nakikinig	-11.6638
▁lumaka	-11.6638
▁heograpiko	-11.6639
▁kun	-11.6641
▁pangku	-11.6641
▁Pop	-11.6642
▁Sumatra	-11.6642
tira	-11.6642
PP	-11.6645
▁selular	-11.6648
▁baliw	-11.6654
▁Esp	-11.6655
▁lulan	-11.6658
▁kasabayan	-11.6659
▁1898.	-11.6662
hangad	-11.6663
wad	-11.6667
▁Bacchae	-11.6668
▁Momozono	-11.6668
▁kuneho	-11.6668
▁migrante	-11.6668
▁pahilaga	-11.6668
▁ginagamot	-11.6668
▁Limang	-11.6668
▁kambing	-11.6668
▁Wilson	-11.6668
▁umibig	-11.6669
▁tree	-11.6669
333	-11.6673
▁1912	-11.6673
▁Augusto	-11.6674
▁list	-11.6676
▁Troyano	-11.668
▁paninirahan	-11.668
▁Gina	-11.6681
▁sesyon	-11.6682
▁pangwika	-11.6692
laglag	-11.6695
ulu	-11.6696
▁Tagapagpaganap	-11.6697
▁irigasyon	-11.6697
▁kidlat	-11.6697
▁oxygen	-11.6697
▁Koptiko	-11.6697
▁lumikas	-11.6698
inusig	-11.6699
uzaku	-11.6699
lalabas	-11.67
▁Teodoro	-11.67
▁Edda	-11.67
▁muni	-11.6701
▁matuto	-11.6702
▁angkak	-11.6703
▁Samoa	-11.6707
▁paglalakad	-11.671
▁dimensiyonal	-11.671
▁strando	-11.671
▁bise	-11.6712
unal	-11.6712
wel	-11.6715
▁arm	-11.6715
▁Lam	-11.6715
cen	-11.6716
▁79	-11.672
▁pakay	-11.6721
▁teknik	-11.6722
▁Musika	-11.6724
himok	-11.6725
▁diplomasya	-11.6726
▁Journal	-11.6727
▁Tiberius	-11.6727
▁diyagnosis	-11.6727
▁pagbabakuna	-11.6727
▁panggulugod	-11.6727
▁satelayt	-11.6727
▁sekundarya	-11.6727
▁kapitbahay	-11.6727
▁palikpik	-11.6727
▁tropical	-11.6727
▁view	-11.6728
▁pain	-11.6729
▁iminumungkahi	-11.673
yeon	-11.6734
hali	-11.6736
iscus	-11.6736
▁Eli	-11.6743
▁Casale	-11.6744
▁Republikano	-11.6746
▁Year	-11.6747
▁art	-11.6749
▁Gregoriano	-11.6751
▁BioCode	-11.6756
▁elepante	-11.6756
▁biyenan	-11.6756
▁April	-11.6756
▁ginhawa	-11.6756
▁Ortigas	-11.6757
▁bubuyog	-11.6757
▁Old	-11.6757
▁Mega	-11.6758
▁Bagyo	-11.6758
▁prehistorya	-11.6758
▁krusada	-11.6758
▁prosa	-11.676
▁pantalan	-11.6763
▁pagdadalangtao	-11.6764
▁pagtungo	-11.6765
sipi	-11.6766
bla	-11.6771
▁daya	-11.6771
iyano	-11.6777
▁log	-11.6781
▁Knowles	-11.6786
▁kagutuman	-11.6786
▁tekstuwal	-11.6786
▁buwaya	-11.6786
▁Murakami	-11.6786
▁Griego	-11.6786
nlungan	-11.6787
▁pinatalsik	-11.6787
hiwatig	-11.6788
▁pautang	-11.679
▁scan	-11.6792
dding	-11.6792
▁nilagyan	-11.6794
gnasco	-11.6794
▁napinsala	-11.6797
pirma	-11.6798
grapo	-11.6802
▁sine	-11.6802
▁Kai	-11.6802
▁act	-11.6806
tangka	-11.6806
▁pagtatanim	-11.6807
▁78	-11.6808
tulong	-11.6809
▁Rub	-11.6809
siyo	-11.6809
tanto	-11.6811
▁Nakatuo	-11.6811
▁380	-11.6813
▁namumuo	-11.6814
▁estimulo	-11.6816
▁rasyonal	-11.6817
▁pagbati	-11.6817
▁tagahanga	-11.6817
▁track	-11.6818
▁katihan	-11.6819
,200	-11.6819
▁sperm	-11.6819
▁ipinagpatuloy	-11.6821
mol	-11.6822
▁Lamb	-11.6822
dulo	-11.6823
sak	-11.6823
▁panana	-11.6825
▁mangga	-11.6825
hai	-11.6826
▁pagtatae	-11.6828
east	-11.6829
▁Laura	-11.6829
▁ipatupad	-11.683
▁pagk	-11.6831
▁pagtangkilik	-11.6833
▁Gali	-11.6833
▁off	-11.6835
▁panini	-11.6838
▁natakot	-11.6839
awit	-11.6841
▁Tomo	-11.6842
▁Iskariote	-11.6845
▁Jonathan	-11.6845
▁Salambao	-11.6845
▁akademya	-11.6845
▁malutas	-11.6845
▁Castilla	-11.6845
▁matutukoy	-11.6846
▁rekonstruksiyon	-11.6846
▁kaparian	-11.6846
▁Pierre	-11.6846
hadlang	-11.6847
▁Carmen	-11.6847
linaw	-11.6848
▁pangmatematika	-11.6849
▁Just	-11.6849
gkakaloob	-11.6849
alangkas	-11.6852
▁isinasama	-11.6852
ws	-11.6852
▁sukatin	-11.6852
nese	-11.6853
▁Mid	-11.6854
▁teritoryal	-11.6856
▁hipo	-11.6861
▁pigurang	-11.6861
meter	-11.6863
▁radio	-11.6864
kasuot	-11.6865
alay	-11.6865
yoso	-11.6869
▁Lan	-11.687
▁124	-11.6871
tauhan	-11.6872
▁force	-11.6872
meme	-11.6872
▁lingkod	-11.6873
▁Google	-11.6875
▁indbidwal	-11.6875
▁kahihinatnan	-11.6875
▁lebadura	-11.6875
▁unibersal	-11.6875
▁panliligaw	-11.6876
▁Puwersa	-11.6876
▁panlunas	-11.6876
▁self	-11.6878
Cl	-11.6879
▁pangangaso	-11.6879
▁pul	-11.6886
▁nagbu	-11.6887
▁Kama	-11.6889
▁1990.	-11.689
ful	-11.6893
▁nalalamang	-11.6897
abang	-11.69
ative	-11.6903
▁bulak	-11.6904
▁Surian	-11.6904
▁Tel	-11.6905
▁Bacolod	-11.6905
▁Sakuramachi	-11.6905
▁speciation	-11.6905
▁kuponan	-11.6905
▁komplikasyon	-11.6906
▁pagbibinata	-11.6906
▁taniman	-11.6906
▁Ventura	-11.6906
▁Flight	-11.6906
▁ateista	-11.6908
▁Home	-11.6909
pira	-11.691
▁Himalaya	-11.691
▁pagsali	-11.6919
▁dalubhasaan	-11.692
▁SH	-11.6922
▁OS	-11.6925
mma	-11.6925
▁sira	-11.6925
▁pagpaslang	-11.6927
nonisa	-11.6927
▁pagkit	-11.6927
bese	-11.6927
▁Committee	-11.6935
▁impanteriya	-11.6935
▁manunugtog	-11.6935
▁pagdedentista	-11.6935
▁domain	-11.6936
▁wiki	-11.6937
▁iginagalang	-11.6937
titik	-11.6937
▁kataka	-11.6937
▁matalino	-11.6938
▁inakusahan	-11.6938
▁Basko	-11.6939
uz	-11.6942
▁2019	-11.6943
▁uulat	-11.6943
tica	-11.6944
▁aanak	-11.6945
mic	-11.6948
▁dalawin	-11.6951
▁class	-11.6953
▁klinika	-11.6956
▁ball	-11.6956
▁2000.	-11.6956
▁murang	-11.6961
▁83	-11.6961
▁abnormal	-11.6965
▁Wil	-11.6965
▁apokripa	-11.6966
▁nagkrusada	-11.6966
▁Permian	-11.6966
▁Paleolitiko	-11.6966
▁Balagtas	-11.6966
▁inhenyeriya	-11.6966
www	-11.6966
▁Vicente	-11.6966
▁Ichijo	-11.6966
▁sinusunod	-11.6966
▁Wal	-11.6966
▁libra	-11.6967
▁nagkasala	-11.6967
tori	-11.697
tutunaw	-11.6972
▁Amen	-11.6972
▁sinusu	-11.6978
iwa	-11.6979
▁binyag	-11.698
▁dios	-11.6981
▁Kana	-11.6983
pik	-11.6988
gpapasalamat	-11.6991
vic	-11.6994
▁pagtama	-11.6994
nat	-11.6996
▁Parlamento	-11.6996
▁Texas	-11.6996
▁Wiktionary	-11.6996
▁kagalakan	-11.6996
▁pangmadla	-11.6996
▁magaspang	-11.6996
▁integrasyon	-11.6996
▁imbak	-11.6996
▁Pisika	-11.6997
▁1492	-11.6999
▁boson	-11.6999
▁atleta	-11.7001
▁tanaw	-11.701
▁seo	-11.7011
▁dugtong	-11.7014
cano	-11.7016
umagot	-11.7018
▁live	-11.7019
umbong	-11.7019
▁Uzz	-11.702
▁mapapa	-11.702
habi	-11.7021
tao	-11.7022
▁Valencia	-11.7022
▁unawain	-11.7026
▁Kabisera	-11.7026
▁Nederlands	-11.7026
▁Shakespeare	-11.7026
▁heograpikal	-11.7026
▁impektado	-11.7026
▁isotopo	-11.7026
▁pambungad	-11.7026
▁movement	-11.7026
▁Kabataan	-11.7026
▁lambak	-11.7028
▁1860	-11.703
AN	-11.703
▁umuuko	-11.703
▁1928	-11.7031
▁Mis	-11.7032
ghintay	-11.7034
▁Calle	-11.7035
▁pagpapahirap	-11.7035
ndra	-11.7037
▁tsansa	-11.7037
▁nakasanayan	-11.7038
▁Brit	-11.7038
alamin	-11.704
boy	-11.7041
rib	-11.7041
▁Game	-11.7043
AS	-11.7046
▁nakiki	-11.7046
▁pulitika	-11.7047
▁homopobi	-11.7052
tugma	-11.7054
▁Rodrigo	-11.7057
▁UNESCO	-11.7057
▁kahihiyan	-11.7057
▁Dream	-11.7057
▁mangkok	-11.7057
▁palayain	-11.7057
sapa	-11.7057
▁Capiz	-11.7057
▁maiiwasan	-11.7057
▁magkaibigan	-11.7057
▁baguhan	-11.7058
▁hosto	-11.706
▁hinog	-11.706
etsu	-11.7061
▁Win	-11.7066
▁tayong	-11.7067
▁pagkatakot	-11.7069
salo	-11.7069
▁Wiki	-11.7071
▁limb	-11.7073
hong	-11.7073
▁makini	-11.7074
via	-11.7074
cate	-11.7081
▁hormona	-11.7082
▁Mesopotamya	-11.7087
▁Movement	-11.7087
▁Zoroaster	-11.7087
lambing	-11.7088
▁lumalawak	-11.7088
▁kaswal	-11.7088
▁Panay	-11.7088
▁hinarap	-11.7089
▁Malayo	-11.709
▁Brun	-11.7094
▁palaka	-11.7094
▁nakahanda	-11.7095
▁Hui	-11.7096
▁binu	-11.7097
lakad	-11.7097
undo	-11.7102
▁dumarating	-11.7105
▁ibinaba	-11.7105
rb	-11.7111
▁nilarawan	-11.7115
▁kongreso	-11.7118
▁politeistiko	-11.7118
▁Siriliko	-11.7118
▁extinct	-11.7118
▁Asiria	-11.7118
▁ginintuan	-11.7119
▁nukleyus	-11.712
▁1844	-11.712
▁Columbus	-11.712
▁Ayala	-11.7121
▁pagdarasal	-11.7123
gkakaiba	-11.7123
gging	-11.7124
▁Kol	-11.7125
▁Asher	-11.7126
▁Him	-11.7126
▁taya	-11.7127
▁Shen	-11.7128
▁Aba	-11.7129
▁Bir	-11.7129
▁Basin	-11.7129
papagalaw	-11.7131
▁Dum	-11.7131
balitaan	-11.7134
▁kinalaunan	-11.7136
lagpas	-11.7136
▁tuwa	-11.7144
▁account	-11.7144
▁tuluy	-11.7146
▁2014.	-11.7146
▁ASEAN	-11.7149
▁Nightingale	-11.7149
▁bampira	-11.7149
▁luklukan	-11.7149
▁phenomena	-11.7149
▁masusukat	-11.7149
▁latitud	-11.7149
▁Synod	-11.7149
▁nakilahok	-11.7149
ghahanda	-11.715
▁Paz	-11.715
▁Pareho	-11.7151
▁apdo	-11.7153
▁humira	-11.7153
▁tsa	-11.7154
▁nagtatanghal	-11.7156
▁panalo	-11.7156
▁sumakay	-11.7157
inger	-11.7157
mara	-11.7157
▁kumaka	-11.716
ibigay	-11.7161
▁sangha	-11.7168
uff	-11.7168
misyon	-11.7169
▁pagbaha	-11.7173
▁puntod	-11.7175
▁usok	-11.7175
▁mangil	-11.7176
outhern	-11.7176
ibu	-11.7178
▁Camellia	-11.718
▁Karunungan	-11.718
▁blood	-11.718
▁Pinili	-11.718
▁shell	-11.718
▁esp	-11.7185
ulin	-11.7185
▁Syriac	-11.7187
▁Luci	-11.7189
sente	-11.7189
▁Corp	-11.719
▁mahawa	-11.7193
▁Torin	-11.7195
▁hit	-11.7195
DI	-11.7197
▁nilusob	-11.7197
▁binuha	-11.7198
▁Tor	-11.7198
var	-11.7199
lah	-11.72
rrow	-11.7201
pakita	-11.7201
tun	-11.7203
▁demand	-11.7208
▁Cavaller	-11.7211
▁Department	-11.7211
▁alpabetiko	-11.7211
▁kilogramo	-11.7211
▁pagpupunyagi	-11.7211
▁tinitirhan	-11.7211
▁kabayanan	-11.7211
▁Pozzol	-11.7211
▁series	-11.7212
▁Robinson	-11.7212
hima	-11.7212
▁kuwitis	-11.7212
▁isinusuot	-11.7213
▁1884	-11.7214
papatalsik	-11.7217
tran	-11.7218
▁napanatili	-11.7219
dera	-11.7222
▁Ursu	-11.7223
▁diyosesis	-11.7223
▁malungkot	-11.7224
hia	-11.7224
▁mailalarawan	-11.7225
very	-11.7226
▁tumawa	-11.7227
▁natatanggap	-11.7227
▁puntirya	-11.7227
▁Pari	-11.7228
▁kompleto	-11.7229
peak	-11.7229
pawi	-11.7229
▁Tagapag	-11.7231
pati	-11.7232
▁Mut	-11.7233
sasakop	-11.7237
▁pagdalaw	-11.724
ungin	-11.7242
▁Douglas	-11.7242
▁kreasyonismo	-11.7242
▁kuweba	-11.7242
▁diktador	-11.7242
▁kai	-11.7244
▁Lequi	-11.7245
▁hukay	-11.7246
angyayari	-11.7248
kli	-11.7249
▁Ceva	-11.7251
▁Paleo	-11.7257
▁Eden	-11.7262
kahilig	-11.7265
▁Sao	-11.7265
▁Mill	-11.7265
▁tagapagpa	-11.7268
▁sigla	-11.7269
▁Hemispero	-11.7273
▁Kabihasnan	-11.7273
▁belosidad	-11.7273
▁mambabatas	-11.7273
▁Bhutan	-11.7273
▁taglagas	-11.7273
▁Battle	-11.7273
▁Greece	-11.7273
▁maninila	-11.7273
▁tagiliran	-11.7273
▁Inglaterra	-11.7273
▁1.2	-11.7274
allo	-11.7274
▁Nestor	-11.7275
▁sumasamba	-11.7275
▁mabababa	-11.728
▁mahinahon	-11.7281
▁Gua	-11.7282
hood	-11.7283
▁Bian	-11.7286
ists	-11.7288
▁Malacanang	-11.7288
hawakan	-11.7288
▁bote	-11.7294
▁plate	-11.7296
▁alas	-11.7296
ctive	-11.7298
TS	-11.73
▁padala	-11.73
sinasaad	-11.7301
▁liturhiya	-11.7304
▁kapatiran	-11.7304
▁Louisiana	-11.7305
▁naingatan	-11.7307
▁Roddi	-11.7308
▁kolonyalismo	-11.7308
▁Villar	-11.7309
ipaliwanag	-11.7309
▁PRC	-11.7309
▁baryasyon	-11.7313
sep	-11.7314
bomba	-11.7314
▁Matsu	-11.7315
▁patnubay	-11.7315
▁Agu	-11.7316
▁space	-11.7318
ugtungan	-11.732
lalim	-11.732
▁Bes	-11.7327
nica	-11.7327
hudyat	-11.7335
▁Asiryo	-11.7336
▁Special	-11.7336
▁purgatoryo	-11.7336
▁wavelength	-11.7336
▁papalayo	-11.7336
▁kontradiksiyon	-11.7336
▁nabihag	-11.7336
▁butiki	-11.7336
▁Zhong	-11.7336
▁Politika	-11.7336
▁Antique	-11.7336
▁Egypt	-11.7337
▁Pook	-11.7338
▁99	-11.7338
@'	-11.734
▁case	-11.734
opera	-11.7341
gtitipon	-11.7341
▁Dilaw	-11.7343
▁gising	-11.7344
▁luto	-11.7347
▁niyebe	-11.7349
chen	-11.735
dasal	-11.7351
nai	-11.7353
lingkuran	-11.736
▁Web	-11.7362
▁Ford	-11.7364
▁Ignacio	-11.7367
▁channel	-11.7367
▁monoteista	-11.7367
▁pangmaramihan	-11.7367
▁STI	-11.7367
▁mikroekonomik	-11.7367
▁Josias	-11.7367
▁binabayaran	-11.7367
▁paghila	-11.7368
▁Roasc	-11.7369
▁digital	-11.7371
▁panghukuman	-11.7371
▁pagliligtas	-11.7371
▁patu	-11.7374
▁Bergamo	-11.7375
▁Kei	-11.7378
hula	-11.7379
▁Anastasi	-11.7379
▁paghahalo	-11.7381
▁makontrol	-11.7388
▁yu	-11.7392
pako	-11.7396
▁Kamakailan	-11.7399
▁Oblast	-11.7399
▁Pananalapi	-11.7399
▁machine	-11.7399
▁Laoag	-11.74
ggio	-11.74
zz	-11.7402
▁1889	-11.7402
karinig	-11.7402
▁tulog	-11.7404
▁pagkakaugnay	-11.7405
▁pawis	-11.7406
▁Ipa	-11.7408
▁82	-11.7408
▁Robin	-11.7408
ilaw	-11.7409
▁other	-11.7409
▁than	-11.741
ligaw	-11.7414
lulutas	-11.7416
▁Th	-11.7416
rez	-11.7419
▁primarya	-11.7422
▁Cabrini	-11.743
▁Ebanghelista	-11.743
▁natutunan	-11.743
▁nagmamasid	-11.743
▁pagtatagumpay	-11.7431
▁paglayo	-11.7432
▁igos	-11.7433
▁Hiro	-11.7435
hei	-11.7436
,600	-11.7439
mpu	-11.7443
▁Operasyon	-11.7446
▁Indonesian	-11.7447
▁Post	-11.7451
▁yuma	-11.7452
kom	-11.7456
▁sumubo	-11.746
PO	-11.7461
▁influen	-11.7461
▁Pangasiwaan	-11.7462
▁komentaryo	-11.7462
▁Sicily	-11.7462
▁History	-11.7462
▁stock	-11.7462
▁common	-11.7463
▁pinahintulutan	-11.7463
▁Games	-11.7466
▁1565	-11.7466
▁Ikina	-11.7467
▁Hal	-11.7467
▁Korean	-11.747
ranas	-11.747
tumbas	-11.747
▁nasawi	-11.7475
▁1995.	-11.7476
nirahan	-11.7484
▁bit	-11.7486
▁tau	-11.7488
▁our	-11.7488
ktura	-11.749
▁Bernabe	-11.7494
▁Saserdote	-11.7494
▁etnisidad	-11.7494
▁Nanatili	-11.7494
▁prediksiyon	-11.7494
▁munisipyo	-11.7494
▁Epiko	-11.7496
▁Langit	-11.7497
▁Glen	-11.7498
▁Cup	-11.7499
banal	-11.7499
▁Nagtatag	-11.75
rne	-11.7502
▁semen	-11.7503
▁pintura	-11.7503
ndro	-11.7509
▁Kun	-11.7509
▁geo	-11.751
▁ce	-11.7513
▁rehime	-11.7514
seksuwal	-11.752
▁Sahara	-11.7522
lalalim	-11.7522
▁mam	-11.7524
zer	-11.7525
▁Vizcaya	-11.7526
▁napagmamasdan	-11.7526
▁nitroheno	-11.7526
▁patutot	-11.7526
▁Pateros	-11.7526
▁makahulugan	-11.7526
▁mabibigat	-11.7526
▁teorista	-11.7526
▁Are	-11.7527
▁tagapagdala	-11.7528
▁paniki	-11.7529
▁Poly	-11.7531
▁Ah	-11.7533
▁Wen	-11.7533
sasanhi	-11.7533
▁api	-11.7533
▁bumati	-11.7536
▁Hai	-11.7543
▁Dor	-11.7544
▁Tulo	-11.7545
▁Meccan	-11.7545
apapaligiran	-11.7548
▁grabitasyon	-11.7553
▁Pig	-11.7554
▁board	-11.7556
▁Filipina	-11.7557
▁Cleopatra	-11.7558
▁Computer	-11.7558
▁Etrusko	-11.7558
▁Testament	-11.7558
▁atmospero	-11.7558
kikipagtunggali	-11.7558
▁baryabol	-11.7558
▁Howard	-11.7559
▁Maximus	-11.7559
▁nerb	-11.756
▁bakol	-11.756
▁Cr	-11.7562
▁transisyonal	-11.7562
takda	-11.7563
bakunahan	-11.7563
riyan	-11.7565
iate	-11.7565
▁gold	-11.7568
▁isinasalin	-11.7571
▁panti	-11.7575
▁tensor	-11.7575
▁etikal	-11.7576
▁sipon	-11.7578
niwala	-11.7578
▁dumada	-11.7579
ios	-11.7579
▁cm	-11.7583
kalkula	-11.7583
naryo	-11.7586
ava	-11.7587
vello	-11.7589
▁robot	-11.759
▁Austronesyo	-11.759
▁Barcelona	-11.759
▁Kinikilala	-11.759
▁eksplorasyon	-11.759
▁paliguan	-11.759
▁Kazakhstan	-11.759
▁Anglikano	-11.759
▁Manchester	-11.759
▁Lacson	-11.7591
▁panlungsod	-11.7591
▁Chief	-11.7591
▁1909	-11.7594
nde	-11.7598
himagsik	-11.7604
▁pagpipigil	-11.7604
iyasat	-11.7606
▁Lago	-11.7608
▁made	-11.761
▁sabaw	-11.7611
6.5	-11.7612
500	-11.7612
lib	-11.7614
▁Soul	-11.7619
kurso	-11.7619
SP	-11.7619
▁Heracli	-11.7622
▁Kabahayan	-11.7622
▁rabino	-11.7622
▁uretra	-11.7622
▁komandante	-11.7622
▁review	-11.7623
▁magkatumbas	-11.7623
▁globo	-11.7623
▁1997.	-11.7623
▁biologo	-11.7624
gula	-11.7626
hiko	-11.7627
▁badyet	-11.7627
ense	-11.7628
isin	-11.7629
▁Ursa	-11.7631
▁binati	-11.7632
▁Ryo	-11.7632
nanay	-11.7633
▁Ram	-11.7633
▁iibigan	-11.7634
▁Nanal	-11.7637
▁Iliada	-11.7637
iw	-11.7639
▁Stre	-11.7641
▁lead	-11.7642
▁rayon	-11.7647
▁hilera	-11.7648
▁palaso	-11.7649
▁gro	-11.7651
amuhay	-11.7653
▁Assembly	-11.7655
▁Kapampangan	-11.7655
▁Mandarin	-11.7655
▁karampatan	-11.7655
▁pabilog	-11.7655
▁kirot	-11.7655
▁Bryant	-11.7655
▁body	-11.7655
▁umaawit	-11.7655
▁Filipinas	-11.7656
▁pagdududa	-11.7656
▁Perez	-11.7656
▁naghahari	-11.7657
▁Social	-11.7658
▁budhi	-11.7658
▁naghahanapbuhay	-11.7658
▁Bai	-11.7661
kikipagkaibigan	-11.7661
arahil	-11.7662
basa	-11.7663
▁Rights	-11.7663
▁nahihirapan	-11.7664
▁Cairo	-11.7664
▁Italia	-11.7665
▁daglian	-11.7668
layan	-11.7669
▁mago	-11.7672
▁JR	-11.7673
iksik	-11.7673
glimbag	-11.7674
▁Az	-11.7674
▁yung	-11.7676
▁0.0	-11.7678
▁Quan	-11.7679
▁biyahe	-11.7683
▁opsiyon	-11.7684
▁representatibo	-11.7687
▁nakararaan	-11.7687
▁reaksyon	-11.7687
▁pagkakaloob	-11.7688
▁pinatunayan	-11.7688
▁marino	-11.7692
▁Gayun	-11.7694
yuko	-11.7694
gtas	-11.77
▁nagba	-11.7702
▁type	-11.7703
gpapatuloy	-11.7705
▁yero	-11.7706
mahin	-11.7712
▁Public	-11.7713
inis	-11.7714
▁umuus	-11.7715
▁solid	-11.7717
▁Compostela	-11.772
▁Macabeo	-11.772
▁nakapirme	-11.772
▁talahuluganan	-11.772
▁Florence	-11.772
▁yungib	-11.772
▁magsulat	-11.7721
▁300,000	-11.7724
▁trauma	-11.7724
▁romansa	-11.7725
▁mapapansin	-11.7726
▁Marte	-11.7728
▁duda	-11.7728
ruta	-11.7728
▁Josephin	-11.7729
▁pantawa	-11.7731
caro	-11.7732
▁mapula	-11.7732
pakain	-11.7736
▁sh	-11.774
tikas	-11.7741
titiyak	-11.7742
▁sho	-11.7743
▁apog	-11.7744
▁Main	-11.7746
▁je	-11.7748
▁Minos	-11.7749
▁Islamic	-11.775
▁Chicago	-11.7752
▁Siddhartha	-11.7752
▁adhikain	-11.7752
▁pangdamdamin	-11.7752
▁Yozei	-11.7752
▁kinumpirma	-11.7752
▁bantayog	-11.7753
▁tadyang	-11.7754
▁Maximian	-11.7757
▁Crimea	-11.7758
44	-11.7759
▁pagpapalaganap	-11.776
▁kiki	-11.7761
bihis	-11.7764
▁masini	-11.7765
▁musikal	-11.7765
eppe	-11.7766
▁Valeri	-11.7767
▁Bas	-11.7769
likom	-11.7773
ilalarawan	-11.7779
agkakaroon	-11.778
▁kababaan	-11.7784
▁Brother	-11.7785
▁NAIA	-11.7785
▁eklipse	-11.7785
▁hinawakan	-11.7785
▁liwayway	-11.7785
▁pananalangin	-11.7785
▁prinsesa	-11.7785
▁Bukidnon	-11.7785
▁pakikiisa	-11.7786
▁Puro	-11.7787
▁Bulaga	-11.7788
▁sugal	-11.7789
▁papayag	-11.7792
▁pagguhit	-11.7793
▁Zhi	-11.7793
rusahan	-11.7796
▁hypo	-11.7797
lent	-11.78
durog	-11.78
nterdisiplinaryo	-11.7802
▁Williams	-11.7803
kultura	-11.7804
▁Sp	-11.7812
anza	-11.7813
glathala	-11.7814
▁Stur	-11.7815
patawad	-11.7818
ith	-11.7818
▁atmospera	-11.7818
▁kumilala	-11.7818
▁subkontinente	-11.7818
▁Pandagat	-11.7818
bog	-11.7818
▁kolonisasyon	-11.7818
▁Sino	-11.7818
▁fetus	-11.7818
▁Bavaria	-11.7819
▁katuturan	-11.782
▁tinulungan	-11.7821
glarawan	-11.7825
▁makatao	-11.7825
▁liriko	-11.7826
▁Kasabay	-11.7828
▁nakalimbag	-11.783
▁piano	-11.7831
tantiya	-11.7835
itz	-11.7836
▁ere	-11.7838
▁komunyon	-11.7838
▁ipinapalaga	-11.784
▁huwad	-11.784
▁maalis	-11.7843
sten	-11.7845
▁Yama	-11.7845
papaliit	-11.7845
aampon	-11.7846
▁Ponti	-11.7847
trato	-11.7848
older	-11.785
▁Television	-11.7851
▁malnutrisyon	-11.7851
▁lampara	-11.7851
▁Ekumenikal	-11.7851
▁Creta	-11.7851
▁paghihintay	-11.7851
▁proteina	-11.7852
▁mathematic	-11.7852
▁ipakilala	-11.7853
▁itinapon	-11.7855
▁1879	-11.7856
iff	-11.7857
▁Normal	-11.7858
▁Palagi	-11.7859
▁multo	-11.7859
▁low	-11.786
strom	-11.786
▁oryentasyon	-11.786
▁maputi	-11.7861
▁Ichi	-11.7861
nap	-11.7862
▁pali	-11.7865
karga	-11.7868
▁Wei	-11.7868
yelo	-11.787
palawak	-11.7872
▁baseng	-11.7873
numbalik	-11.7876
salamin	-11.7876
▁Lag	-11.7878
▁paghula	-11.7882
▁years	-11.7882
▁Associate	-11.7884
▁Visayas	-11.7884
▁alimango	-11.7884
▁Misteryo	-11.7884
lob	-11.7885
▁isalin	-11.7886
lihan	-11.7887
▁iwanan	-11.7888
tagumpay	-11.7892
lov	-11.7895
▁paglakad	-11.7896
▁nahulog	-11.7905
ishi	-11.7906
▁Umali	-11.7907
▁don	-11.791
▁Ester	-11.7911
▁Ann	-11.7913
ianus	-11.7913
89	-11.7914
qua	-11.7916
▁Inocenci	-11.7917
▁Ospital	-11.7917
▁Quebec	-11.7917
▁tagapakinig	-11.7917
▁Cassano	-11.7917
▁Sky	-11.7917
▁control	-11.7918
▁Panloob	-11.7919
▁punla	-11.7919
▁pantukoy	-11.7921
▁nakabitin	-11.7923
▁Pamaya	-11.7923
pinagpatuloy	-11.7923
gagalaw	-11.7924
▁long	-11.7925
▁Panda	-11.7926
▁pulitikal	-11.7928
▁your	-11.7931
▁baso	-11.7931
▁Radya	-11.7932
▁binubu	-11.7932
▁motibasyon	-11.7933
ilimbag	-11.7934
▁inaalis	-11.7935
tingin	-11.7937
▁Pambatas	-11.7939
▁tinutu	-11.7939
bangan	-11.794
takbo	-11.7942
jan	-11.7942
sensiya	-11.7942
residential	-11.7942
▁par	-11.7943
▁komp	-11.7945
▁Caribbean	-11.7951
▁Kamaynilaan	-11.7951
▁circuit	-11.7951
▁natatakpan	-11.7951
▁pagawaan	-11.7951
▁bitamina	-11.7951
▁lipat	-11.7951
▁inisyal	-11.7952
▁marumi	-11.7952
been	-11.7952
nero	-11.7953
▁nagtatampo	-11.7956
papalamuti	-11.7958
▁government	-11.7959
▁Filipos	-11.7964
▁Pal	-11.7967
▁ego	-11.7968
ecca	-11.7969
about	-11.7969
▁beta	-11.7969
uvia	-11.7972
▁Gawad	-11.7976
▁Inu	-11.7977
▁sent	-11.7979
▁maghanap	-11.7981
▁Yan	-11.7984
▁Akademya	-11.7984
▁Barbarossa	-11.7984
▁instansiya	-11.7984
▁sirkunstansiya	-11.7984
▁Salome	-11.7984
▁politeismo	-11.7984
▁kalakasan	-11.7984
▁Itin	-11.7985
▁Talib	-11.7986
▁Oo	-11.7986
raga	-11.7986
▁Francois	-11.7989
▁poton	-11.799
▁Akkadian	-11.7991
yab	-11.7993
▁Paulino	-11.7994
▁Malawak	-11.7995
▁humuhul	-11.7997
ux	-11.7997
▁pangrehiyon	-11.7997
peksiyon	-11.7998
▁dadaan	-11.7998
hila	-11.8001
▁bat	-11.8002
eva	-11.8009
nato	-11.8011
unahan	-11.8014
▁lila	-11.8016
gatog	-11.8017
▁pangkalakal	-11.8017
pitan	-11.8017
▁kam	-11.8018
▁Copenhagen	-11.8018
▁Penelope	-11.8018
▁pertilidad	-11.8018
▁Sakramento	-11.8018
▁Neolitiko	-11.8018
▁nakatago	-11.8018
▁kalapati	-11.8018
sses	-11.8018
▁Julio	-11.8018
▁Batanes	-11.8018
▁pagpanaw	-11.8019
▁hanja	-11.8019
was	-11.8019
▁Paghahati	-11.8019
▁napakaliit	-11.8019
▁leap	-11.802
▁nakalagak	-11.802
lingan	-11.8022
▁espesyalidad	-11.8025
▁masiyahan	-11.8027
▁pinalabas	-11.803
▁karta	-11.8031
▁city	-11.8031
gbanggit	-11.8031
▁kamao	-11.8035
▁child	-11.8036
▁SS	-11.8037
pagbibigay	-11.8037
nagot	-11.8038
stor	-11.8038
▁Bis	-11.8039
tuwid	-11.8039
▁nakatuto	-11.8039
padama	-11.8041
▁122	-11.8042
kular	-11.8045
▁Kings	-11.8046
▁Bron	-11.8047
tani	-11.8049
▁Kazu	-11.805
rium	-11.805
▁Hubble	-11.8051
▁diksiyunaryo	-11.8051
▁inihahanda	-11.8051
▁monopolyo	-11.8051
▁Napoles	-11.8051
▁salawikain	-11.8051
▁kalalabasan	-11.8051
▁Cardinal	-11.8052
▁ipinagbibili	-11.8052
nawagan	-11.8052
▁bombero	-11.8052
▁Pinapa	-11.8052
▁pamamahayag	-11.8052
▁Democratic	-11.8053
▁love	-11.8053
▁Pamamahala	-11.8053
bagtas	-11.8054
kuran	-11.8055
suko	-11.8056
esah	-11.8057
kalalaki	-11.806
▁Sud	-11.8062
▁Por	-11.8062
▁nagtatalik	-11.8062
▁ituro	-11.8063
▁napapansin	-11.8064
▁bigo	-11.8073
▁Kanon	-11.8083
▁Renasimiyento	-11.8085
▁Shuruppak	-11.8085
▁abakada	-11.8085
▁pertilisasyon	-11.8085
▁pampananalapi	-11.8085
▁kalibugan	-11.8085
▁Thebes	-11.8085
▁ortodoksiya	-11.8085
▁sumusubok	-11.8085
▁local	-11.8086
ksa	-11.8086
▁inimbita	-11.8087
▁fever	-11.8088
▁Hades	-11.8088
▁hapag	-11.8089
▁Ly	-11.8091
epinephrine	-11.8091
atunayan	-11.8092
stone	-11.8095
ental	-11.8096
▁Kuba	-11.8097
ige	-11.8098
▁ipahayag	-11.8098
▁nakasara	-11.8099
BS	-11.81
▁Haredi	-11.81
igan	-11.8101
BC	-11.8103
▁batik	-11.8104
▁Castell	-11.8105
mbal	-11.8106
limot	-11.8109
liliit	-11.8109
000	-11.8118
▁Jakarta	-11.8119
▁prokaryote	-11.8119
▁gasolina	-11.8119
▁Middle	-11.8119
▁Atienza	-11.8119
▁suweldo	-11.8119
▁magkakaibigan	-11.8119
▁earth	-11.8119
grad	-11.812
▁Lapian	-11.812
▁pagkahumaling	-11.8121
luha	-11.8121
▁Ec	-11.8122
▁bulebar	-11.8122
▁disko	-11.8123
▁Keynesian	-11.8124
abuloy	-11.8124
▁Ginang	-11.8125
▁Grant	-11.8126
▁NBA	-11.8127
▁Nord	-11.8129
RO	-11.8131
gsuot	-11.8131
▁5,000	-11.8132
diskubre	-11.8137
▁magulo	-11.8137
▁matagalang	-11.814
▁cap	-11.8141
reb	-11.8144
▁Inang	-11.8144
▁suka	-11.8146
▁Kami	-11.8147
▁likurang	-11.8148
lipin	-11.8148
idio	-11.8151
▁Bahrain	-11.8153
▁Corneli	-11.8153
▁filter	-11.8153
▁Naples	-11.8153
▁maybahay	-11.8153
▁intsik	-11.8153
▁astronomikal	-11.8153
▁pagdirikit	-11.8153
▁supernatural	-11.8153
▁Silva	-11.8153
▁Romblon	-11.8153
▁tru	-11.8154
▁bukana	-11.8154
▁pulbos	-11.8155
▁1546	-11.8158
mak	-11.8158
▁pinuri	-11.8161
▁Juana	-11.8161
silo	-11.8164
sahan	-11.8165
▁mama	-11.8167
▁ikasampu	-11.8167
odont	-11.8168
▁program	-11.8169
sidad	-11.817
panahon	-11.8172
▁pamilyar	-11.8175
▁Nova	-11.8176
rah	-11.818
▁esta	-11.818
▁proporsyon	-11.8182
▁pangpag	-11.8183
▁Ars	-11.8183
▁character	-11.8183
▁Kabanata	-11.8187
▁Licinius	-11.8187
▁mestiso	-11.8187
sampalataya	-11.8188
▁Posible	-11.8188
stein	-11.8188
▁hydro	-11.8188
▁Ipinakita	-11.8188
▁str	-11.8189
wak	-11.8189
nsiya	-11.8189
town	-11.819
▁tenga	-11.8193
▁1700	-11.8194
▁9,	-11.8195
▁modern	-11.8195
mihan	-11.8196
▁sumapi	-11.8197
ekta	-11.8199
▁Hill	-11.8201
▁Take	-11.8202
▁pakinggan	-11.8202
▁palo	-11.8206
▁Show	-11.8208
▁makapang	-11.8211
▁Lord	-11.8212
▁pagmamahalan	-11.8217
ilunsad	-11.8218
▁kump	-11.822
gbog	-11.8221
▁NATO	-11.8221
▁fariseo	-11.8221
▁itatayo	-11.8221
▁publish	-11.8221
▁pagkukwenta	-11.8221
▁pugad	-11.8221
▁sinanhi	-11.8222
▁Dapitan	-11.8222
▁nosyon	-11.8223
halaw	-11.8229
obserba	-11.8229
▁Pinalita	-11.8234
▁2.5	-11.8234
▁Itinuri	-11.8234
▁paghalik	-11.8234
sana	-11.8236
shima	-11.8237
▁pinakakaraniwa	-11.8238
▁baro	-11.824
balot	-11.8245
tista	-11.8247
▁Marin	-11.8248
▁tax	-11.8249
▁mapagmamasdan	-11.825
▁Puma	-11.8251
▁bayaran	-11.8252
▁katad	-11.8252
▁pangtiti	-11.8253
▁Assyrian	-11.8256
▁Antilles	-11.8256
▁Cordillera	-11.8256
▁ensiklopedya	-11.8256
▁gymnosperm	-11.8256
▁kuwerdas	-11.8256
▁Madonna	-11.8256
▁deklarasyon	-11.8256
▁Layunin	-11.8256
▁radi	-11.8256
▁aktibista	-11.8256
▁Makabago	-11.8256
▁mawalan	-11.8257
▁Romanisasyon	-11.8257
▁pseudo	-11.8259
▁Valdi	-11.8262
kumpisal	-11.8264
▁Jiang	-11.827
▁Zeno	-11.827
eki	-11.8272
▁tinatag	-11.8273
▁coelom	-11.8276
silakbo	-11.8277
lalaman	-11.8278
nalakay	-11.8279
muno	-11.8283
▁pinakasal	-11.8284
ario	-11.8285
▁Plato	-11.8285
▁halal	-11.8286
duct	-11.8287
butihin	-11.8287
▁imprastruktura	-11.829
▁green	-11.829
▁nagbibinata	-11.829
abala	-11.8291
▁magkakapareha	-11.8294
die	-11.8294
abaligtaran	-11.8296
rew	-11.8296
▁intelektuwal	-11.8297
▁160	-11.8297
▁homoousios	-11.8301
sanggalang	-11.8301
▁pambatasan	-11.8301
pinapahintulutan	-11.8301
▁see	-11.8301
▁Viet	-11.8308
latag	-11.8312
▁humu	-11.8313
▁capita	-11.8316
▁binhi	-11.8316
▁randoma	-11.8317
▁salamangka	-11.8317
▁1.4	-11.8319
naka	-11.832
▁Isparta	-11.8321
▁Pennsylvania	-11.8325
▁Suweko	-11.8325
▁Krishna	-11.8325
▁luha	-11.8325
▁napapalibutan	-11.8325
▁tagapagmasid	-11.8326
▁cre	-11.8326
▁pagod	-11.8328
▁Eks	-11.8329
IV	-11.8329
▁pumupu	-11.8331
▁pagtataya	-11.8334
asingkahulugan	-11.8336
▁Genus	-11.8345
yap	-11.8346
▁nasasangkot	-11.8347
gbubuhat	-11.8348
ved	-11.835
ede	-11.8351
▁idin	-11.8356
▁Rica	-11.8358
▁tomo	-11.8358
▁Turkmenistan	-11.836
▁integer	-11.836
▁survey	-11.836
▁katipunan	-11.836
▁literaryo	-11.836
kintab	-11.836
▁ipininta	-11.836
▁Norman	-11.836
▁Oscar	-11.836
▁Potter	-11.8361
▁Lito	-11.8362
▁1878	-11.8364
uchi	-11.8367
▁county	-11.8367
imbak	-11.837
▁sirain	-11.837
▁pagtataas	-11.8371
gtitinda	-11.8375
▁nakakamit	-11.8376
▁Tila	-11.8376
▁Napaka	-11.8376
▁sakripisyo	-11.8376
▁sede	-11.8379
hinga	-11.8382
halili	-11.8383
▁Montema	-11.8384
▁paglubog	-11.8385
▁Manga	-11.8386
▁lipad	-11.8387
▁1,2	-11.8388
erer	-11.8389
▁Anime	-11.8391
▁Kudarat	-11.8394
▁bokabularyo	-11.8394
▁phenotype	-11.8394
▁dentista	-11.8394
▁Conference	-11.8394
▁site	-11.8395
▁WTO	-11.8395
▁Natural	-11.8395
lun	-11.8396
▁sapagka	-11.8396
▁Katalan	-11.8397
▁Diogen	-11.8398
▁96	-11.8398
▁asetiko	-11.8398
▁pinapansin	-11.8399
ural	-11.8401
▁magkasundo	-11.8403
▁Panta	-11.8404
▁sigarilyo	-11.8406
▁period	-11.8409
itas	-11.841
▁disc	-11.8416
abutan	-11.8416
▁function	-11.8419
punit	-11.8421
▁pagdu	-11.8422
kilala	-11.8422
lungkot	-11.8424
omer	-11.8428
▁Sevilla	-11.8429
▁Tagaytay	-11.8429
▁paggunita	-11.8429
▁pagpoproseso	-11.8429
▁Argos	-11.843
6,000	-11.843
bansa	-11.843
▁Chen	-11.843
▁dyipni	-11.843
▁napakataas	-11.8431
tad	-11.8432
▁lumiit	-11.8433
wersa	-11.8434
▁Katihan	-11.8434
▁97	-11.8435
▁Ran	-11.8437
1.25	-11.8439
▁bull	-11.8439
▁Marcelo	-11.8441
▁Sakit	-11.8442
▁notasyon	-11.8442
▁Fer	-11.8442
▁ingay	-11.8444
dona	-11.8446
▁ibinat	-11.8446
hili	-11.8447
▁pagtugtog	-11.8448
▁Kle	-11.8448
▁pagpapainam	-11.8449
taryo	-11.8451
▁pamahi	-11.8458
enus	-11.846
▁kabi	-11.8461
▁Dae	-11.8463
▁Hira	-11.8464
▁Emperatris	-11.8464
▁Marduk	-11.8464
▁Wencesla	-11.8464
▁ipinagbawal	-11.8464
▁nomenklatura	-11.8464
▁sopwer	-11.8464
pinahihintulutan	-11.8464
▁komunismo	-11.8465
▁pagtakas	-11.8465
▁pragmento	-11.8465
63	-11.8467
▁Franz	-11.8468
limutin	-11.8468
▁balot	-11.8468
▁Heb	-11.8469
sigaw	-11.847
palad	-11.8471
▁Leonardo	-11.8473
▁Elektra	-11.8474
nna	-11.8474
▁nagpakilala	-11.8475
kakagawa	-11.8483
▁benta	-11.8483
alismo	-11.8487
▁Char	-11.8487
▁kau	-11.8488
rki	-11.8488
▁Tru	-11.849
limit	-11.8492
wen	-11.8493
▁Sari	-11.8494
▁app	-11.8494
▁Let	-11.8494
▁Lupang	-11.8496
▁Live	-11.8496
▁4,000	-11.8498
▁Espadana	-11.85
▁ipinangako	-11.85
▁Athens	-11.85
▁pinatuyo	-11.85
▁Bituin	-11.85
▁kainaman	-11.85
▁kumpuwesto	-11.85
▁Riverside	-11.85
▁historis	-11.85
▁hijack	-11.85
▁Federation	-11.85
▁Maggior	-11.85
▁implikasyon	-11.8501
▁Fiji	-11.8501
bach	-11.8501
▁heretiko	-11.8502
ambala	-11.8503
▁By	-11.8504
▁upon	-11.8504
▁esk	-11.8504
▁ipanganak	-11.8504
▁manunuri	-11.8506
▁Oceania	-11.8507
ghahatid	-11.8509
▁son	-11.8514
duda	-11.8516
kta	-11.8519
▁kawali	-11.8522
nut	-11.8522
▁Gratia	-11.8527
▁1.8	-11.8528
▁Nasyon	-11.853
▁Porphyr	-11.8535
▁Florencia	-11.8535
▁Project	-11.8535
▁depresibo	-11.8535
▁gitara	-11.8535
▁pagsupil	-11.8535
▁homophobia	-11.8535
▁kalutasan	-11.8535
▁talukap	-11.8535
▁Grammy	-11.8535
▁Evans	-11.8535
▁Ferr	-11.8538
▁kanonisasyon	-11.854
kinabang	-11.8543
▁Linus	-11.8543
▁Cook	-11.8544
▁Vincent	-11.8545
nzano	-11.8548
▁Program	-11.8548
▁Holy	-11.8554
▁Ponte	-11.8555
▁tape	-11.8556
▁history	-11.8558
legio	-11.856
▁Liu	-11.8561
▁karma	-11.8561
ghanapbuhay	-11.8562
hirapan	-11.8563
▁Paraon	-11.8568
▁Apayao	-11.857
▁Gibraltar	-11.857
▁estrogen	-11.857
▁porsyento	-11.857
▁Enlil	-11.857
▁Justice	-11.8571
▁pampelikula	-11.8571
isyu	-11.8571
▁Jung	-11.8572
▁nagpapadala	-11.8574
hawak	-11.8574
▁Alfonso	-11.8577
▁Cerret	-11.8581
▁Des	-11.8585
▁aani	-11.8587
▁Pres	-11.8593
▁Vel	-11.8595
▁Mike	-11.8595
▁lisensiya	-11.86
araan	-11.8601
▁imperyal	-11.8603
▁175	-11.8605
▁Brassica	-11.8606
▁Rocchetta	-11.8606
▁Swift	-11.8606
▁eukaryotiko	-11.8606
▁labinlima	-11.8606
▁permentasyon	-11.8606
▁Obama	-11.8606
▁namamayani	-11.8606
▁usig	-11.8606
▁taksonomiya	-11.8607
▁konsumer	-11.8607
▁paggaling	-11.8607
▁Electric	-11.8608
▁halata	-11.8608
▁papalaki	-11.8608
▁namana	-11.8609
▁Lokal	-11.8609
▁Bla	-11.861
▁1882	-11.861
▁tagapa	-11.8611
▁Waray	-11.8613
▁nakataas	-11.8614
▁Sasakhari	-11.8615
▁Alan	-11.8616
cess	-11.8616
▁sultan	-11.8618
pinakilala	-11.8618
▁pamimili	-11.8619
magna	-11.862
lakbay	-11.8621
▁urong	-11.8622
▁dinaluh	-11.8623
AC	-11.8624
▁Mom	-11.8626
▁77	-11.8627
▁naglalayo	-11.8632
▁ayunan	-11.8634
kabit	-11.8636
▁Kababaihan	-11.8642
▁midyibal	-11.8642
▁pakundangan	-11.8642
▁Propeta	-11.8642
▁Aka	-11.8642
▁Neumann	-11.8642
▁Vignol	-11.8642
▁greenhouse	-11.8642
▁pakikinig	-11.8642
kel	-11.8642
tugon	-11.8642
▁sinturon	-11.8642
▁Gusali	-11.8643
pic	-11.8643
▁pagkakaibigan	-11.8643
▁Santander	-11.8644
▁muskulo	-11.8644
▁1993.	-11.8644
▁1857	-11.8646
pend	-11.8648
▁pagala	-11.8649
rel	-11.8653
langan	-11.8656
▁palakas	-11.866
▁wave	-11.866
mapapakinabangan	-11.8662
luma	-11.8666
▁artist	-11.8667
▁au	-11.8667
▁Kolonya	-11.8667
▁Yin	-11.8668
zan	-11.8669
uki	-11.8672
▁Cold	-11.8673
▁Tratado	-11.8678
▁Ultimate	-11.8678
▁eehersisyo	-11.8678
▁hektarya	-11.8678
▁katiwalian	-11.8678
▁peminista	-11.8678
▁serbesa	-11.8678
▁after	-11.8678
▁baranggay	-11.8678
▁Panalangin	-11.8678
▁Bernard	-11.8678
mouth	-11.8678
▁pampasigla	-11.8678
▁pagtira	-11.8678
▁polisiya	-11.8678
▁Amun	-11.8679
▁pet	-11.8679
▁pagsapi	-11.868
▁kr	-11.868
▁Amerikanang	-11.8681
▁ji	-11.8683
▁sumusuka	-11.8684
▁tawa	-11.8685
▁makakamit	-11.8686
nh	-11.8687
▁Fei	-11.8687
▁nagpapalakas	-11.8692
porma	-11.8693
▁Anim	-11.8694
▁Mora	-11.8698
▁roman	-11.8699
▁nagpaparami	-11.87
lee	-11.8701
▁Kab	-11.8701
ffe	-11.8701
mbre	-11.8702
▁madami	-11.8707
▁Cortes	-11.8707
udra	-11.8709
▁wind	-11.8713
▁DVD	-11.8714
▁Tacitus	-11.8714
▁Bergoglio	-11.8714
▁forgive	-11.8714
dalaw	-11.8714
▁Monggoloyd	-11.8714
▁Khazar	-11.8714
▁Vargas	-11.8714
▁pinondo	-11.8714
▁binatikos	-11.8714
▁proposisyon	-11.8714
▁lumalapat	-11.8715
kompetensiya	-11.8715
gsasanib	-11.8715
▁Sai	-11.8716
▁maitatag	-11.8716
▁optikal	-11.8716
▁inanyayahan	-11.8719
▁Madre	-11.8719
▁Theodora	-11.8719
▁Eva	-11.872
▁orbit	-11.8721
▁nakakatawa	-11.8722
▁hihigit	-11.8723
▁palimbagan	-11.8724
▁Dario	-11.873
ibig	-11.8732
▁Geno	-11.8736
▁inu	-11.8737
hana	-11.8737
▁goma	-11.8737
sasama	-11.8738
maya	-11.8738
▁Ras	-11.8739
yolohiya	-11.8739
miiral	-11.874
▁Suk	-11.8742
duksiyon	-11.8742
▁Gulo	-11.8743
▁Hussein	-11.875
▁embahada	-11.875
▁milimetro	-11.875
▁mitochondria	-11.875
▁penomena	-11.875
▁pumipigil	-11.875
▁hip	-11.875
▁antropologo	-11.875
▁kaantigan	-11.875
▁Napilitan	-11.875
▁Tumanggi	-11.8751
▁pinagsasama	-11.8752
▁pagkagusto	-11.8752
tubig	-11.8752
▁naranasan	-11.8753
▁Indio	-11.8754
▁Castellar	-11.8755
panumbalik	-11.8755
▁Imami	-11.8759
jani	-11.876
upkop	-11.876
▁20,000	-11.876
salita	-11.8764
sey	-11.8766
▁milagroso	-11.8768
▁Que	-11.8768
▁Umar	-11.8768
▁Demon	-11.8773
▁natatakot	-11.8773
kinakabit	-11.8777
▁piliin	-11.8779
▁metropolitan	-11.8779
dhi	-11.8781
▁pasu	-11.8782
aliw	-11.8783
misa	-11.8784
▁pirata	-11.8786
▁chairman	-11.8787
▁Maurya	-11.8787
▁TOP	-11.8787
▁fluid	-11.8788
▁Order	-11.8789
▁paghango	-11.879
sotto	-11.8791
▁flu	-11.8792
kasundo	-11.8803
▁110	-11.8805
▁Coc	-11.881
iinom	-11.8811
ngangal	-11.8819
▁Kish	-11.882
tungan	-11.8821
▁Ezekiel	-11.8822
▁Relihiyon	-11.8822
▁WHO	-11.8822
▁hinatulan	-11.8822
▁marhinal	-11.8822
▁nakahiga	-11.8822
▁Kamatayan	-11.8822
▁pakikialam	-11.8823
▁pinakamagaling	-11.8823
▁kahatian	-11.8824
▁pahalang	-11.8824
▁Masi	-11.8826
litiko	-11.8827
CP	-11.8827
▁Eduardo	-11.8827
▁magsama	-11.8828
pantay	-11.8831
dden	-11.8833
▁himno	-11.8834
▁hahant	-11.8841
hatulan	-11.8841
gami	-11.8843
ituturing	-11.8844
▁Reich	-11.8844
▁kontinental	-11.8845
▁hot	-11.8847
dating	-11.8848
4,000	-11.8848
▁habag	-11.8848
▁Tore	-11.8849
▁But	-11.885
▁Kant	-11.8851
▁pakikipagkapwa	-11.8852
▁Schrodinger	-11.8859
▁asteroyd	-11.8859
▁dominante	-11.8859
▁Czech	-11.8859
▁Ahmad	-11.8859
▁Toledo	-11.8859
▁damuhan	-11.8859
▁Lucban	-11.8859
▁Hur	-11.886
sure	-11.886
▁indikasyon	-11.886
▁pagsisipi	-11.886
▁panganga	-11.8862
▁Valt	-11.8862
▁1895	-11.8864
▁umiyak	-11.8864
▁Beach	-11.8864
▁espesyalista	-11.8866
▁Andre	-11.8868
▁Maori	-11.8868
lipas	-11.8869
▁respiratoryo	-11.8869
▁126	-11.8873
bird	-11.8875
MS	-11.8875
▁PC	-11.8883
▁color	-11.8888
▁PD	-11.8889
▁Petro	-11.889
▁Vico	-11.8895
▁Business	-11.8895
▁Jewish	-11.8895
▁TsinaKasaysayan	-11.8895
▁bisiro	-11.8895
▁Jersey	-11.8895
▁pangaral	-11.8896
paghiganti	-11.8896
▁kalabaw	-11.8896
▁Pamilya	-11.8896
▁chief	-11.8896
iklab	-11.8896
▁inilalaan	-11.8897
▁replikasyon	-11.8897
▁Gamb	-11.8897
▁Series	-11.8898
▁inaawit	-11.8898
▁Kiram	-11.8899
osio	-11.89
▁Choson	-11.89
▁hard	-11.8903
▁glute	-11.8904
▁Bangkok	-11.8909
kabilang	-11.8912
▁Leonti	-11.8916
BE	-11.8918
▁84	-11.892
ppo	-11.8921
▁nakasama	-11.8922
▁paghuhubo	-11.8922
▁Porto	-11.8923
uwe	-11.8925
buhos	-11.893
▁Sul	-11.8932
ravaglia	-11.8932
▁Mikhail	-11.8932
▁kinahinatnan	-11.8932
▁pagmomodelo	-11.8932
▁terorista	-11.8932
▁tinatalaban	-11.8932
▁pumupunta	-11.8933
▁iginawa	-11.8933
▁Imperial	-11.8933
▁maximum	-11.8933
▁Dabaw	-11.8934
▁Kuwento	-11.8934
▁mananahi	-11.8934
▁ubas	-11.8934
talab	-11.8935
▁mahihina	-11.8935
▁Mus	-11.8937
▁Indonesya	-11.8939
▁motibo	-11.894
▁nagbebenta	-11.894
hito	-11.894
▁Wan	-11.894
▁team	-11.8941
▁Malakias	-11.8942
upta	-11.8942
▁Joseon	-11.8948
batid	-11.8949
▁naaapektuhan	-11.8951
▁nerbyos	-11.8953
bie	-11.8955
▁Pinu	-11.8961
ER	-11.8961
tail	-11.8962
pawalang	-11.8965
gtanghal	-11.8965
▁transisyon	-11.8965
▁81	-11.8967
▁mahahati	-11.8967
kaalam	-11.8967
▁Your	-11.8968
▁Apocalipsis	-11.8969
▁Asamblea	-11.8969
▁Jamaica	-11.8969
▁hepataytis	-11.8969
▁longganisa	-11.8969
▁pagpapasuso	-11.8969
▁Seksuwal	-11.8969
▁start	-11.8969
▁magkasabay	-11.8969
▁Hippo	-11.8969
▁Tahanan	-11.897
03	-11.8971
▁Dragon	-11.8971
zza	-11.8972
▁matu	-11.8972
▁toro	-11.8973
▁taliwas	-11.8974
arok	-11.8975
▁national	-11.8976
▁inawit	-11.8978
▁Spe	-11.8979
▁Blo	-11.898
▁Tzu	-11.8983
▁mall	-11.8983
watak	-11.8984
bunga	-11.8984
gsasanggala	-11.8987
▁Abd	-11.8988
pasya	-11.8988
▁Mei	-11.8989
polis	-11.8991
▁Sirya	-11.8991
uch	-11.8994
hawig	-11.8997
▁Imp	-11.9
isakatuparan	-11.9006
▁Prinsesa	-11.9006
▁kinapapalooban	-11.9006
▁Carthag	-11.9006
baga	-11.9009
yanig	-11.901
▁blue	-11.901
▁Cris	-11.9012
▁malalamig	-11.9014
▁nagkasundo	-11.902
onal	-11.902
▁Rev	-11.9021
▁turn	-11.9022
▁Wild	-11.9023
▁Card	-11.9024
▁IC	-11.9024
▁pagguho	-11.9025
▁datu	-11.9025
▁Lili	-11.9026
rahan	-11.9027
oretta	-11.9029
▁bear	-11.9029
▁nagsusulat	-11.9029
▁Valc	-11.9029
amumuhay	-11.903
sisi	-11.9031
puri	-11.9033
▁solo	-11.9035
pamahalaan	-11.9036
▁Malaka	-11.9039
▁church	-11.904
▁mol	-11.9043
▁kosmiko	-11.9043
▁website	-11.9043
▁Wikimedia	-11.9043
▁higaan	-11.9043
▁Cristobal	-11.9044
▁pormasyon	-11.9044
avour	-11.9045
▁500,000	-11.9046
nam	-11.9047
▁anito	-11.9047
▁makatarungan	-11.9047
▁inihahalal	-11.9048
▁Marx	-11.905
ksak	-11.9051
▁Tumata	-11.9051
enna	-11.9051
araw	-11.9052
kulu	-11.9052
pupunta	-11.9053
▁Euro	-11.9054
banas	-11.9054
▁Enki	-11.9054
▁therapy	-11.9057
▁binasa	-11.9057
diriwang	-11.906
▁Pec	-11.9071
▁Colle	-11.9077
▁mapan	-11.9077
▁fan	-11.9078
once	-11.908
▁Beethoven	-11.9081
▁meditasyon	-11.9081
▁Friedrich	-11.9081
▁kwartel	-11.9081
▁sulo	-11.9082
▁hikayatin	-11.9083
▁lente	-11.9084
▁Light	-11.9084
▁pinapalitan	-11.9085
▁Gat	-11.9088
▁1915	-11.9088
mali	-11.909
▁Atlantic	-11.909
▁pagtutuon	-11.9091
▁iyan	-11.9094
▁Alma	-11.9096
▁magturo	-11.9097
▁hyper	-11.9098
▁Junn	-11.9101
▁genre	-11.9102
▁maluto	-11.9105
wari	-11.9106
edge	-11.9106
▁1.0	-11.9106
nilikha	-11.9109
hika	-11.9109
▁gen	-11.9109
insulto	-11.9109
kaya	-11.911
05	-11.9113
▁probisyon	-11.9113
▁laway	-11.9114
▁Hera	-11.9116
xecutive	-11.9116
▁Wawa	-11.9117
▁Nun	-11.9118
▁Barbar	-11.9118
atsilyer	-11.9118
▁Bracken	-11.9118
▁Confucius	-11.9118
▁Hokkaido	-11.9118
▁Imperyal	-11.9118
▁JTWC	-11.9118
▁Mediterranean	-11.9118
▁Quirinius	-11.9118
▁produktibo	-11.9118
▁Ithaca	-11.9118
▁pinlano	-11.9118
▁nananahan	-11.9118
▁primasiya	-11.9118
▁pinasimulan	-11.9119
▁Butuan	-11.9119
our	-11.9119
subok	-11.9119
▁pampamahalaan	-11.9119
▁panggawain	-11.912
▁region	-11.912
▁naitayo	-11.912
▁1888	-11.9122
▁nasaksihan	-11.9123
▁Hay	-11.9124
▁nakagagawa	-11.9125
osauro	-11.9125
ihag	-11.9127
▁pagsusuka	-11.913
▁binalak	-11.913
lante	-11.9135
▁Tab	-11.9135
▁kard	-11.9135
▁pusod	-11.9137
▁ven	-11.9137
▁pokus	-11.9141
▁lisan	-11.9143
ukoy	-11.9147
▁Colon	-11.9148
▁bilugan	-11.915
▁tinik	-11.9152
▁niluto	-11.9154
▁Istanbul	-11.9156
▁artilyero	-11.9156
▁hugpungan	-11.9156
▁natutuhan	-11.9156
▁hinahanggan	-11.9156
▁Universidad	-11.9156
▁kasikatan	-11.9156
▁anaphylaxis	-11.9156
▁Swiss	-11.9156
▁lusub	-11.9156
▁buod	-11.9156
▁kalesa	-11.9156
▁pagdiin	-11.9157
▁Kyoto	-11.9158
pangkat	-11.9159
ibigan	-11.9159
alitan	-11.9159
▁kabit	-11.9163
▁inuri	-11.9163
▁koral	-11.9163
Kristiyanisasyon	-11.9165
▁Arko	-11.9169
siwalat	-11.9172
uudyok	-11.9173
gsisiyasat	-11.9173
▁Cle	-11.9175
▁Sep	-11.9176
pagmasdan	-11.9177
▁Indiyan	-11.9177
▁Dumada	-11.9179
▁sinusuri	-11.9179
▁panyo	-11.918
▁pampigi	-11.9181
▁kapuna	-11.9182
▁come	-11.9187
▁binabae	-11.9187
hugas	-11.9188
palaganap	-11.919
▁Lou	-11.9191
▁Gnostisismo	-11.9193
▁pampisyolohiya	-11.9193
▁awtonomiya	-11.9193
▁Saud	-11.9194
▁drug	-11.9194
▁Emirates	-11.9194
▁kumakalat	-11.9194
▁Watch	-11.9194
▁Crete	-11.9196
▁bubong	-11.9196
huhusga	-11.9196
▁sagana	-11.9197
▁Pius	-11.9198
avilla	-11.9198
sar	-11.9199
gdusa	-11.92
SS	-11.9204
okopya	-11.9205
ped	-11.9205
▁Canis	-11.9205
▁edukado	-11.9206
▁las	-11.9208
Australopithecus	-11.9212
dulas	-11.9212
lyn	-11.9213
▁Lipa	-11.9213
▁Kati	-11.9213
▁Abi	-11.9214
▁kredito	-11.9214
ates	-11.9214
▁singil	-11.9216
cker	-11.9217
▁Carus	-11.9219
▁Babilonyano	-11.9221
▁dalas	-11.9221
▁Oly	-11.9221
▁sabon	-11.9223
▁vs	-11.9225
▁Aladdin	-11.9231
▁Doctor	-11.9231
▁natututo	-11.9231
▁maintindihan	-11.9231
▁Naruto	-11.9231
▁medikasyon	-11.9231
▁ekilibrio	-11.9231
▁Geneva	-11.9231
▁Igorot	-11.9232
▁mahanap	-11.9232
▁bulba	-11.9234
▁Tarso	-11.9234
tatakda	-11.9235
▁pinalaki	-11.9236
▁ABC	-11.9237
▁Guma	-11.9237
▁Vatikano	-11.9238
▁pinangalan	-11.924
gtaguyod	-11.9248
ihalal	-11.9248
▁Fire	-11.9251
▁trak	-11.9252
▁Anastasio	-11.9255
▁ped	-11.9255
▁ulang	-11.9256
chan	-11.9267
▁Eusebius	-11.9269
▁Guillermo	-11.9269
▁international	-11.9269
▁kinikilingan	-11.9269
▁mahistrado	-11.9269
▁nagbibigkis	-11.9269
▁pampalakasan	-11.9269
▁situwasyon	-11.9269
iformes	-11.9269
▁tolda	-11.9269
▁Bigla	-11.927
lasing	-11.927
▁napapabilang	-11.927
▁Emmanuel	-11.9271
▁Baltiko	-11.9271
▁tinalakay	-11.9272
▁Pederasyon	-11.9273
▁agent	-11.9273
▁subukan	-11.9273
RC	-11.9274
▁Ov	-11.9275
▁Taoismo	-11.9277
▁paleo	-11.9279
buti	-11.9287
▁lalu	-11.9289
▁Princess	-11.9291
▁Ut	-11.9292
▁dili	-11.9295
▁Alex	-11.9296
labo	-11.9297
▁sinabihan	-11.9299
▁nanumpa	-11.9301
ampok	-11.9302
▁naglala	-11.9304
▁waves	-11.9306
daldal	-11.9307
▁Jacinto	-11.9307
▁Nabucodonosor	-11.9307
▁kalituhan	-11.9307
▁Junior	-11.9307
▁pisyolohikal	-11.9307
▁paminta	-11.9308
▁nagpapakamatay	-11.9308
sasabi	-11.9312
▁way	-11.9314
tutuloy	-11.9316
▁pagkalito	-11.9317
▁pagpansin	-11.9318
kandado	-11.9321
ntok	-11.9321
▁kripto	-11.9322
▁frac	-11.9322
pod	-11.9324
▁pagpapatawad	-11.9327
▁Nilo	-11.9328
type	-11.9332
▁umasa	-11.9335
lakan	-11.9336
dv	-11.9339
▁gray	-11.934
iza	-11.9343
▁ikinasal	-11.9344
▁Ludwig	-11.9346
▁Taylor	-11.9346
▁dibersidad	-11.9346
▁dopamino	-11.9346
▁eksistensiya	-11.9346
▁Panlipunan	-11.9346
▁ergaster	-11.9346
▁ritmo	-11.9346
pini	-11.9346
▁Kumbensiyon	-11.9346
▁Everest	-11.9346
▁Meiji	-11.9346
▁makapagpaparami	-11.9347
▁Pagpapaunlad	-11.9347
▁akusasyon	-11.9348
batikos	-11.9348
▁namumuko	-11.9349
▁Orden	-11.9351
▁Plata	-11.9351
▁parsiyal	-11.9352
▁nakaangat	-11.9353
▁pagkakasulat	-11.9354
kakaapekto	-11.9357
▁Acts	-11.9358
▁lumili	-11.9359
▁Johnson	-11.9362
▁Mina	-11.9373
▁balon	-11.9374
▁isasagawa	-11.9375
labis	-11.9375
▁basal	-11.9375
▁That	-11.9377
▁Way	-11.938
▁konsiyerto	-11.9381
▁Catanduanes	-11.9384
▁Meralco	-11.9384
▁Zulaikha	-11.9384
▁domestic	-11.9384
▁probinsya	-11.9384
▁Sarangani	-11.9384
▁monastiko	-11.9384
▁arahant	-11.9384
▁sensasyon	-11.9384
▁talakayin	-11.9384
▁kurdon	-11.9384
▁kondado	-11.9385
▁panlangoy	-11.9385
▁oral	-11.9387
▁pagkakakulong	-11.9387
▁latian	-11.9388
heim	-11.939
▁Deci	-11.939
▁neutrons	-11.9391
lusaw	-11.9391
paligiran	-11.9393
baliktad	-11.9394
gnano	-11.9394
▁tinta	-11.9404
▁skriba	-11.9404
sugpo	-11.9405
▁trou	-11.9405
pupuntahan	-11.9406
mple	-11.9409
qi	-11.9411
▁Maximilian	-11.9412
rail	-11.9415
▁Philippi	-11.9417
▁agrikultural	-11.9417
kila	-11.9418
▁Olimp	-11.942
▁Alc	-11.9421
▁Ontario	-11.9423
▁Siquijor	-11.9423
▁adrenal	-11.9423
▁erohenosa	-11.9423
▁Domi	-11.9424
▁tinuruan	-11.9424
ligid	-11.9427
▁pinanganak	-11.9428
▁matamo	-11.9431
▁aatas	-11.9431
▁Joanne	-11.9435
▁nh	-11.9435
▁kuru	-11.9436
▁tawad	-11.9436
▁lt	-11.9436
▁bronchi	-11.9437
▁kataasan	-11.9437
▁tour	-11.9438
▁pakana	-11.9438
wt	-11.9439
RA	-11.944
vr	-11.9441
▁Mario	-11.9442
▁Sikh	-11.9444
▁magaang	-11.9447
kaawa	-11.9447
cs	-11.9449
papalitan	-11.9449
▁pneumonia	-11.945
▁manika	-11.9455
rasso	-11.9459
▁December	-11.9462
▁Kaamerikahan	-11.9462
▁Nazareno	-11.9462
▁nagpakamatay	-11.9462
▁sinilangan	-11.9462
▁Diliman	-11.9462
▁konektado	-11.9462
▁tinuturuan	-11.9462
▁pananghalian	-11.9462
▁narangha	-11.9462
▁Civil	-11.9463
ulbos	-11.9463
▁pagkakatawan	-11.9463
▁Coco	-11.9463
▁aritmetika	-11.9464
▁reklamo	-11.9465
kandili	-11.9465
▁Pagpapa	-11.9468
▁Pangkalahatan	-11.9469
▁wari	-11.9471
▁Kalakalan	-11.9474
▁pagkabuo	-11.9476
▁madugo	-11.9476
▁magsasanib	-11.9478
▁iono	-11.9479
eetle	-11.9484
▁nilayon	-11.9484
lilipat	-11.9489
tapon	-11.949
▁Theodosi	-11.9494
lunod	-11.9495
▁sanay	-11.9496
▁halamanan	-11.95
▁Aeneas	-11.95
▁Araneta	-11.95
▁Family	-11.95
▁interbensiyon	-11.95
▁surpasiyo	-11.95
▁encomenderos	-11.9501
▁standard	-11.9501
▁nagha	-11.9501
▁Belgium	-11.9501
▁tagapaglingkod	-11.9501
▁Town	-11.9502
▁pumanaw	-11.9503
▁Troy	-11.9504
▁pamiminsala	-11.9505
▁ipi	-11.9507
▁bro	-11.9511
▁pagkiling	-11.9513
▁paratang	-11.9518
▁Tinuturi	-11.9519
▁Centro	-11.952
▁Chiu	-11.9521
verse	-11.9522
kitil	-11.9523
▁nagkaisa	-11.9524
▁ikalit	-11.9525
▁Marcian	-11.9525
ekto	-11.9527
▁sinama	-11.9532
▁Jay	-11.9532
▁Epi	-11.9532
▁gal	-11.9534
▁isipin	-11.9538
parehas	-11.9539
▁Merced	-11.9539
▁Ash	-11.954
▁Estadistika	-11.954
▁Guimaras	-11.954
▁Manhattan	-11.954
▁Nananatili	-11.954
▁statistic	-11.954
▁Aruba	-11.954
▁trepan	-11.954
▁sinipi	-11.954
▁Disney	-11.954
▁pampangasiwaan	-11.954
▁mabago	-11.954
iyal	-11.9541
▁pamilang	-11.9543
▁dinamiko	-11.9547
▁magparami	-11.9547
▁kahel	-11.9548
▁Cebuano	-11.9548
ston	-11.9549
750	-11.955
light	-11.9552
▁Joan	-11.9553
▁iipon	-11.9556
▁cross	-11.9561
▁strata	-11.9562
imik	-11.9562
reproduksiyon	-11.9562
▁pagkakasala	-11.9562
babatid	-11.9563
enyal	-11.9565
▁Meron	-11.9565
▁pagpapasa	-11.9568
▁Dominican	-11.9569
bubuhos	-11.9571
▁tea	-11.9571
▁Romana	-11.9572
▁Lyon	-11.9572
▁itinata	-11.9573
lubong	-11.9575
▁Tyr	-11.9577
▁Mediterraneo	-11.9579
▁Zacarias	-11.9579
▁paleontolohiya	-11.9579
▁Separdi	-11.9579
▁pagkamulat	-11.9579
▁antiretroviral	-11.9579
▁kasagutan	-11.9579
▁kalasag	-11.9579
▁lumalahok	-11.9579
▁anemia	-11.9579
▁kupunan	-11.9579
▁bagting	-11.958
▁mangangaral	-11.9581
▁Osaka	-11.9582
alakay	-11.9584
▁Wise	-11.9585
▁Prob	-11.9585
▁1.7	-11.9586
▁tagapagbigay	-11.9586
▁nagdiriwang	-11.9593
▁gameto	-11.9593
▁Wells	-11.9593
jah	-11.9594
preserba	-11.9594
▁1922.	-11.9595
▁almusal	-11.9596
limos	-11.9597
▁nahukay	-11.9601
slit	-11.9605
himbing	-11.9606
aktor	-11.9606
▁Part	-11.9607
naga	-11.9608
nggulo	-11.9609
▁inaalo	-11.9613
▁Manchu	-11.9615
box	-11.9618
▁Deuteronomist	-11.9618
▁District	-11.9618
▁Sebwano	-11.9618
▁dambuhala	-11.9618
▁kailugan	-11.9618
▁kurikulum	-11.9618
▁produksyon	-11.9618
▁Baybayin	-11.9618
▁unlapi	-11.9618
▁paskuwa	-11.9618
▁Ronald	-11.9618
▁complex	-11.9618
▁Botanic	-11.9618
▁pressure	-11.9618
▁Pian	-11.9619
▁pambahay	-11.9619
▁tanggulan	-11.9619
▁ATP	-11.9619
▁transkripsiyon	-11.9619
▁press	-11.9619
▁kalupitan	-11.9619
kiisa	-11.962
▁Codex	-11.9621
▁Gallu	-11.9622
▁pagkakabahagi	-11.9622
▁pamumula	-11.9622
▁Board	-11.9623
kalantad	-11.9627
▁paglilibing	-11.9629
ulgar	-11.963
▁encomienda	-11.9631
alungat	-11.9632
gsanay	-11.9633
dalawang	-11.9635
▁sinusulat	-11.9635
▁Horus	-11.9636
▁Jovian	-11.9637
▁them	-11.9642
alia	-11.9643
[...]
